<unk>	0
▁"	-0
":	-1
ud	-2
ng	-3
00	-4
on	-5
500	-6
at	-7
av	-8
wav	-9
▁c	-10
▁t	-11
ho	-12
uy	-13
li	-14
con	-15
en	-16
nguy	-17
du	-18
va	-19
le	-20
ie	-21
ve	-22
",	-23
AI	-24
ex	-25
fi	-26
io	-27
me	-28
pd	-29
rt	-30
{"	-31
AIb	-32
Bud	-33
Vie	-34
ath	-35
ati	-36
aud	-37
dur	-38
ext	-39
lep	-40
lid	-41
▁"/	-42
▁{"	-43
500/	-44
500_	-45
Viet	-46
home	-47
text	-48
vert	-49
wavs	-50
AIbud	-51
ation	-52
audio	-53
filep	-54
valid	-55
nguyen	-56
convert	-57
duration	-58
filepath	-59
pdnguyen	-60
VietAIbud	-61
"}	-62
5,	-63
nh	-64
▁đ	-65
2.	-66
▁2.	-67
▁m	-68
▁l	-69
▁th	-70
▁v	-71
25,	-72
75,	-73
▁nh	-74
▁b	-75
▁k	-76
▁n	-77
▁ch	-78
▁h	-79
3.	-80
1.	-81
▁kh	-82
▁s	-83
ông	-84
▁ng	-85
▁g	-86
▁là	-87
▁tr	-88
▁3.	-89
125,	-90
625,	-91
▁1.	-92
375,	-93
875,	-94
▁r	-95
ời	-96
ph	-97
/4	-98
/6	-99
/1	-100
/2	-101
/3	-102
/5	-103
ên	-104
ình	-105
ôi	-106
▁ph	-107
▁không	-108
▁có	-109
▁cá	-110
anh	-111
▁d	-112
▁gi	-113
4.	-114
ch	-115
ới	-116
ột	-117
qu	-118
ủa	-119
21	-120
iế	-121
41	-122
▁và	-123
5.	-124
ười	-125
6.	-126
7.	-127
8.	-128
9.	-129
61	-130
ất	-131
▁qu	-132
ại	-133
iệ	-134
▁mà	-135
▁của	-136
▁x	-137
0.	-138
ượ	-139
ấy	-140
▁một	-141
01	-142
81	-143
▁như	-144
▁nó	-145
▁tôi	-146
▁anh	-147
▁nà	-148
em	-149
▁người	-150
/7	-151
▁mình	-152
ững	-153
ược	-154
ũng	-155
ay	-156
▁cái	-157
5625,	-158
iề	-159
▁thì	-160
▁2.3	-161
▁2.4	-162
ai	-163
ải	-164
th	-165
▁được	-166
8125,	-167
▁2.2	-168
4375,	-169
ong	-170
▁những	-171
▁cũng	-172
▁em	-173
▁cả	-174
3125,	-175
ân	-176
▁cho	-177
ồi	-178
6875,	-179
▁đó	-180
uố	-181
▁đi	-182
▁con	-183
▁2.1	-184
▁2.5	-185
▁2.7	-186
0625,	-187
▁2.6	-188
▁lại	-189
ao	-190
▁ngh	-191
▁đã	-192
▁với	-193
▁2.8	-194
ây	-195
ần	-196
▁cô	-197
iều	-198
▁này	-199
ạn	-200
ướ	-201
úng	-202
▁ta	-203
▁ra	-204
âu	-205
kh	-206
ác	-207
au	-208
▁2.9	-209
▁làm	-210
ến	-211
▁nói	-212
80	-213
▁phải	-214
ang	-215
▁để	-216
9375,	-217
iết	-218
60	-219
▁về	-220
an	-221
▁1.9	-222
òn	-223
20	-224
ước	-225
▁2.0	-226
▁trong	-227
▁thể	-228
▁khi	-229
▁sẽ	-230
▁1.8	-231
▁rồi	-232
40	-233
ươ	-234
42	-235
▁bạn	-236
▁gì	-237
ái	-238
▁họ	-239
▁ở	-240
ành	-241
▁đến	-242
ương	-243
1875,	-244
▁nhưng	-245
ận	-246
82	-247
ật	-248
iên	-249
ết	-250
àng	-251
▁3.1	-252
iện	-253
▁còn	-254
▁thế	-255
62	-256
úc	-257
▁1.7	-258
ơn	-259
▁3.0	-260
iể	-261
tr	-262
ậy	-263
▁chị	-264
22	-265
▁biết	-266
ằng	-267
ườ	-268
▁nào	-269
▁ông	-270
ưa	-271
inh	-272
▁mẹ	-273
▁các	-274
ầu	-275
ài	-276
ăn	-277
àn	-278
ường	-279
ọi	-280
▁nhà	-281
ống	-282
▁việ	-283
êu	-284
▁thấy	-285
ùng	-286
uyệ	-287
▁từ	-288
▁vì	-289
ồng	-290
02	-291
ức	-292
ính	-293
▁chúng	-294
ày	-295
iến	-296
▁chỉ	-297
ản	-298
ực	-299
uốn	-300
ữa	-301
▁sự	-302
ắt	-303
không	-304
uyện	-305
▁ho	-306
▁nên	-307
▁nhiều	-308
ơi	-309
ẫn	-310
ỏi	-311
ộc	-312
▁vào	-313
▁y	-314
▁đây	-315
▁việc	-316
▁1.6	-317
▁rất	-318
▁vậy	-319
▁ấy	-320
▁3.2	-321
▁cảm	-322
▁giờ	-323
▁3.3	-324
ôn	-325
òng	-326
▁sao	-327
ối	-328
ội	-329
▁hai	-330
ìn	-331
ếu	-332
át	-333
▁4.	-334
▁muốn	-335
in	-336
▁chuyện	-337
ắc	-338
▁mới	-339
59	-340
âm	-341
ặt	-342
ăm	-343
uộc	-344
iểu	-345
áng	-346
▁đang	-347
▁bà	-348
▁đầu	-349
▁cứ	-350
39	-351
ổi	-352
như	-353
▁công	-354
ỗi	-355
ung	-356
▁lên	-357
▁nghĩ	-358
ích	-359
▁nữa	-360
▁vẫn	-361
▁nhìn	-362
ắm	-363
▁bị	-364
▁nhất	-365
▁1.5	-366
▁3.4	-367
▁3.5	-368
iền	-369
▁hơn	-370
▁sau	-371
▁đề	-372
▁lúc	-373
▁hay	-374
▁tiế	-375
99	-376
êm	-377
ảo	-378
uống	-379
ập	-380
▁ăn	-381
▁quá	-382
▁sống	-383
79	-384
▁ai	-385
▁qua	-386
▁đâu	-387
ậu	-388
ừa	-389
▁ngày	-390
tôi	-391
▁thành	-392
ăng	-393
▁mọi	-394
▁cùng	-395
ánh	-396
ứng	-397
ẳng	-398
ộng	-399
▁đị	-400
▁thời	-401
ạnh	-402
ừng	-403
▁cách	-404
▁nhận	-405
là	-406
ôm	-407
▁khác	-408
ốt	-409
ọng	-410
▁lu	-411
▁thôi	-412
▁tình	-413
ục	-414
▁thân	-415
▁đấy	-416
▁trước	-417
/11	-418
/21	-419
/31	-420
/41	-421
/51	-422
/61	-423
/71	-424
thì	-425
▁nhau	-426
am	-427
ách	-428
▁nếu	-429
▁tâm	-430
▁tới	-431
▁yêu	-432
▁nghe	-433
án	-434
có	-435
eo	-436
▁thứ	-437
nhưng	-438
▁chưa	-439
▁cuộc	-440
▁nước	-441
ìm	-442
ấn	-443
21875,	-444
ào	-445
ặc	-446
▁li	-447
▁học	-448
▁nay	-449
/9	-450
ắn	-451
/13	-452
/17	-453
/19	-454
/23	-455
/27	-456
/29	-457
/33	-458
/37	-459
/39	-460
/43	-461
/47	-462
/49	-463
/53	-464
/57	-465
/59	-466
/63	-467
/67	-468
/69	-469
/73	-470
▁tự	-471
mình	-472
người	-473
▁điều	-474
áo	-475
ửa	-476
/15	-477
/25	-478
/35	-479
/45	-480
/55	-481
/65	-482
▁trên	-483
▁định	-484
▁hiện	-485
▁quan	-486
ia	-487
ốc	-488
▁rằng	-489
▁bên	-490
ớn	-491
▁gia	-492
▁mặt	-493
▁tay	-494
ầm	-495
ởi	-496
▁thật	-497
▁ý	-498
một	-499
oài	-500
▁câu	-501
2,	-502
▁lời	-503
▁thu	-504
những	-505
út	-506
ưở	-507
ưởng	-508
▁gian	-509
▁chính	-510
ặp	-511
▁cần	-512
▁vừa	-513
49	-514
6,	-515
ạo	-516
▁lý	-517
▁lần	-518
trong	-519
▁nhân	-520
quy	-521
▁do	-522
cũng	-523
▁bao	-524
▁mắt	-525
▁năm	-526
▁đồng	-527
815625,	-528
▁tại	-529
8,	-530
gi	-531
▁to	-532
▁hỏi	-533
▁tìm	-534
▁theo	-535
▁tiền	-536
▁nhiên	-537
/8	-538
47	-539
nó	-540
ám	-541
/12	-542
/16	-543
/18	-544
/22	-545
/26	-546
/28	-547
/32	-548
/36	-549
/38	-550
/42	-551
/46	-552
/48	-553
/52	-554
/56	-555
/58	-556
/62	-557
/66	-558
/68	-559
/72	-560
▁tu	-561
▁3.6	-562
▁cậu	-563
▁hết	-564
và	-565
ền	-566
ắng	-567
▁đúng	-568
/10	-569
/20	-570
/30	-571
/40	-572
/50	-573
/60	-574
/70	-575
của	-576
▁bác	-577
▁bản	-578
▁gái	-579
▁xuống	-580
214375,	-581
43	-582
cái	-583
▁khó	-584
▁hiểu	-585
▁luôn	-586
4,	-587
45	-588
48	-589
ọc	-590
▁cơ	-591
▁hôm	-592
▁quy	-593
▁tin	-594
▁đều	-595
▁động	-596
46	-597
áu	-598
ạt	-599
▁lo	-600
▁lớn	-601
iêu	-602
015,	-603
▁bây	-604
▁bảo	-605
ọn	-606
40.	-607
41.	-608
42.	-609
43.	-610
44.	-611
45.	-612
46.	-613
47.	-614
48.	-615
49.	-616
▁tốt	-617
01875,	-618
611875,	-619
▁thương	-620
814375,	-621
ấp	-622
ấu	-623
▁bằng	-624
▁sinh	-625
ui	-626
▁ba	-627
▁kho	-628
615,	-629
▁lắm	-630
▁trở	-631
▁2.241	-632
▁vợ	-633
▁bắt	-634
▁đời	-635
▁hàng	-636
im	-637
áp	-638
iệm	-639
▁sợ	-640
▁thực	-641
▁chồng	-642
21,	-643
▁ngồi	-644
▁vị	-645
ứa	-646
▁gọi	-647
01375,	-648
41375,	-649
41,	-650
61,	-651
ảnh	-652
▁vô	-653
▁3.00	-654
61625,	-655
▁chẳng	-656
▁tiếng	-657
ồn	-658
được	-659
▁gặp	-660
▁bình	-661
▁ngoài	-662
cô	-663
ãi	-664
iệt	-665
▁bé	-666
▁bố	-667
▁bởi	-668
▁đối	-669
▁phòng	-670
50.	-671
51.	-672
52.	-673
53.	-674
54.	-675
55.	-676
56.	-677
57.	-678
58.	-679
59.	-680
60.	-681
61.	-682
62.	-683
63.	-684
64.	-685
65.	-686
66.	-687
67.	-688
68.	-689
69.	-690
70.	-691
71.	-692
72.	-693
73.	-694
74.	-695
75.	-696
76.	-697
77.	-698
78.	-699
79.	-700
80.	-701
81.	-702
82.	-703
83.	-704
84.	-705
85.	-706
86.	-707
87.	-708
88.	-709
89.	-710
cho	-711
▁lấy	-712
▁hành	-713
▁2.421	-714
ãy	-715
00.	-716
30.	-717
31.	-718
32.	-719
33.	-720
34.	-721
35.	-722
36.	-723
37.	-724
38.	-725
39.	-726
uất	-727
ụng	-728
▁3.7	-729
▁mất	-730
▁vui	-731
▁lòng	-732
61375,	-733
▁đường	-734
khi	-735
ượng	-736
▁mỗi	-737
▁hình	-738
▁thường	-739
ạc	-740
ạy	-741
▁chứ	-742
▁tiếp	-743
mà	-744
để	-745
▁đo	-746
chúng	-747
▁quân	-748
▁trọng	-749
ễn	-750
▁lẽ	-751
▁tho	-752
▁nguy	-753
▁sáng	-754
ua	-755
ướng	-756
▁3.8	-757
▁chú	-758
▁tất	-759
00625,	-760
úp	-761
▁nhỏ	-762
▁xem	-763
ằm	-764
ảng	-765
ịch	-766
415,	-767
▁nam	-768
▁đưa	-769
▁cháu	-770
▁2.381	-771
▁thích	-772
rồi	-773
▁bộ	-774
▁xin	-775
2175,	-776
▁khỏi	-777
▁minh	-778
▁phát	-779
▁thay	-780
▁trai	-781
ảm	-782
ảy	-783
ợi	-784
▁bu	-785
▁kỳ	-786
▁số	-787
215,	-788
▁mấy	-789
▁ngủ	-790
▁đất	-791
6175,	-792
▁đình	-793
81375,	-794
215625,	-795
01,	-796
ngh	-797
▁đủ	-798
▁trả	-799
▁thêm	-800
▁xong	-801
▁đứng	-802
▁2.961	-803
▁trường	-804
ầy	-805
uối	-806
▁xe	-807
▁bất	-808
▁phí	-809
▁đại	-810
▁năng	-811
▁toàn	-812
▁khiến	-813
▁thông	-814
ợp	-815
thế	-816
▁vẻ	-817
▁xa	-818
uyên	-819
▁chí	-820
▁cửa	-821
▁tên	-822
▁đàn	-823
▁đứa	-824
0125,	-825
▁trình	-826
414375,	-827
ấm	-828
ẩn	-829
óng	-830
ệnh	-831
▁bỏ	-832
▁tư	-833
▁3.9	-834
▁nơi	-835
▁2.00	-836
iệp	-837
này	-838
▁gần	-839
▁hội	-840
▁lâu	-841
▁điể	-842
4175,	-843
▁sang	-844
41125,	-845
80625,	-846
▁2.701	-847
416875,	-848
óc	-849
ẹp	-850
iễn	-851
với	-852
▁mở	-853
phải	-854
▁phụ	-855
▁đổi	-856
▁ảnh	-857
▁giới	-858
oi	-859
iệu	-860
▁dù	-861
▁sĩ	-862
▁hãy	-863
▁nhớ	-864
4125,	-865
▁giúp	-866
▁tính	-867
▁viên	-868
21375,	-869
40625,	-870
▁chiến	-871
413125,	-872
ét	-873
iển	-874
ạch	-875
▁tập	-876
▁chắc	-877
▁chịu	-878
▁quay	-879
▁trời	-880
▁2.301	-881
613125,	-882
810625,	-883
ạm	-884
iểm	-885
nói	-886
ặng	-887
▁hoa	-888
▁hợp	-889
▁kia	-890
▁quốc	-891
▁điện	-892
21125,	-893
81875,	-894
▁3.001	-895
ắp	-896
▁à	-897
▁ạ	-898
▁giá	-899
▁trẻ	-900
▁đêm	-901
▁chơi	-902
▁phần	-903
809375,	-904
làm	-905
ạng	-906
▁dự	-907
▁nữ	-908
▁cao	-909
▁nằm	-910
▁tài	-911
▁càng	-912
▁mạnh	-913
▁tiên	-914
▁quyết	-915
▁ơn	-916
▁sức	-917
6125,	-918
▁chết	-919
▁giải	-920
▁kiểu	-921
▁ngay	-922
▁từng	-923
▁điểm	-924
▁trung	-925
âng	-926
ưới	-927
▁hệ	-928
▁vật	-929
▁xuất	-930
▁đừng	-931
▁tưởng	-932
ít	-933
óa	-934
ếp	-935
lại	-936
ĩnh	-937
▁cố	-938
▁tế	-939
▁đồ	-940
▁ơi	-941
▁kết	-942
▁đau	-943
▁đẹp	-944
▁cười	-945
▁cảnh	-946
▁thức	-947
▁2.741	-948
ậm	-949
ửi	-950
các	-951
iếu	-952
▁lã	-953
▁rõ	-954
▁cầu	-955
▁mua	-956
▁sản	-957
▁chân	-958
616875,	-959
đó	-960
ẩm	-961
90.	-962
91.	-963
92.	-964
93.	-965
94.	-966
95.	-967
96.	-968
97.	-969
98.	-970
99.	-971
ưng	-972
▁an	-973
▁kể	-974
▁1.3	-975
▁chủ	-976
▁coi	-977
▁quả	-978
▁thị	-979
▁tuy	-980
2125,	-981
nhiều	-982
▁dụng	-983
▁kinh	-984
▁việt	-985
21625,	-986
▁hoàng	-987
418125,	-988
áy	-989
ển	-990
ốn	-991
▁hà	-992
▁độ	-993
▁chu	-994
▁chỗ	-995
▁lập	-996
▁lỗi	-997
▁nội	-998
▁vấn	-999
▁biến	-1000
▁chạy	-1001
20625,	-1002
61875,	-1003
éo	-1004
đi	-1005
01.	-1006
02.	-1007
03.	-1008
04.	-1009
05.	-1010
06.	-1011
07.	-1012
08.	-1013
09.	-1014
10.	-1015
11.	-1016
12.	-1017
13.	-1018
14.	-1019
15.	-1020
16.	-1021
17.	-1022
18.	-1023
19.	-1024
20.	-1025
21.	-1026
22.	-1027
23.	-1028
24.	-1029
25.	-1030
26.	-1031
27.	-1032
28.	-1033
29.	-1034
chị	-1035
▁dễ	-1036
▁tổ	-1037
▁4.1	-1038
▁dài	-1039
▁giả	-1040
▁thủ	-1041
▁trị	-1042
▁tạo	-1043
▁tức	-1044
8175,	-1045
▁bước	-1046
▁bệnh	-1047
▁chút	-1048
▁chọn	-1049
▁tuổi	-1050
▁uống	-1051
▁thanh	-1052
▁2.2415625,	-1053
về	-1054
ón	-1055
ệt	-1056
ộn	-1057
uôi	-1058
▁du	-1059
▁lực	-1060
▁nhẹ	-1061
▁trí	-1062
▁đôi	-1063
▁giác	-1064
▁đánh	-1065
016875,	-1066
605625,	-1067
614375,	-1068
816875,	-1069
▁nghiệp	-1070
▁phương	-1071
▁2.2410625,	-1072
19	-1073
iếm	-1074
rất	-1075
sau	-1076
▁vụ	-1077
▁xử	-1078
▁ngờ	-1079
▁sai	-1080
▁đội	-1081
▁chuy	-1082
▁hoàn	-1083
▁hạnh	-1084
▁liên	-1085
▁mang	-1086
▁pháp	-1087
81625,	-1088
▁2.320	-1089
▁khách	-1090
▁nghĩa	-1091
iê	-1092
òa	-1093
óm	-1094
79,	-1095
▁gh	-1096
▁ít	-1097
405,	-1098
iêng	-1099
▁cha	-1100
▁dân	-1101
▁mai	-1102
▁mặc	-1103
▁quý	-1104
▁đơn	-1105
▁dành	-1106
▁phía	-1107
▁quên	-1108
▁tiêu	-1109
▁trải	-1110
60875,	-1111
82375,	-1112
▁hương	-1113
008125,	-1114
025625,	-1115
216875,	-1116
mẹ	-1117
ép	-1118
đã	-1119
chỉ	-1120
iếc	-1121
iệc	-1122
uốc	-1123
▁cổ	-1124
▁va	-1125
hong	-1126
▁cây	-1127
▁cứu	-1128
▁khu	-1129
▁suy	-1130
▁vài	-1131
▁yếu	-1132
0075,	-1133
6075,	-1134
▁biệt	-1135
▁thần	-1136
41625,	-1137
213125,	-1138
218125,	-1139
ùa	-1140
bạn	-1141
iềm	-1142
sao	-1143
▁vũ	-1144
805,	-1145
▁cầm	-1146
▁huy	-1147
▁mãi	-1148
▁ánh	-1149
phong	-1150
▁chào	-1151
▁chất	-1152
▁hoặc	-1153
▁quen	-1154
▁vọng	-1155
▁đáng	-1156
60625,	-1157
▁2.500	-1158
▁thoại	-1159
▁thằng	-1160
005625,	-1161
011875,	-1162
608125,	-1163
808125,	-1164
▁2.401,	-1165
▁2.9215,	-1166
62,	-1167
còn	-1168
nếu	-1169
uốt	-1170
ỉnh	-1171
▁mơ	-1172
825,	-1173
nhìn	-1174
▁dậy	-1175
▁hóa	-1176
▁tác	-1177
▁xúc	-1178
▁chia	-1179
▁cuối	-1180
▁tham	-1181
▁trái	-1182
80375,	-1183
▁giống	-1184
▁thiên	-1185
411875,	-1186
415625,	-1187
424375,	-1188
803125,	-1189
811875,	-1190
▁2.4211875,	-1191
úi	-1192
81,	-1193
nên	-1194
▁lạ	-1195
▁so	-1196
▁sử	-1197
225,	-1198
nhau	-1199
▁bay	-1200
▁ngo	-1201
▁sâu	-1202
▁tối	-1203
▁tục	-1204
▁yên	-1205
▁đặc	-1206
0175,	-1207
trước	-1208
▁linh	-1209
▁thiết	-1210
018125,	-1211
▁nghiệm	-1212
▁2.2814375,	-1213
▁2.3611875,	-1214
▁2.3813125,	-1215
sự	-1216
ẩy	-1217
82,	-1218
tại	-1219
vậy	-1220
đến	-1221
▁tỏ	-1222
▁báo	-1223
▁chi	-1224
▁duy	-1225
▁già	-1226
▁gửi	-1227
▁mày	-1228
▁văn	-1229
▁chức	-1230
▁diễn	-1231
▁dùng	-1232
▁thái	-1233
40375,	-1234
▁chiếc	-1235
▁hướng	-1236
▁nhanh	-1237
205625,	-1238
624375,	-1239
▁2.121,	-1240
▁nguyên	-1241
▁2.48125,	-1242
▁2.1810625,	-1243
▁2.2214375,	-1244
bà	-1245
ớm	-1246
cảm	-1247
tiế	-1248
ượt	-1249
▁cụ	-1250
▁dụ	-1251
▁mỹ	-1252
▁sẻ	-1253
việc	-1254
▁cấp	-1255
▁hơi	-1256
▁hồi	-1257
▁may	-1258
▁thư	-1259
▁đặt	-1260
▁giáo	-1261
▁kiếm	-1262
▁nhật	-1263
▁nuôi	-1264
▁phúc	-1265
▁tĩnh	-1266
▁đông	-1267
40875,	-1268
▁chứng	-1269
▁thẳng	-1270
206875,	-1271
423125,	-1272
610625,	-1273
▁chuyển	-1274
▁2.4615,	-1275
▁2.441375,	-1276
sẽ	-1277
ựa	-1278
59,	-1279
lúc	-1280
▁hồ	-1281
thực	-1282
▁4.0	-1283
▁nỗi	-1284
▁trò	-1285
▁xảy	-1286
6025,	-1287
chính	-1288
▁cạnh	-1289
▁kiến	-1290
▁mong	-1291
chuyện	-1292
▁nhiệm	-1293
▁thuốc	-1294
▁triển	-1295
604375,	-1296
▁2.1815625,	-1297
ra	-1298
ưu	-1299
ệu	-1300
ỏe	-1301
▁kẻ	-1302
▁kế	-1303
▁kỹ	-1304
▁ru	-1305
▁ty	-1306
▁áo	-1307
▁ôm	-1308
425,	-1309
điều	-1310
▁1.2	-1311
▁4.3	-1312
▁bàn	-1313
▁dám	-1314
▁hải	-1315
▁kéo	-1316
▁máy	-1317
▁mệt	-1318
▁sát	-1319
▁sắc	-1320
▁sớm	-1321
▁đạo	-1322
▁đẩy	-1323
▁đọc	-1324
▁chăm	-1325
▁khóc	-1326
▁tuấn	-1327
22625,	-1328
81125,	-1329
▁phong	-1330
003125,	-1331
606875,	-1332
818125,	-1333
▁2.72175,	-1334
ịp	-1335
hai	-1336
nào	-1337
biết	-1338
▁bán	-1339
▁dục	-1340
▁giữ	-1341
▁hôn	-1342
▁vội	-1343
8075,	-1344
▁buồn	-1345
▁buổi	-1346
▁dịch	-1347
▁loại	-1348
▁ngại	-1349
▁suốt	-1350
▁tiến	-1351
▁tích	-1352
01625,	-1353
62375,	-1354
▁chuẩn	-1355
▁quyền	-1356
▁thuộc	-1357
▁tháng	-1358
▁tương	-1359
006875,	-1360
406875,	-1361
▁1.98125,	-1362
▁2.301125,	-1363
▁2.421625,	-1364
51	-1365
22,	-1366
39,	-1367
xin	-1368
▁đá	-1369
cuộc	-1370
nhất	-1371
thấy	-1372
▁4.2	-1373
▁chờ	-1374
▁căn	-1375
▁cực	-1376
▁khí	-1377
▁lão	-1378
▁màu	-1379
▁mức	-1380
▁nha	-1381
▁phố	-1382
▁tận	-1383
▁đợi	-1384
2025,	-1385
▁diện	-1386
▁khăn	-1387
▁kiểm	-1388
▁liệu	-1389
▁thậm	-1390
▁tinh	-1391
▁đoàn	-1392
20875,	-1393
▁2.362	-1394
▁doanh	-1395
▁nhiêu	-1396
▁quanh	-1397
▁tranh	-1398
023125,	-1399
419375,	-1400
▁2.061,	-1401
▁2.20125,	-1402
▁2.26175,	-1403
▁2.9618125,	-1404
36	-1405
cả	-1406
từ	-1407
ót	-1408
15,	-1409
mọi	-1410
mới	-1411
đây	-1412
▁hả	-1413
▁tụ	-1414
▁ví	-1415
▁đỏ	-1416
công	-1417
▁bài	-1418
▁món	-1419
▁thở	-1420
▁thử	-1421
▁đạt	-1422
▁đầy	-1423
▁cánh	-1424
▁khỏe	-1425
▁lắng	-1426
▁lịch	-1427
▁nghỉ	-1428
▁ngon	-1429
▁phẩm	-1430
▁ràng	-1431
▁vàng	-1432
41875,	-1433
42125,	-1434
82625,	-1435
▁2.22,	-1436
▁2.540	-1437
010625,	-1438
204375,	-1439
▁2.341,	-1440
▁2.8015,	-1441
▁2.26125,	-1442
▁2.501375,	-1443
▁2.561375,	-1444
▁2.641125,	-1445
▁2.901375,	-1446
37	-1447
57	-1448
58	-1449
ta	-1450
ói	-1451
ẹn	-1452
ọt	-1453
▁ổ	-1454
42,	-1455
ỏng	-1456
ủng	-1457
▁hộ	-1458
▁mu	-1459
▁tử	-1460
▁ấm	-1461
nghe	-1462
nghĩ	-1463
ngày	-1464
theo	-1465
uyệt	-1466
đang	-1467
▁bận	-1468
▁cơm	-1469
▁hòa	-1470
▁lai	-1471
▁sắp	-1472
▁tao	-1473
▁vai	-1474
▁vân	-1475
▁đảo	-1476
8225,	-1477
ngoài	-1478
▁bụng	-1479
▁chấp	-1480
▁danh	-1481
▁giữa	-1482
▁kiện	-1483
▁thầy	-1484
▁đoạn	-1485
22125,	-1486
▁2.000	-1487
▁chung	-1488
▁riêng	-1489
▁trang	-1490
015625,	-1491
425625,	-1492
619375,	-1493
806875,	-1494
▁1.841,	-1495
▁trưởng	-1496
▁2.0615,	-1497
▁2.32175,	-1498
▁2.54125,	-1499
▁2.841375,	-1500
▁2.6613125,	-1501
▁2.6814375,	-1502
33	-1503
35	-1504
56	-1505
bị	-1506
vì	-1507
ẫu	-1508
ặn	-1509
99,	-1510
cậu	-1511
thể	-1512
tất	-1513
uổi	-1514
▁vệ	-1515
205,	-1516
815,	-1517
cùng	-1518
iệng	-1519
muốn	-1520
▁ban	-1521
▁dẫn	-1522
▁hắn	-1523
▁khá	-1524
▁khổ	-1525
▁xưa	-1526
▁độc	-1527
▁ứng	-1528
thành	-1529
▁2.17	-1530
▁cưới	-1531
▁dũng	-1532
▁giản	-1533
▁hiệu	-1534
▁liền	-1535
▁nghi	-1536
▁ngọc	-1537
▁nhắc	-1538
▁phép	-1539
▁phản	-1540
▁sách	-1541
▁tiết	-1542
▁tuần	-1543
▁vâng	-1544
▁vượt	-1545
▁xung	-1546
▁đóng	-1547
00375,	-1548
22375,	-1549
42625,	-1550
60125,	-1551
61125,	-1552
80125,	-1553
▁2.52,	-1554
▁miệng	-1555
▁thống	-1556
▁trách	-1557
013125,	-1558
019375,	-1559
021875,	-1560
203125,	-1561
221875,	-1562
821875,	-1563
▁khoảng	-1564
▁2.021125,	-1565
▁2.781375,	-1566
▁2.1411875,	-1567
▁2.2809375,	-1568
▁2.3208125,	-1569
30	-1570
38	-1571
97	-1572
họ	-1573
ùi	-1574
ẳn	-1575
ẵn	-1576
ớt	-1577
ợt	-1578
bây	-1579
câu	-1580
giờ	-1581
uôn	-1582
đầu	-1583
▁5.	-1584
▁sở	-1585
▁xã	-1586
bình	-1587
ngay	-1588
thôi	-1589
thời	-1590
trên	-1591
uyền	-1592
đúng	-1593
▁chế	-1594
▁hẳn	-1595
▁nửa	-1596
▁sân	-1597
▁sóc	-1598
▁tầm	-1599
▁vực	-1600
2225,	-1601
chẳng	-1602
chồng	-1603
▁chắn	-1604
▁cuốn	-1605
▁dựng	-1606
▁giao	-1607
▁giám	-1608
▁long	-1609
▁lặng	-1610
▁phận	-1611
▁phục	-1612
▁ruột	-1613
▁soát	-1614
▁thất	-1615
▁viện	-1616
01125,	-1617
80875,	-1618
▁lượng	-1619
▁thiện	-1620
400625,	-1621
420625,	-1622
603125,	-1623
618125,	-1624
805625,	-1625
▁2.4015,	-1626
▁2.160875,	-1627
▁2.161375,	-1628
▁2.301625,	-1629
▁1.8011875,	-1630
▁2.3414375,	-1631
▁2.9416875,	-1632
▁3.0214375,	-1633
17	-1634
54	-1635
55	-1636
75	-1637
èo	-1638
òi	-1639
õi	-1640
gọi	-1641
hay	-1642
hỏi	-1643
nhà	-1644
ênh	-1645
ượu	-1646
ỳnh	-1647
▁im	-1648
▁tù	-1649
▁áp	-1650
▁ổn	-1651
chưa	-1652
khác	-1653
▁dâu	-1654
▁dạy	-1655
▁hậu	-1656
▁lợi	-1657
▁mưa	-1658
▁mến	-1659
▁nhờ	-1660
▁nắm	-1661
▁nổi	-1662
▁phủ	-1663
▁quà	-1664
▁sơn	-1665
▁đốc	-1666
2625,	-1667
4025,	-1668
4225,	-1669
▁1.81	-1670
▁2.21	-1671
▁bóng	-1672
▁dung	-1673
▁giận	-1674
▁khoa	-1675
▁kích	-1676
▁lành	-1677
▁ngạc	-1678
▁nhắn	-1679
▁quán	-1680
▁rượu	-1681
▁thăm	-1682
▁thừa	-1683
00875,	-1684
25625,	-1685
60375,	-1686
▁hưởng	-1687
▁thiếu	-1688
▁thuật	-1689
▁trạng	-1690
▁tượng	-1691
020625,	-1692
219375,	-1693
408125,	-1694
409375,	-1695
▁2.7415,	-1696
▁2.60125,	-1697
▁2.282375,	-1698
▁1.8611875,	-1699
▁2.0413125,	-1700
▁2.0811875,	-1701
▁2.4423125,	-1702
▁2.5815625,	-1703
▁2.6214375,	-1704
▁2.7011875,	-1705
▁2.7015625,	-1706
▁2.7611875,	-1707
34	-1708
do	-1709
ém	-1710
ưỡ	-1711
bác	-1712
bên	-1713
bởi	-1714
hôm	-1715
khó	-1716
tho	-1717
tới	-1718
vẫn	-1719
▁hu	-1720
▁hạ	-1721
▁sư	-1722
▁tú	-1723
▁ái	-1724
▁án	-1725
▁đỡ	-1726
quan	-1727
sống	-1728
tiếp	-1729
uyết	-1730
vâng	-1731
▁dần	-1732
▁hạn	-1733
▁khả	-1734
▁kim	-1735
▁kêu	-1736
▁lạc	-1737
▁mật	-1738
▁mục	-1739
▁núi	-1740
▁rời	-1741
▁sẵn	-1742
▁thú	-1743
▁thơ	-1744
▁tim	-1745
▁tội	-1746
▁tụi	-1747
▁xây	-1748
▁xấu	-1749
▁đám	-1750
▁địa	-1751
▁đột	-1752
▁đức	-1753
4275,	-1754
khiến	-1755
▁1.59	-1756
▁3.20	-1757
▁gắng	-1758
▁hùng	-1759
▁khán	-1760
▁muộn	-1761
▁nhóm	-1762
▁nhập	-1763
▁phân	-1764
▁phút	-1765
▁tỉnh	-1766
▁2.802	-1767
▁hoạch	-1768
209375,	-1769
401875,	-1770
421875,	-1771
615625,	-1772
623125,	-1773
826875,	-1774
▁2.0015,	-1775
▁2.14175,	-1776
▁1.741125,	-1777
▁1.821375,	-1778
▁2.320375,	-1779
▁2.581125,	-1780
▁2.741875,	-1781
▁2.3606875,	-1782
▁3.0013125,	-1783
76	-1784
77	-1785
9,	-1786
95	-1787
96	-1788
cứ	-1789
ãn	-1790
èm	-1791
ía	-1792
ốm	-1793
ớp	-1794
đâu	-1795
▁hề	-1796
▁lễ	-1797
chắc	-1798
cách	-1799
tiền	-1800
▁bạc	-1801
▁bật	-1802
▁bếp	-1803
▁bữa	-1804
▁ghi	-1805
▁hãi	-1806
▁hút	-1807
▁mối	-1808
▁nhu	-1809
▁nấu	-1810
▁phá	-1811
▁rơi	-1812
▁tra	-1813
▁tây	-1814
▁tồn	-1815
▁xác	-1816
▁đón	-1817
▁đấu	-1818
4075,	-1819
8025,	-1820
▁1.61	-1821
▁biển	-1822
▁bánh	-1823
▁chặt	-1824
▁dừng	-1825
▁giảm	-1826
▁giỏi	-1827
▁hiểm	-1828
▁hoạt	-1829
▁khám	-1830
▁luận	-1831
▁mạng	-1832
▁nhảy	-1833
▁tiện	-1834
▁trốn	-1835
▁tăng	-1836
00125,	-1837
42375,	-1838
▁2.04,	-1839
▁3.000	-1840
▁chiều	-1841
▁chàng	-1842
▁dương	-1843
▁giọng	-1844
▁khoản	-1845
001875,	-1846
014375,	-1847
026875,	-1848
211875,	-1849
600625,	-1850
▁2.621,	-1851
▁2.82125,	-1852
▁2.84175,	-1853
▁2.361625,	-1854
▁1.7809375,	-1855
▁1.9010625,	-1856
▁2.3213125,	-1857
▁2.3818125,	-1858
▁2.4816875,	-1859
▁2.5004375,	-1860
18	-1861
50	-1862
dù	-1863
ằn	-1864
ủi	-1865
ữu	-1866
bản	-1867
hơn	-1868
lắm	-1869
qua	-1870
tâm	-1871
yêu	-1872
đấy	-1873
ườn	-1874
ựng	-1875
▁cũ	-1876
▁lệ	-1877
▁mi	-1878
▁tố	-1879
▁âm	-1880
005,	-1881
bằng	-1882
hàng	-1883
luôn	-1884
sinh	-1885
sáng	-1886
tính	-1887
▁4.5	-1888
▁cáo	-1889
▁dõi	-1890
▁lớp	-1891
▁mùa	-1892
▁mắc	-1893
▁mời	-1894
▁nền	-1895
▁phi	-1896
▁trợ	-1897
▁ích	-1898
▁đòi	-1899
thích	-1900
▁2.01	-1901
▁2.5,	-1902
▁chúc	-1903
▁cộng	-1904
▁dòng	-1905
▁giai	-1906
▁giàu	-1907
▁khắc	-1908
▁luật	-1909
▁nghề	-1910
▁ngân	-1911
▁ngôi	-1912
▁niềm	-1913
▁nắng	-1914
▁phạm	-1915
▁quản	-1916
▁trăm	-1917
▁trần	-1918
▁tổng	-1919
▁viết	-1920
▁vùng	-1921
▁đoán	-1922
thương	-1923
▁1.74,	-1924
▁1.86,	-1925
▁1.98,	-1926
▁2.782	-1927
▁ngược	-1928
▁nhàng	-1929
220625,	-1930
404375,	-1931
▁2.579,	-1932
▁3.1415,	-1933
▁2.20075,	-1934
▁1.841625,	-1935
▁2.101375,	-1936
▁2.621875,	-1937
▁2.861125,	-1938
▁1.6608125,	-1939
▁1.7013125,	-1940
▁1.8814375,	-1941
▁2.3020625,	-1942
▁2.5018125,	-1943
▁2.5215625,	-1944
▁2.5416875,	-1945
▁2.7410625,	-1946
▁2.9815625,	-1947
▁3.0613125,	-1948
10	-1949
53	-1950
69	-1951
đị	-1952
ũi	-1953
ỏa	-1954
/14	-1955
/24	-1956
/34	-1957
/44	-1958
/54	-1959
/64	-1960
/74	-1961
uồn	-1962
ỗng	-1963
▁cà	-1964
▁lộ	-1965
▁lỡ	-1966
▁sơ	-1967
▁tí	-1968
▁vi	-1969
/500	-1970
605,	-1971
rằng	-1972
thay	-1973
thật	-1974
từng	-1975
đồng	-1976
đừng	-1977
ưỡng	-1978
▁bọn	-1979
▁cải	-1980
▁hẹn	-1981
▁hữu	-1982
▁kịp	-1983
▁lựa	-1984
▁mát	-1985
▁máu	-1986
▁môi	-1987
▁nga	-1988
▁nhi	-1989
▁thi	-1990
▁xét	-1991
▁xóm	-1992
2075,	-1993
▁2.41	-1994
▁3.40	-1995
▁biểu	-1996
▁chim	-1997
▁cung	-1998
▁hồng	-1999
▁lãnh	-2000
▁lạnh	-2001
▁nghệ	-2002
▁nghị	-2003
▁ngắn	-2004
▁rộng	-2005
▁sàng	-2006
▁trực	-2007
▁đích	-2008
20125,	-2009
▁1.92,	-2010
▁2.28,	-2011
▁2.34,	-2012
▁2.46,	-2013
▁lương	-2014
▁phóng	-2015
▁quỳnh	-2016
▁thuận	-2017
▁tuyệt	-2018
▁xuyên	-2019
426875,	-2020
609375,	-2021
625625,	-2022
628125,	-2023
813125,	-2024
820625,	-2025
▁2.242,	-2026
▁chương	-2027
▁giường	-2028
▁2.2805,	-2029
▁1.64125,	-2030
▁2.20175,	-2031
▁2.88125,	-2032
▁1.720875,	-2033
▁1.940875,	-2034
▁1.961625,	-2035
▁2.801125,	-2036
▁2.821625,	-2037
▁2.881625,	-2038
▁3.221625,	-2039
▁1.8808125,	-2040
▁1.9414375,	-2041
▁2.0220625,	-2042
▁2.3025625,	-2043
▁2.4418125,	-2044
▁2.4610625,	-2045
▁2.4821875,	-2046
▁2.5023125,	-2047
▁2.6614375,	-2048
▁2.7213125,	-2049
▁2.9614375,	-2050
▁3.0014375,	-2051
78	-2052
91	-2053
98	-2054
gì	-2055
àu	-2056
èn	-2057
đề	-2058
ấc	-2059
ụp	-2060
/81	-2061
/82	-2062
/99	-2063
bất	-2064
cha	-2065
lên	-2066
mắt	-2067
nữa	-2068
xem	-2069
đôi	-2070
▁bè	-2071
▁kỷ	-2072
▁mê	-2073
▁vã	-2074
▁đổ	-2075
/100	-2076
/101	-2077
/102	-2078
/121	-2079
/122	-2080
/139	-2081
/141	-2082
/142	-2083
/143	-2084
/145	-2085
/146	-2086
/147	-2087
/148	-2088
/149	-2089
/159	-2090
/161	-2091
/162	-2092
/179	-2093
/181	-2094
/182	-2095
/199	-2096
/200	-2097
/201	-2098
/202	-2099
/221	-2100
/222	-2101
/239	-2102
/241	-2103
/242	-2104
/243	-2105
/245	-2106
/246	-2107
/247	-2108
/248	-2109
/249	-2110
/259	-2111
/261	-2112
/262	-2113
/279	-2114
/281	-2115
/282	-2116
/299	-2117
/300	-2118
/301	-2119
/302	-2120
/321	-2121
/322	-2122
/339	-2123
/341	-2124
/342	-2125
/343	-2126
/345	-2127
/346	-2128
/347	-2129
/348	-2130
/349	-2131
/359	-2132
/361	-2133
/362	-2134
/379	-2135
/381	-2136
/382	-2137
/399	-2138
/400	-2139
/401	-2140
/402	-2141
/421	-2142
/422	-2143
/439	-2144
/441	-2145
/442	-2146
/443	-2147
/445	-2148
/446	-2149
/447	-2150
/448	-2151
/449	-2152
/459	-2153
/461	-2154
/462	-2155
/479	-2156
/481	-2157
/482	-2158
/499	-2159
/501	-2160
/502	-2161
/521	-2162
/522	-2163
/539	-2164
/541	-2165
/542	-2166
/543	-2167
/545	-2168
/546	-2169
/547	-2170
/548	-2171
/549	-2172
/559	-2173
/561	-2174
/562	-2175
/579	-2176
/581	-2177
/582	-2178
/599	-2179
/600	-2180
/601	-2181
/602	-2182
/621	-2183
/622	-2184
/639	-2185
/641	-2186
/642	-2187
/643	-2188
/645	-2189
/646	-2190
/647	-2191
/648	-2192
/649	-2193
/659	-2194
/661	-2195
/662	-2196
/679	-2197
/681	-2198
/682	-2199
/699	-2200
/700	-2201
/701	-2202
/702	-2203
/721	-2204
/722	-2205
/739	-2206
/741	-2207
/742	-2208
/743	-2209
/745	-2210
/746	-2211
/747	-2212
/748	-2213
/749	-2214
cuối	-2215
lòng	-2216
phía	-2217
thân	-2218
tình	-2219
▁chữ	-2220
▁cơn	-2221
▁gây	-2222
▁gòn	-2223
▁hài	-2224
▁hại	-2225
▁hứa	-2226
▁lửa	-2227
▁mỏi	-2228
▁phê	-2229
▁quê	-2230
▁rút	-2231
▁sếp	-2232
▁tấm	-2233
▁tết	-2234
▁vận	-2235
▁xót	-2236
▁đáp	-2237
0025,	-2238
2875,	-2239
tiếng	-2240
trung	-2241
▁1.71	-2242
▁1.8,	-2243
▁3.22	-2244
▁canh	-2245
▁chạm	-2246
▁căng	-2247
▁khôn	-2248
▁kiên	-2249
▁kiệt	-2250
▁làng	-2251
▁lưng	-2252
▁nặng	-2253
▁quần	-2254
▁siêu	-2255
▁thận	-2256
▁tiểu	-2257
▁xanh	-2258
▁đựng	-2259
24375,	-2260
82125,	-2261
phương	-2262
▁1.56,	-2263
▁1.68,	-2264
▁2.16,	-2265
▁2.58,	-2266
▁ngoại	-2267
208125,	-2268
598125,	-2269
804375,	-2270
▁1.621,	-2271
▁2.561,	-2272
▁nguyễn	-2273
▁2.3405,	-2274
▁3.2015,	-2275
▁2.08025,	-2276
▁2.38225,	-2277
▁2.42025,	-2278
▁2.78175,	-2279
▁2.541375,	-2280
▁2.761625,	-2281
▁2.861625,	-2282
▁2.921125,	-2283
▁3.121375,	-2284
▁1.7215625,	-2285
▁1.9610625,	-2286
▁2.1008125,	-2287
▁2.1215625,	-2288
▁2.3400625,	-2289
▁2.3620625,	-2290
▁2.4005625,	-2291
▁2.5205625,	-2292
▁2.6016875,	-2293
▁3.0016875,	-2294
▁3.0415625,	-2295
▁3.0616875,	-2296
90	-2297
bố	-2298
tự	-2299
ão	-2300
▁á	-2301
/80	-2302
02,	-2303
19,	-2304
chứ	-2305
gia	-2306
gặp	-2307
hãy	-2308
lần	-2309
mỗi	-2310
năm	-2311
thu	-2312
tuy	-2313
▁dạ	-2314
▁hỗ	-2315
▁ký	-2316
▁má	-2317
▁nọ	-2318
▁tệ	-2319
/120	-2320
/140	-2321
/160	-2322
/180	-2323
/220	-2324
/240	-2325
/260	-2326
/280	-2327
/320	-2328
/340	-2329
/360	-2330
/380	-2331
/420	-2332
/440	-2333
/460	-2334
/480	-2335
/520	-2336
/540	-2337
/560	-2338
/580	-2339
/620	-2340
/640	-2341
/660	-2342
/680	-2343
/720	-2344
/740	-2345
025,	-2346
càng	-2347
hiện	-2348
hoặc	-2349
hành	-2350
quen	-2351
trời	-2352
▁1.4	-2353
▁4.4	-2354
▁bắc	-2355
▁bắn	-2356
▁cặp	-2357
▁dọn	-2358
▁gật	-2359
▁gợi	-2360
▁hào	-2361
▁hát	-2362
▁khô	-2363
▁lầm	-2364
▁mái	-2365
▁nhỉ	-2366
▁rửa	-2367
▁tàu	-2368
▁tôn	-2369
▁túi	-2370
▁vời	-2371
▁xếp	-2372
▁đen	-2373
▁đào	-2374
▁đảm	-2375
▁đớn	-2376
6225,	-2377
riêng	-2378
tưởng	-2379
▁1.37	-2380
▁1.41	-2381
▁1.47	-2382
▁2.31	-2383
▁4.00	-2384
▁biên	-2385
▁cổng	-2386
▁dưới	-2387
▁giây	-2388
▁giấc	-2389
▁giật	-2390
▁hiền	-2391
▁loài	-2392
▁mừng	-2393
▁nàng	-2394
▁phim	-2395
▁rừng	-2396
▁thai	-2397
▁thuê	-2398
▁thúc	-2399
▁toán	-2400
▁trao	-2401
▁tặng	-2402
▁vòng	-2403
20375,	-2404
35625,	-2405
62625,	-2406
▁2.64,	-2407
▁2.702	-2408
▁gương	-2409
▁ngang	-2410
▁ngoan	-2411
▁sướng	-2412
▁thoát	-2413
▁trông	-2414
▁tướng	-2415
210625,	-2416
399375,	-2417
621875,	-2418
626875,	-2419
799375,	-2420
801875,	-2421
825625,	-2422
▁khuyên	-2423
▁thuyết	-2424
▁truyền	-2425
▁2.4415,	-2426
▁2.8415,	-2427
▁2.9015,	-2428
▁2.04225,	-2429
▁2.020625,	-2430
▁2.100375,	-2431
▁2.380375,	-2432
▁2.422125,	-2433
▁2.440375,	-2434
▁2.521125,	-2435
▁2.600875,	-2436
▁2.881375,	-2437
▁3.201875,	-2438
▁1.6008125,	-2439
▁1.7815625,	-2440
▁2.1406875,	-2441
▁2.1426875,	-2442
▁2.1604375,	-2443
▁2.2209375,	-2444
▁2.2603125,	-2445
▁2.2608125,	-2446
▁2.4011875,	-2447
▁2.4611875,	-2448
▁2.5820625,	-2449
▁2.6415625,	-2450
▁2.6810625,	-2451
89	-2452
94	-2453
ba	-2454
dạ	-2455
ẩu	-2456
ện	-2457
bao	-2458
bắt	-2459
chú	-2460
cần	-2461
iếp	-2462
lấy	-2463
lời	-2464
mấy	-2465
mặt	-2466
nay	-2467
oàn	-2468
thứ	-2469
tạo	-2470
tốt	-2471
vừa	-2472
ãng	-2473
đêm	-2474
đại	-2475
đối	-2476
ươi	-2477
▁bí	-2478
▁bù	-2479
▁da	-2480
▁nợ	-2481
▁nụ	-2482
▁rỡ	-2483
▁sổ	-2484
▁đa	-2485
▁đà	-2486
bước	-2487
hiểu	-2488
nhận	-2489
nước	-2490
xong	-2491
▁1.1	-2492
▁4.7	-2493
▁bầu	-2494
▁bức	-2495
▁bực	-2496
▁cất	-2497
▁cẩn	-2498
▁cắt	-2499
▁dặn	-2500
▁dựa	-2501
▁ghế	-2502
▁gió	-2503
▁hòn	-2504
▁họp	-2505
▁kém	-2506
▁lan	-2507
▁lát	-2508
▁lưu	-2509
▁lẫn	-2510
▁lắc	-2511
▁môn	-2512
▁mùi	-2513
▁mắn	-2514
▁rộn	-2515
▁sài	-2516
▁tái	-2517
▁tùy	-2518
▁tạm	-2519
▁tắc	-2520
▁vốn	-2521
▁đáo	-2522
▁ủng	-2523
2375,	-2524
4875,	-2525
8275,	-2526
chứng	-2527
hoàng	-2528
thằng	-2529
tương	-2530
▁1.51	-2531
▁2.0,	-2532
▁2.29	-2533
▁chìm	-2534
▁dính	-2535
▁giấu	-2536
▁khai	-2537
▁khát	-2538
▁khảo	-2539
▁miền	-2540
▁ngập	-2541
▁nhắm	-2542
▁niên	-2543
▁niệm	-2544
▁nóng	-2545
▁phẫu	-2546
▁suất	-2547
▁thua	-2548
▁thảo	-2549
thường	-2550
▁2.822	-2551
▁2.88,	-2552
▁khủng	-2553
▁ngành	-2554
▁thính	-2555
▁tránh	-2556
▁trắng	-2557
201875,	-2558
599375,	-2559
819375,	-2560
824375,	-2561
828125,	-2562
999375,	-2563
▁1.859,	-2564
▁2.182,	-2565
▁nghiêm	-2566
▁nghiên	-2567
▁1.6615,	-2568
▁2.8615,	-2569
▁3.2615,	-2570
▁1.76075,	-2571
▁1.98075,	-2572
▁2.14025,	-2573
▁2.32225,	-2574
▁2.36025,	-2575
▁2.76175,	-2576
▁1.780625,	-2577
▁2.022625,	-2578
▁2.142125,	-2579
▁2.222375,	-2580
▁2.281875,	-2581
▁2.482625,	-2582
▁2.561875,	-2583
▁3.181375,	-2584
▁1.7006875,	-2585
▁1.9221875,	-2586
▁1.9803125,	-2587
▁2.0009375,	-2588
▁2.0408125,	-2589
▁2.0816875,	-2590
▁2.3625625,	-2591
▁2.4624375,	-2592
▁2.5009375,	-2593
▁2.6003125,	-2594
▁2.6413125,	-2595
▁2.7013125,	-2596
▁2.7613125,	-2597
▁2.8605625,	-2598
▁2.9018125,	-2599
▁2.9413125,	-2600
▁2.9619375,	-2601
▁2.9811875,	-2602
▁3.0814375,	-2603
▁3.0815625,	-2604
07	-2605
71	-2606
cố	-2607
tu	-2608
ềm	-2609
ộm	-2610
ứt	-2611
35,	-2612
lâu	-2613
mai	-2614
nhớ	-2615
nỗi	-2616
trở	-2617
▁bổ	-2618
▁di	-2619
▁dè	-2620
▁gã	-2621
▁gỗ	-2622
▁hy	-2623
▁ma	-2624
▁mẽ	-2625
▁đô	-2626
▁đẻ	-2627
▁ốm	-2628
▁ủi	-2629
dưới	-2630
giúp	-2631
kinh	-2632
kiểm	-2633
liên	-2634
mang	-2635
nhân	-2636
phần	-2637
thưa	-2638
thậm	-2639
thức	-2640
xuất	-2641
▁bát	-2642
▁chó	-2643
▁chợ	-2644
▁cốc	-2645
▁cởi	-2646
▁hạt	-2647
▁hầu	-2648
▁lui	-2649
▁lái	-2650
▁mau	-2651
▁mãn	-2652
▁nhá	-2653
▁nhị	-2654
▁nãy	-2655
▁nạn	-2656
▁phù	-2657
▁rực	-2658
▁tha	-2659
▁thù	-2660
▁thờ	-2661
▁trì	-2662
▁tân	-2663
▁tắm	-2664
▁đem	-2665
▁đập	-2666
5975,	-2667
9875,	-2668
chiều	-2669
khách	-2670
▁1.43	-2671
▁1.45	-2672
▁1.49	-2673
▁1.67	-2674
▁2.1,	-2675
▁2.35	-2676
▁3.62	-2677
▁buộc	-2678
▁bỗng	-2679
▁chảy	-2680
▁chối	-2681
▁chục	-2682
▁chụp	-2683
▁chửi	-2684
▁giấy	-2685
▁hỏng	-2686
▁khẩu	-2687
▁kính	-2688
▁lính	-2689
▁ngàn	-2690
▁ngón	-2691
▁ngắm	-2692
▁ngọt	-2693
▁nhạc	-2694
▁nông	-2695
▁phấn	-2696
▁phật	-2697
▁răng	-2698
▁sung	-2699
▁sông	-2700
▁sạch	-2701
▁thao	-2702
▁thấu	-2703
▁thầm	-2704
▁thỏa	-2705
▁thủy	-2706
▁trân	-2707
▁tròn	-2708
▁trôi	-2709
▁tươi	-2710
▁vinh	-2711
▁vườn	-2712
▁điển	-2713
39875,	-2714
59875,	-2715
62125,	-2716
98125,	-2717
99875,	-2718
▁1.62,	-2719
▁2.402	-2720
▁2.82,	-2721
▁hoảng	-2722
▁khang	-2723
▁khoái	-2724
▁khích	-2725
▁nguồn	-2726
▁quang	-2727
▁quãng	-2728
▁quảng	-2729
▁thiệu	-2730
▁thăng	-2731
▁trống	-2732
009375,	-2733
224375,	-2734
403125,	-2735
410625,	-2736
823125,	-2737
▁1.561,	-2738
▁1.902,	-2739
▁2.381,	-2740
▁2.399,	-2741
▁2.462,	-2742
▁2.522,	-2743
▁chuyến	-2744
▁nguyện	-2745
▁2.6805,	-2746
▁3.1215,	-2747
▁1.92125,	-2748
▁2.60075,	-2749
▁2.66075,	-2750
▁2.66175,	-2751
▁2.72225,	-2752
▁3.34175,	-2753
▁1.640625,	-2754
▁1.761375,	-2755
▁1.882375,	-2756
▁2.460125,	-2757
▁2.481375,	-2758
▁2.562375,	-2759
▁2.622375,	-2760
▁2.702125,	-2761
▁3.161375,	-2762
▁1.5211875,	-2763
▁1.5414375,	-2764
▁1.7401875,	-2765
▁1.7420625,	-2766
▁1.8204375,	-2767
▁1.8803125,	-2768
▁1.9399375,	-2769
▁2.0600625,	-2770
▁2.1023125,	-2771
▁2.2003125,	-2772
▁2.3001875,	-2773
▁2.3424375,	-2774
▁2.4024375,	-2775
▁2.4806875,	-2776
▁2.5403125,	-2777
▁2.5418125,	-2778
▁2.6021875,	-2779
▁2.7214375,	-2780
▁2.7424375,	-2781
▁2.8005625,	-2782
▁2.8024375,	-2783
▁2.9418125,	-2784
▁3.0215625,	-2785
▁3.0614375,	-2786
▁3.1015625,	-2787
▁3.1025625,	-2788
▁3.4616875,	-2789
16	-2790
29	-2791
lo	-2792
ĩa	-2793
ạp	-2794
ẫy	-2795
ợn	-2796
▁ừ	-2797
hóa	-2798
kia	-2799
lớn	-2800
món	-2801
mục	-2802
nhỏ	-2803
nơi	-2804
quả	-2805
tin	-2806
tối	-2807
vui	-2808
vào	-2809
vấn	-2810
▁0.	-2811
▁ca	-2812
▁dị	-2813
▁gà	-2814
▁la	-2815
▁lá	-2816
▁lê	-2817
▁lũ	-2818
▁vả	-2819
▁xí	-2820
▁ân	-2821
▁óc	-2822
▁út	-2823
500.	-2824
chia	-2825
cháu	-2826
chạy	-2827
chịu	-2828
hoàn	-2829
hình	-2830
iếng	-2831
long	-2832
quay	-2833
quân	-2834
tham	-2835
trai	-2836
định	-2837
động	-2838
▁4.6	-2839
▁4.9	-2840
▁bại	-2841
▁bấy	-2842
▁bọc	-2843
▁bớt	-2844
▁cay	-2845
▁chả	-2846
▁cấm	-2847
▁dồn	-2848
▁góc	-2849
▁gũi	-2850
▁họa	-2851
▁hồn	-2852
▁lao	-2853
▁lối	-2854
▁lừa	-2855
▁màn	-2856
▁mẫu	-2857
▁mềm	-2858
▁ngã	-2859
▁nét	-2860
▁nối	-2861
▁phú	-2862
▁quỹ	-2863
▁sốt	-2864
▁sửa	-2865
▁thả	-2866
▁trà	-2867
▁trụ	-2868
▁tán	-2869
▁tòa	-2870
▁tấn	-2871
▁tắt	-2872
▁tốc	-2873
▁tổn	-2874
▁tộc	-2875
▁đùa	-2876
▁đợt	-2877
▁ước	-2878
▁ống	-2879
chàng	-2880
giọng	-2881
phòng	-2882
thiên	-2883
thông	-2884
trọng	-2885
tuyệt	-2886
đường	-2887
▁1.21	-2888
▁1.48	-2889
▁1.53	-2890
▁1.69	-2891
▁1.97	-2892
▁2.4,	-2893
▁2.7,	-2894
▁3.60	-2895
▁chán	-2896
▁chốt	-2897
▁chữa	-2898
▁cứng	-2899
▁dạng	-2900
▁giọt	-2901
▁hiệp	-2902
▁hưng	-2903
▁khởi	-2904
▁kiềm	-2905
▁lĩnh	-2906
▁miễn	-2907
▁mông	-2908
▁ngăn	-2909
▁ngơi	-2910
▁nhẫn	-2911
▁nhằm	-2912
▁nâng	-2913
▁phạt	-2914
▁thèm	-2915
▁thưa	-2916
▁thấp	-2917
▁tràn	-2918
▁trúc	-2919
▁trưa	-2920
▁trấn	-2921
▁trầm	-2922
▁trận	-2923
▁trộm	-2924
▁xinh	-2925
▁xứng	-2926
▁đuổi	-2927
▁đành	-2928
02375,	-2929
42875,	-2930
79375,	-2931
96875,	-2932
▁1.72,	-2933
▁2.74,	-2934
▁2.76,	-2935
▁2.94,	-2936
▁3.12,	-2937
▁chóng	-2938
▁chống	-2939
▁cường	-2940
▁dường	-2941
▁dưỡng	-2942
▁hoang	-2943
▁khung	-2944
▁khuất	-2945
▁khánh	-2946
▁nghèo	-2947
▁phiền	-2948
▁thánh	-2949
▁thắng	-2950
▁tuyết	-2951
200625,	-2952
398125,	-2953
405625,	-2954
620625,	-2955
996875,	-2956
▁1.739,	-2957
▁1.861,	-2958
▁2.161,	-2959
▁2.841,	-2960
▁3.041,	-2961
▁chuyên	-2962
▁thoáng	-2963
▁thượng	-2964
▁2.0005,	-2965
▁2.3815,	-2966
▁2.5015,	-2967
▁2.7815,	-2968
▁3.3215,	-2969
▁1.86025,	-2970
▁2.44275,	-2971
▁2.70175,	-2972
▁2.92125,	-2973
▁3.36175,	-2974
▁1.480625,	-2975
▁1.840625,	-2976
▁1.860625,	-2977
▁1.900125,	-2978
▁1.960125,	-2979
▁2.001875,	-2980
▁2.082125,	-2981
▁2.300625,	-2982
▁2.542625,	-2983
▁2.580625,	-2984
▁2.640625,	-2985
▁2.741625,	-2986
▁2.760625,	-2987
▁2.781875,	-2988
▁2.801625,	-2989
▁2.801875,	-2990
▁2.821375,	-2991
▁2.940375,	-2992
▁3.141125,	-2993
▁3.161625,	-2994
▁3.201625,	-2995
▁3.221375,	-2996
▁3.241375,	-2997
▁3.301875,	-2998
▁1.6810625,	-2999
▁1.8419375,	-3000
▁1.9206875,	-3001
▁2.0605625,	-3002
▁2.2021875,	-3003
▁2.2401875,	-3004
▁2.3419375,	-3005
▁2.4605625,	-3006
▁2.4803125,	-3007
▁2.4818125,	-3008
▁2.5421875,	-3009
▁2.5628125,	-3010
▁2.6815625,	-3011
▁2.7809375,	-3012
▁2.8203125,	-3013
▁2.9414375,	-3014
▁2.9610625,	-3015
▁2.9816875,	-3016
▁3.0018125,	-3017
▁3.0411875,	-3018
▁3.0818125,	-3019
▁3.1218125,	-3020
▁3.3614375,	-3021
▁3.4016875,	-3022
▁3.5015625,	-3023
3,	-3024
bỏ	-3025
kể	-3026
lý	-3027
om	-3028
rõ	-3029
ví	-3030
én	-3031
ậc	-3032
ủy	-3033
▁e	-3034
▁u	-3035
▁ô	-3036
bọn	-3037
chu	-3038
hải	-3039
học	-3040
kho	-3041
mất	-3042
mối	-3043
ngo	-3044
nổi	-3045
quá	-3046
suy	-3047
trả	-3048
trẻ	-3049
tên	-3050
tìm	-3051
tức	-3052
ãnh	-3053
đơn	-3054
đầy	-3055
đều	-3056
địa	-3057
▁6.	-3058
▁bề	-3059
▁bồ	-3060
▁cử	-3061
▁dã	-3062
▁dỗ	-3063
▁dữ	-3064
▁hổ	-3065
▁mô	-3066
▁rủ	-3067
▁su	-3068
▁tá	-3069
▁tờ	-3070
▁tứ	-3071
▁vĩ	-3072
▁xô	-3073
▁xứ	-3074
▁ác	-3075
▁ám	-3076
▁ẩn	-3077
▁ớt	-3078
biển	-3079
buổi	-3080
chăm	-3081
chết	-3082
dành	-3083
dùng	-3084
giải	-3085
giới	-3086
giữa	-3087
hoài	-3088
hạnh	-3089
khỏi	-3090
kiến	-3091
phục	-3092
thêm	-3093
toàn	-3094
uyển	-3095
đánh	-3096
▁5.1	-3097
▁bày	-3098
▁bãi	-3099
▁bậc	-3100
▁cam	-3101
▁can	-3102
▁cản	-3103
▁cập	-3104
▁cắn	-3105
▁dại	-3106
▁dạo	-3107
▁dọc	-3108
▁dối	-3109
▁gấp	-3110
▁hàm	-3111
▁hấp	-3112
▁hối	-3113
▁khẽ	-3114
▁lâm	-3115
▁lặp	-3116
▁lục	-3117
▁mắm	-3118
▁mực	-3119
▁nhé	-3120
▁phổ	-3121
▁rào	-3122
▁say	-3123
▁săn	-3124
▁tai	-3125
▁thụ	-3126
▁tải	-3127
▁tỏa	-3128
▁tốn	-3129
▁tựa	-3130
▁ung	-3131
▁vua	-3132
▁đua	-3133
▁đài	-3134
▁đèn	-3135
1125,	-3136
2275,	-3137
3825,	-3138
6275,	-3139
6625,	-3140
chung	-3141
dương	-3142
thoát	-3143
thoại	-3144
trách	-3145
tượng	-3146
▁1.19	-3147
▁1.77	-3148
▁1.80	-3149
▁1.91	-3150
▁2.71	-3151
▁3.41	-3152
▁3.42	-3153
▁biện	-3154
▁buôn	-3155
▁băng	-3156
▁bạch	-3157
▁châu	-3158
▁chùa	-3159
▁chúa	-3160
▁chậm	-3161
▁chợt	-3162
▁dàng	-3163
▁dáng	-3164
▁ghét	-3165
▁hiến	-3166
▁hiếu	-3167
▁hứng	-3168
▁khen	-3169
▁khôi	-3170
▁kênh	-3171
▁loan	-3172
▁loạn	-3173
▁lệnh	-3174
▁mệnh	-3175
▁ngào	-3176
▁ngọn	-3177
▁nhạt	-3178
▁nhịn	-3179
▁nhịp	-3180
▁sóng	-3181
▁thuế	-3182
▁thịt	-3183
▁vững	-3184
▁điệu	-3185
▁địch	-3186
23125,	-3187
26875,	-3188
28125,	-3189
35125,	-3190
59625,	-3191
79875,	-3192
nguyên	-3193
▁1.500	-3194
▁1.78,	-3195
▁2.195	-3196
▁2.299	-3197
▁2.319	-3198
▁2.739	-3199
▁3.500	-3200
▁chiếu	-3201
▁giang	-3202
▁khiêm	-3203
▁khuôn	-3204
▁khẳng	-3205
▁luyện	-3206
▁phiên	-3207
▁phiếu	-3208
▁thang	-3209
▁thạch	-3210
▁triệu	-3211
▁trồng	-3212
▁trừng	-3213
▁tuyến	-3214
▁đương	-3215
223125,	-3216
226875,	-3217
349375,	-3218
800625,	-3219
▁1.682,	-3220
▁1.962,	-3221
▁1.981,	-3222
▁2.159,	-3223
▁2.339,	-3224
▁2.901,	-3225
▁3.022,	-3226
▁3.322,	-3227
▁phượng	-3228
▁thoảng	-3229
▁truyện	-3230
▁1.6015,	-3231
▁1.8805,	-3232
▁1.9005,	-3233
▁2.1225,	-3234
▁2.7405,	-3235
▁3.3015,	-3236
▁1.54075,	-3237
▁1.58125,	-3238
▁1.98225,	-3239
▁2.54075,	-3240
▁2.70025,	-3241
▁2.86125,	-3242
▁3.24175,	-3243
▁1.781875,	-3244
▁1.862125,	-3245
▁1.962625,	-3246
▁2.040375,	-3247
▁2.180125,	-3248
▁2.259875,	-3249
▁2.380875,	-3250
▁2.601875,	-3251
▁2.660875,	-3252
▁2.680125,	-3253
▁2.720375,	-3254
▁2.742125,	-3255
▁2.780375,	-3256
▁2.802875,	-3257
▁3.040625,	-3258
▁3.080625,	-3259
▁3.141625,	-3260
▁3.181875,	-3261
▁3.261875,	-3262
▁3.281625,	-3263
▁3.461375,	-3264
▁3.521375,	-3265
▁3.621625,	-3266
▁1.5603125,	-3267
▁1.5805625,	-3268
▁1.5814375,	-3269
▁1.6421875,	-3270
▁1.8799375,	-3271
▁1.9006875,	-3272
▁2.0024375,	-3273
▁2.0201875,	-3274
▁2.0216875,	-3275
▁2.0624375,	-3276
▁2.0826875,	-3277
▁2.1205625,	-3278
▁2.2621875,	-3279
▁2.3214375,	-3280
▁2.4213125,	-3281
▁2.5604375,	-3282
▁2.5801875,	-3283
▁2.6626875,	-3284
▁2.6828125,	-3285
▁2.7411875,	-3286
▁2.7808125,	-3287
▁2.7823125,	-3288
▁2.8025625,	-3289
▁2.8221875,	-3290
▁2.8225625,	-3291
▁2.8404375,	-3292
▁2.8423125,	-3293
▁2.9008125,	-3294
▁2.9203125,	-3295
▁2.9216875,	-3296
▁2.9219375,	-3297
▁2.9819375,	-3298
▁3.0218125,	-3299
▁3.1019375,	-3300
▁3.1619375,	-3301
▁3.3413125,	-3302
▁3.4215625,	-3303
▁3.5218125,	-3304
09	-3305
bé	-3306
cơ	-3307
nữ	-3308
so	-3309
số	-3310
sợ	-3311
tổ	-3312
vô	-3313
vị	-3314
xe	-3315
õm	-3316
đủ	-3317
ẫm	-3318
ẻo	-3319
ễm	-3320
ụa	-3321
ụi	-3322
ụt	-3323
65,	-3324
95,	-3325
bàn	-3326
bảo	-3327
cẩm	-3328
giá	-3329
gần	-3330
hòa	-3331
hắn	-3332
hợp	-3333
leo	-3334
mày	-3335
nam	-3336
ngủ	-3337
nhờ	-3338
phụ	-3339
thư	-3340
thị	-3341
tác	-3342
vội	-3343
yên	-3344
õng	-3345
đưa	-3346
đặt	-3347
đội	-3348
đời	-3349
ướt	-3350
▁bã	-3351
▁bế	-3352
▁bờ	-3353
▁cú	-3354
▁cư	-3355
▁cỏ	-3356
▁dì	-3357
▁dò	-3358
▁dư	-3359
▁ly	-3360
▁lò	-3361
▁my	-3362
▁mì	-3363
▁mẻ	-3364
▁mỉ	-3365
▁mổ	-3366
▁nè	-3367
▁rể	-3368
▁tô	-3369
▁tơ	-3370
▁vỗ	-3371
▁vỡ	-3372
▁xu	-3373
▁xì	-3374
▁âu	-3375
▁đế	-3376
▁ưu	-3377
▁ấn	-3378
▁ấp	-3379
▁ẩm	-3380
▁ốc	-3381
▁ức	-3382
175,	-3383
275,	-3384
365,	-3385
475,	-3386
525,	-3387
595,	-3388
795,	-3389
bệnh	-3390
chào	-3391
chúc	-3392
diễn	-3393
giáo	-3394
hiệu	-3395
hưng	-3396
làng	-3397
minh	-3398
ngọc	-3399
ngồi	-3400
nhắc	-3401
năng	-3402
phát	-3403
phạm	-3404
phản	-3405
quốc	-3406
suốt	-3407
thuê	-3408
thói	-3409
thăm	-3410
tiên	-3411
trái	-3412
trân	-3413
tuấn	-3414
tuổi	-3415
tỉnh	-3416
việt	-3417
điện	-3418
đáng	-3419
đứng	-3420
▁4.8	-3421
▁bão	-3422
▁bút	-3423
▁bạo	-3424
▁bảy	-3425
▁bắp	-3426
▁che	-3427
▁cán	-3428
▁cân	-3429
▁cãi	-3430
▁cận	-3431
▁cột	-3432
▁dây	-3433
▁dấu	-3434
▁dằn	-3435
▁gắn	-3436
▁huệ	-3437
▁hàn	-3438
▁hán	-3439
▁hét	-3440
▁hầm	-3441
▁hỗn	-3442
▁khứ	-3443
▁lam	-3444
▁leo	-3445
▁lãi	-3446
▁lôi	-3447
▁lùi	-3448
▁lợn	-3449
▁lụa	-3450
▁mũi	-3451
▁mại	-3452
▁ngơ	-3453
▁ngữ	-3454
▁nhã	-3455
▁nhở	-3456
▁nạt	-3457
▁rèn	-3458
▁sáu	-3459
▁sót	-3460
▁sạn	-3461
▁thí	-3462
▁thổ	-3463
▁thợ	-3464
▁tri	-3465
▁trù	-3466
▁tàn	-3467
▁tóc	-3468
▁váy	-3469
▁vất	-3470
▁vặt	-3471
▁yến	-3472
▁đam	-3473
▁đàm	-3474
▁đãi	-3475
▁đĩa	-3476
▁đạn	-3477
▁đắn	-3478
▁đền	-3479
▁đốm	-3480
3625,	-3481
3875,	-3482
8625,	-3483
9625,	-3484
hương	-3485
khánh	-3486
ngành	-3487
nhanh	-3488
nhiên	-3489
quyết	-3490
thiết	-3491
thuốc	-3492
tháng	-3493
xuống	-3494
▁1.17	-3495
▁1.39	-3496
▁1.5,	-3497
▁1.87	-3498
▁1.99	-3499
▁2.11	-3500
▁2.37	-3501
▁2.61	-3502
▁2.77	-3503
▁3.0,	-3504
▁3.59	-3505
▁3.80	-3506
▁bông	-3507
▁chép	-3508
▁chăn	-3509
▁cống	-3510
▁diệu	-3511
▁giết	-3512
▁gánh	-3513
▁gừng	-3514
▁khan	-3515
▁khao	-3516
▁khóa	-3517
▁khúc	-3518
▁khắp	-3519
▁khốn	-3520
▁kiêu	-3521
▁kiếp	-3522
▁kiệm	-3523
▁lang	-3524
▁lược	-3525
▁muối	-3526
▁mắng	-3527
▁mộng	-3528
▁ngốc	-3529
▁ngựa	-3530
▁nhõm	-3531
▁nhựa	-3532
▁rung	-3533
▁tháp	-3534
▁thốt	-3535
▁tiềm	-3536
▁tiễn	-3537
▁tiệc	-3538
▁trêu	-3539
▁túng	-3540
▁tịch	-3541
▁vạch	-3542
▁vắng	-3543
▁xông	-3544
▁đuối	-3545
▁đàng	-3546
▁đống	-3547
13125,	-3548
29375,	-3549
36875,	-3550
40125,	-3551
45625,	-3552
46875,	-3553
50625,	-3554
54375,	-3555
55375,	-3556
56875,	-3557
58625,	-3558
70625,	-3559
76875,	-3560
89375,	-3561
90875,	-3562
chuyên	-3563
chuyển	-3564
chương	-3565
khuyên	-3566
nghiệp	-3567
▁1.333	-3568
▁1.639	-3569
▁1.875	-3570
▁2.439	-3571
▁2.56,	-3572
▁duyên	-3573
▁giành	-3574
▁huyền	-3575
▁huống	-3576
▁kháng	-3577
▁miếng	-3578
▁ngừng	-3579
▁phỏng	-3580
▁thiền	-3581
▁thoải	-3582
▁thách	-3583
▁vương	-3584
375625,	-3585
376875,	-3586
428125,	-3587
513125,	-3588
594375,	-3589
601875,	-3590
629375,	-3591
765625,	-3592
829375,	-3593
968125,	-3594
▁2.039,	-3595
▁2.221,	-3596
▁2.461,	-3597
▁2.519,	-3598
▁2.682,	-3599
▁3.222,	-3600
▁3.282,	-3601
▁chuông	-3602
▁khuyết	-3603
▁1.7405,	-3604
▁1.9405,	-3605
▁2.0215,	-3606
▁2.1825,	-3607
▁2.5225,	-3608
▁2.6425,	-3609
▁3.3225,	-3610
▁3.6015,	-3611
▁3.6415,	-3612
▁1.85975,	-3613
▁2.18125,	-3614
▁2.24175,	-3615
▁2.32275,	-3616
▁2.38275,	-3617
▁2.66225,	-3618
▁2.80075,	-3619
▁2.80125,	-3620
▁2.84275,	-3621
▁2.88175,	-3622
▁3.06225,	-3623
▁3.16125,	-3624
▁3.16175,	-3625
▁3.18175,	-3626
▁3.28175,	-3627
▁3.30175,	-3628
▁3.42175,	-3629
▁3.68175,	-3630
▁3.80175,	-3631
▁1.620125,	-3632
▁1.760375,	-3633
▁1.761625,	-3634
▁1.780375,	-3635
▁1.802125,	-3636
▁1.942375,	-3637
▁2.080625,	-3638
▁2.201375,	-3639
▁2.240625,	-3640
▁2.280625,	-3641
▁2.422625,	-3642
▁2.440875,	-3643
▁2.620625,	-3644
▁2.621125,	-3645
▁2.660375,	-3646
▁2.661875,	-3647
▁2.680625,	-3648
▁2.841875,	-3649
▁2.880875,	-3650
▁2.882625,	-3651
▁2.942375,	-3652
▁2.962375,	-3653
▁2.982625,	-3654
▁3.000375,	-3655
▁3.002625,	-3656
▁3.062375,	-3657
▁3.140625,	-3658
▁3.241875,	-3659
▁3.261625,	-3660
▁3.322625,	-3661
▁3.381625,	-3662
▁3.601625,	-3663
▁3.681625,	-3664
▁1.6016875,	-3665
▁1.7414375,	-3666
▁1.8208125,	-3667
▁1.8400625,	-3668
▁1.8425625,	-3669
▁1.9025625,	-3670
▁1.9605625,	-3671
▁2.0004375,	-3672
▁2.0206875,	-3673
▁2.0416875,	-3674
▁2.0999375,	-3675
▁2.1599375,	-3676
▁2.2026875,	-3677
▁2.2218125,	-3678
▁2.3199375,	-3679
▁2.3406875,	-3680
▁2.3808125,	-3681
▁2.4198125,	-3682
▁2.4206875,	-3683
▁2.4218125,	-3684
▁2.4409375,	-3685
▁2.4616875,	-3686
▁2.4808125,	-3687
▁2.5408125,	-3688
▁2.5615625,	-3689
▁2.6026875,	-3690
▁2.6215625,	-3691
▁2.7224375,	-3692
▁2.7425625,	-3693
▁2.8624375,	-3694
▁2.9019375,	-3695
▁2.9615625,	-3696
▁3.0413125,	-3697
▁3.0416875,	-3698
▁3.1016875,	-3699
▁3.1418125,	-3700
▁3.1424375,	-3701
▁3.1425625,	-3702
▁3.1804375,	-3703
▁3.2020625,	-3704
▁3.2204375,	-3705
▁3.2806875,	-3706
▁3.2813125,	-3707
▁3.2825625,	-3708
▁3.3014375,	-3709
▁3.3205625,	-3710
▁3.4014375,	-3711
▁3.4415625,	-3712
▁3.4815625,	-3713
▁3.4818125,	-3714
▁3.5616875,	-3715
▁3.6025625,	-3716
▁3.8214375,	-3717
▁3.9216875,	-3718
27	-3719
68	-3720
7,	-3721
93	-3722
bộ	-3723
gh	-3724
gã	-3725
hạ	-3726
hả	-3727
hồ	-3728
kỳ	-3729
tú	-3730
xa	-3731
xu	-3732
xã	-3733
óp	-3734
úa	-3735
ún	-3736
đo	-3737
ũa	-3738
ơm	-3739
ẹt	-3740
ọa	-3741
ồm	-3742
ộp	-3743
ụn	-3744
▁ư	-3745
45,	-3746
91,	-3747
ban	-3748
bữa	-3749
cao	-3750
chờ	-3751
cây	-3752
duy	-3753
dám	-3754
dẫn	-3755
dọn	-3756
giữ	-3757
gái	-3758
hoa	-3759
hội	-3760
iêm	-3761
khu	-3762
kết	-3763
lạc	-3764
lựa	-3765
mặc	-3766
mệt	-3767
mời	-3768
nha	-3769
oay	-3770
phó	-3771
quà	-3772
thú	-3773
tài	-3774
tập	-3775
tồn	-3776
vài	-3777
xúc	-3778
đàn	-3779
đất	-3780
đặc	-3781
ướp	-3782
ưỡi	-3783
ượn	-3784
ẩng	-3785
ờng	-3786
ửng	-3787
▁bó	-3788
▁bơ	-3789
▁bạ	-3790
▁cờ	-3791
▁củ	-3792
▁gõ	-3793
▁gỡ	-3794
▁ha	-3795
▁hè	-3796
▁hê	-3797
▁kê	-3798
▁lì	-3799
▁lờ	-3800
▁mồ	-3801
▁no	-3802
▁nề	-3803
▁nỗ	-3804
▁ro	-3805
▁rẻ	-3806
▁tả	-3807
▁vẽ	-3808
▁vở	-3809
395,	-3810
945,	-3811
955,	-3812
965,	-3813
985,	-3814
995,	-3815
biệt	-3816
bóng	-3817
chân	-3818
chợt	-3819
cuốn	-3820
cánh	-3821
cưới	-3822
cảnh	-3823
danh	-3824
diện	-3825
dòng	-3826
gian	-3827
giao	-3828
khỏe	-3829
kiếm	-3830
kiểu	-3831
loại	-3832
mạnh	-3833
ngân	-3834
nhật	-3835
niềm	-3836
nàng	-3837
nóng	-3838
nặng	-3839
phim	-3840
quần	-3841
răng	-3842
thèm	-3843
thảo	-3844
thầy	-3845
tiêu	-3846
tích	-3847
uyến	-3848
vườn	-3849
đoàn	-3850
▁1.0	-3851
▁bia	-3852
▁bin	-3853
▁bom	-3854
▁bóc	-3855
▁băn	-3856
▁bơi	-3857
▁bền	-3858
▁bốc	-3859
▁bối	-3860
▁bồi	-3861
▁bộc	-3862
▁bụi	-3863
▁cai	-3864
▁chà	-3865
▁chê	-3866
▁cát	-3867
▁cóc	-3868
▁cúi	-3869
▁cút	-3870
▁cấu	-3871
▁cặn	-3872
▁cục	-3873
▁dầu	-3874
▁dẹp	-3875
▁dịp	-3876
▁dứt	-3877
▁gan	-3878
▁gói	-3879
▁góp	-3880
▁gạo	-3881
▁gạt	-3882
▁gọn	-3883
▁gối	-3884
▁gồm	-3885
▁hoe	-3886
▁huế	-3887
▁hảo	-3888
▁hận	-3889
▁hệt	-3890
▁hộp	-3891
▁hủy	-3892
▁kèm	-3893
▁kìm	-3894
▁lau	-3895
▁lãm	-3896
▁lúa	-3897
▁lẫy	-3898
▁lọt	-3899
▁lộn	-3900
▁mạn	-3901
▁mỉm	-3902
▁mọc	-3903
▁mụn	-3904
▁ngu	-3905
▁ngũ	-3906
▁nắp	-3907
▁nếp	-3908
▁nết	-3909
▁pha	-3910
▁phó	-3911
▁quỳ	-3912
▁rối	-3913
▁rủi	-3914
▁sum	-3915
▁sàn	-3916
▁sôi	-3917
▁sỏi	-3918
▁thà	-3919
▁thề	-3920
▁thọ	-3921
▁táo	-3922
▁tín	-3923
▁tóm	-3924
▁tấp	-3925
▁tần	-3926
▁tật	-3927
▁voi	-3928
▁vạn	-3929
▁vẹn	-3930
▁vết	-3931
▁xào	-3932
▁xâm	-3933
▁xíu	-3934
▁xóa	-3935
▁úng	-3936
▁đai	-3937
▁đâm	-3938
▁đầm	-3939
▁đậu	-3940
▁đắp	-3941
▁ướt	-3942
3375,	-3943
4625,	-3944
5375,	-3945
5475,	-3946
6375,	-3947
7975,	-3948
cường	-3949
doanh	-3950
hướng	-3951
khang	-3952
khuôn	-3953
lương	-3954
lượng	-3955
nghĩa	-3956
ngoại	-3957
nhiệm	-3958
phiền	-3959
phóng	-3960
thiếu	-3961
thẳng	-3962
trang	-3963
trình	-3964
xuyên	-3965
▁1.27	-3966
▁1.63	-3967
▁1.73	-3968
▁1.75	-3969
▁1.85	-3970
▁1.89	-3971
▁1.93	-3972
▁2.2,	-3973
▁2.45	-3974
▁2.51	-3975
▁2.91	-3976
▁3.01	-3977
▁3.11	-3978
▁3.6,	-3979
▁3.82	-3980
▁binh	-3981
▁bỏng	-3982
▁chai	-3983
▁chua	-3984
▁cháy	-3985
▁chém	-3986
▁chén	-3987
▁chứa	-3988
▁cúng	-3989
▁cướp	-3990
▁dưng	-3991
▁gạch	-3992
▁hoài	-3993
▁hung	-3994
▁hãnh	-3995
▁hăng	-3996
▁khoe	-3997
▁khéo	-3998
▁khơi	-3999
▁khải	-4000
▁khấu	-4001
▁khối	-4002
▁kiều	-4003
▁loạt	-4004
▁lách	-4005
▁lánh	-4006
▁lông	-4007
▁lùng	-4008
▁lũng	-4009
▁lượt	-4010
▁lỏng	-4011
▁lồng	-4012
▁manh	-4013
▁mênh	-4014
▁mười	-4015
▁ngói	-4016
▁ngôn	-4017
▁ngạo	-4018
▁ngầm	-4019
▁ngắt	-4020
▁ngột	-4021
▁ngục	-4022
▁nhấn	-4023
▁nhầm	-4024
▁nhằn	-4025
▁nhọc	-4026
▁nhốt	-4027
▁nòng	-4028
▁phào	-4029
▁phán	-4030
▁phơi	-4031
▁phức	-4032
▁quát	-4033
▁soạn	-4034
▁súng	-4035
▁thâm	-4036
▁thét	-4037
▁thói	-4038
▁thúy	-4039
▁thơm	-4040
▁thảm	-4041
▁thản	-4042
▁thẩm	-4043
▁thắc	-4044
▁thắn	-4045
▁thụy	-4046
▁tiếc	-4047
▁trào	-4048
▁trán	-4049
▁trọn	-4050
▁trộn	-4051
▁tảng	-4052
▁uyên	-4053
▁vang	-4054
▁viễn	-4055
▁xuôi	-4056
▁điên	-4057
▁điềm	-4058
▁đuôi	-4059
▁đăng	-4060
▁đắng	-4061
▁đằng	-4062
▁đẳng	-4063
▁đặng	-4064
▁đỉnh	-4065
15625,	-4066
31875,	-4067
36375,	-4068
38375,	-4069
39625,	-4070
43125,	-4071
58375,	-4072
59375,	-4073
62875,	-4074
78125,	-4075
82875,	-4076
84375,	-4077
85625,	-4078
truyền	-4079
trường	-4080
trưởng	-4081
▁1.269	-4082
▁1.530	-4083
▁1.599	-4084
▁1.797	-4085
▁1.857	-4086
▁1.957	-4087
▁1.978	-4088
▁2.137	-4089
▁2.238	-4090
▁2.26,	-4091
▁2.457	-4092
▁2.459	-4093
▁2.717	-4094
▁2.830	-4095
▁2.851	-4096
▁3.06,	-4097
▁3.34,	-4098
▁buông	-4099
▁chỉnh	-4100
▁giảng	-4101
▁huyết	-4102
▁huỳnh	-4103
▁khoác	-4104
▁nghẹn	-4105
▁ngùng	-4106
▁ngước	-4107
▁nhiệt	-4108
▁nương	-4109
▁ruộng	-4110
▁thiệt	-4111
▁thuần	-4112
▁thước	-4113
▁thịnh	-4114
▁trích	-4115
▁trưng	-4116
▁tuyển	-4117
▁vướng	-4118
004375,	-4119
028125,	-4120
178125,	-4121
189375,	-4122
195625,	-4123
228125,	-4124
364375,	-4125
365625,	-4126
429375,	-4127
503125,	-4128
563125,	-4129
565625,	-4130
566875,	-4131
588125,	-4132
796875,	-4133
▁1.679,	-4134
▁1.681,	-4135
▁1.801,	-4136
▁1.921,	-4137
▁1.979,	-4138
▁2.279,	-4139
▁2.459,	-4140
▁2.641,	-4141
▁2.681,	-4142
▁2.699,	-4143
▁2.759,	-4144
▁2.881,	-4145
▁3.179,	-4146
▁3.202,	-4147
▁3.401,	-4148
▁3.402,	-4149
▁3.462,	-4150
▁3.581,	-4151
▁khoảnh	-4152
▁nhường	-4153
▁2.5825,	-4154
▁2.9625,	-4155
▁2.9825,	-4156
▁3.0005,	-4157
▁3.0205,	-4158
▁3.0225,	-4159
▁3.0425,	-4160
▁3.0605,	-4161
▁3.0805,	-4162
▁3.1815,	-4163
▁3.4605,	-4164
▁3.5815,	-4165
▁3.7215,	-4166
▁1.52025,	-4167
▁1.88175,	-4168
▁2.08075,	-4169
▁2.26275,	-4170
▁2.46075,	-4171
▁2.52125,	-4172
▁2.58125,	-4173
▁2.78275,	-4174
▁2.82175,	-4175
▁2.94225,	-4176
▁3.00225,	-4177
▁3.02025,	-4178
▁3.10125,	-4179
▁3.12075,	-4180
▁3.18075,	-4181
▁3.22125,	-4182
▁3.48275,	-4183
▁3.50075,	-4184
▁3.56075,	-4185
▁3.62225,	-4186
▁3.74175,	-4187
▁3.76175,	-4188
▁1.522125,	-4189
▁1.561875,	-4190
▁1.680125,	-4191
▁1.681375,	-4192
▁1.819875,	-4193
▁1.959625,	-4194
▁2.016625,	-4195
▁2.039875,	-4196
▁2.061875,	-4197
▁2.160375,	-4198
▁2.220125,	-4199
▁2.341125,	-4200
▁2.341625,	-4201
▁2.400125,	-4202
▁2.420875,	-4203
▁2.501875,	-4204
▁2.681875,	-4205
▁2.682125,	-4206
▁2.721875,	-4207
▁2.980375,	-4208
▁3.020125,	-4209
▁3.020625,	-4210
▁3.042125,	-4211
▁3.060875,	-4212
▁3.082375,	-4213
▁3.100375,	-4214
▁3.140875,	-4215
▁3.280375,	-4216
▁3.302375,	-4217
▁3.321875,	-4218
▁3.801375,	-4219
▁3.842625,	-4220
▁4.000625,	-4221
▁1.5009375,	-4222
▁1.5409375,	-4223
▁1.5821875,	-4224
▁1.6624375,	-4225
▁1.7015625,	-4226
▁1.7598125,	-4227
▁1.7623125,	-4228
▁1.7996875,	-4229
▁1.8223125,	-4230
▁1.9614375,	-4231
▁2.1200625,	-4232
▁2.1398125,	-4233
▁2.1623125,	-4234
▁2.2016875,	-4235
▁2.2609375,	-4236
▁2.2614375,	-4237
▁2.2765625,	-4238
▁2.2800625,	-4239
▁2.3013125,	-4240
▁2.3598125,	-4241
▁2.4006875,	-4242
▁2.4019375,	-4243
▁2.4216875,	-4244
▁2.4410625,	-4245
▁2.4804375,	-4246
▁2.5201875,	-4247
▁2.5216875,	-4248
▁2.5600625,	-4249
▁2.5806875,	-4250
▁2.5826875,	-4251
▁2.6014375,	-4252
▁2.6416875,	-4253
▁2.6420625,	-4254
▁2.6619375,	-4255
▁2.7008125,	-4256
▁2.7009375,	-4257
▁2.7025625,	-4258
▁2.7625625,	-4259
▁2.7805625,	-4260
▁2.8405625,	-4261
▁2.8424375,	-4262
▁2.8806875,	-4263
▁2.9206875,	-4264
▁2.9221875,	-4265
▁2.9409375,	-4266
▁2.9609375,	-4267
▁2.9813125,	-4268
▁3.0009375,	-4269
▁3.0219375,	-4270
▁3.0829375,	-4271
▁3.1003125,	-4272
▁3.1026875,	-4273
▁3.1216875,	-4274
▁3.1604375,	-4275
▁3.1621875,	-4276
▁3.1625625,	-4277
▁3.1823125,	-4278
▁3.2826875,	-4279
▁3.3005625,	-4280
▁3.3213125,	-4281
▁3.3406875,	-4282
▁3.3414375,	-4283
▁3.3608125,	-4284
▁3.4013125,	-4285
▁3.4214375,	-4286
▁3.4416875,	-4287
▁3.4618125,	-4288
▁3.4824375,	-4289
▁3.5016875,	-4290
▁3.5216875,	-4291
▁3.5424375,	-4292
▁3.5615625,	-4293
▁3.5625625,	-4294
▁3.6619375,	-4295
▁4.1818125,	-4296
1,	-4297
88	-4298
cử	-4299
dự	-4300
hy	-4301
hà	-4302
hệ	-4303
lu	-4304
lá	-4305
lẽ	-4306
mu	-4307
mơ	-4308
mở	-4309
sử	-4310
to	-4311
tù	-4312
tư	-4313
tỏ	-4314
vợ	-4315
íu	-4316
đồ	-4317
ẽo	-4318
ếc	-4319
ốp	-4320
ụm	-4321
▁a	-4322
▁ế	-4323
05,	-4324
55,	-4325
57,	-4326
bày	-4327
bán	-4328
báo	-4329
bắc	-4330
bớt	-4331
chi	-4332
chế	-4333
chỗ	-4334
chủ	-4335
cầm	-4336
cẩn	-4337
cắm	-4338
cứu	-4339
cửa	-4340
cực	-4341
dân	-4342
dần	-4343
ghi	-4344
gió	-4345
gây	-4346
gửi	-4347
hào	-4348
hát	-4349
hơi	-4350
hầu	-4351
hết	-4352
hồi	-4353
khá	-4354
lão	-4355
lưu	-4356
lập	-4357
lợi	-4358
lực	-4359
may	-4360
màn	-4361
mãi	-4362
mưa	-4363
mức	-4364
nga	-4365
nhi	-4366
nhu	-4367
nằm	-4368
phố	-4369
quý	-4370
rửa	-4371
rực	-4372
sài	-4373
sản	-4374
sắm	-4375
sắp	-4376
sẵn	-4377
sức	-4378
tay	-4379
thi	-4380
thở	-4381
trị	-4382
trợ	-4383
tôn	-4384
tận	-4385
văn	-4386
vất	-4387
vật	-4388
xác	-4389
xét	-4390
đau	-4391
đem	-4392
đám	-4393
đạo	-4394
đậu	-4395
đẹp	-4396
đổi	-4397
độc	-4398
đợi	-4399
nụ	-4400
bài	-4401
coi	-4402
cấp	-4403
cấu	-4404
kéo	-4405
thù	-4406
tây	-4407
đạt	-4408
đọc	-4409
ướm	-4410
ầng	-4411
▁"}	-4412
▁bi	-4413
▁bo	-4414
▁bò	-4415
▁bú	-4416
▁bệ	-4417
▁co	-4418
▁cu	-4419
▁cỡ	-4420
▁cự	-4421
▁dở	-4422
▁gả	-4423
▁hô	-4424
▁hờ	-4425
▁hở	-4426
▁in	-4427
▁kẽ	-4428
▁kệ	-4429
▁lù	-4430
▁lẻ	-4431
▁lỗ	-4432
▁lữ	-4433
▁mã	-4434
▁mè	-4435
▁mò	-4436
▁mó	-4437
▁mù	-4438
▁mỏ	-4439
▁mộ	-4440
▁mợ	-4441
▁na	-4442
▁nỉ	-4443
▁nổ	-4444
▁nở	-4445
▁rũ	-4446
▁rẽ	-4447
▁sa	-4448
▁tò	-4449
▁tẻ	-4450
▁tủ	-4451
▁uy	-4452
▁vu	-4453
▁võ	-4454
▁vỏ	-4455
▁vờ	-4456
▁xạ	-4457
▁át	-4458
▁ép	-4459
▁êm	-4460
▁đu	-4461
▁đẽ	-4462
▁ảo	-4463
▁ập	-4464
▁ỏi	-4465
219,	-4466
325,	-4467
535,	-4468
545,	-4469
565,	-4470
585,	-4471
675,	-4472
biến	-4473
biểu	-4474
buồn	-4475
buộc	-4476
chui	-4477
châu	-4478
chìm	-4479
chôn	-4480
chạm	-4481
chấp	-4482
chậm	-4483
chặt	-4484
chọn	-4485
cung	-4486
cười	-4487
dính	-4488
dịch	-4489
dừng	-4490
giác	-4491
giám	-4492
giấy	-4493
giết	-4494
giỏi	-4495
gắng	-4496
hoan	-4497
hoạt	-4498
hỏng	-4499
khóc	-4500
kiện	-4501
kịch	-4502
liệt	-4503
liệu	-4504
lĩnh	-4505
lắng	-4506
miễn	-4507
muộn	-4508
mạch	-4509
ngôi	-4510
nhóm	-4511
nhạt	-4512
nhằm	-4513
pháp	-4514
phân	-4515
phép	-4516
phúc	-4517
phấn	-4518
phẫu	-4519
quên	-4520
siêu	-4521
thâm	-4522
thất	-4523
thắp	-4524
thịt	-4525
tinh	-4526
tiếc	-4527
tiểu	-4528
tiện	-4529
trao	-4530
trận	-4531
tĩnh	-4532
tổng	-4533
vinh	-4534
viên	-4535
vòng	-4536
vùng	-4537
vượt	-4538
xuân	-4539
điểm	-4540
đoạn	-4541
đuổi	-4542
đành	-4543
đông	-4544
đằng	-4545
đỉnh	-4546
▁5.4	-4547
▁5.6	-4548
▁bôn	-4549
▁bấm	-4550
▁bẫy	-4551
▁bậy	-4552
▁bới	-4553
▁côi	-4554
▁cõi	-4555
▁cấy	-4556
▁cắm	-4557
▁cỏi	-4558
▁cốt	-4559
▁cụm	-4560
▁củi	-4561
▁dày	-4562
▁dấy	-4563
▁dầm	-4564
▁dặt	-4565
▁dịu	-4566
▁dọa	-4567
▁dốc	-4568
▁dồi	-4569
▁dụi	-4570
▁gom	-4571
▁gào	-4572
▁gác	-4573
▁gãi	-4574
▁gìn	-4575
▁gầm	-4576
▁gốc	-4577
▁hen	-4578
▁hun	-4579
▁hâm	-4580
▁hôi	-4581
▁hưu	-4582
▁hỏa	-4583
▁hốt	-4584
▁hụt	-4585
▁kem	-4586
▁khe	-4587
▁két	-4588
▁lán	-4589
▁láo	-4590
▁lìm	-4591
▁lấp	-4592
▁lầu	-4593
▁lầy	-4594
▁lẫm	-4595
▁lật	-4596
▁lắp	-4597
▁lặn	-4598
▁lặt	-4599
▁lẻo	-4600
▁lọc	-4601
▁lộc	-4602
▁lội	-4603
▁men	-4604
▁mây	-4605
▁mèo	-4606
▁mía	-4607
▁móc	-4608
▁mưu	-4609
▁mạo	-4610
▁mận	-4611
▁mẹo	-4612
▁mếu	-4613
▁mốt	-4614
▁mồi	-4615
▁nai	-4616
▁ngô	-4617
▁ngõ	-4618
▁ngả	-4619
▁ngỡ	-4620
▁nhì	-4621
▁nhí	-4622
▁nhỡ	-4623
▁nhủ	-4624
▁non	-4625
▁não	-4626
▁ném	-4627
▁năn	-4628
▁nản	-4629
▁nấm	-4630
▁nấy	-4631
▁nốt	-4632
▁nồi	-4633
▁phà	-4634
▁phế	-4635
▁phở	-4636
▁rau	-4637
▁răn	-4638
▁rơm	-4639
▁rốt	-4640
▁rỗi	-4641
▁soi	-4642
▁súc	-4643
▁sưu	-4644
▁sắt	-4645
▁sọc	-4646
▁sốc	-4647
▁sợi	-4648
▁sụp	-4649
▁sụt	-4650
▁sữa	-4651
▁tam	-4652
▁thê	-4653
▁thự	-4654
▁tia	-4655
▁trú	-4656
▁trễ	-4657
▁trổ	-4658
▁trừ	-4659
▁trữ	-4660
▁tuệ	-4661
▁tát	-4662
▁tạp	-4663
▁tồi	-4664
▁tột	-4665
▁tụt	-4666
▁tựu	-4667
▁vay	-4668
▁vải	-4669
▁xua	-4670
▁xài	-4671
▁xít	-4672
▁xôi	-4673
▁xắn	-4674
▁đeo	-4675
▁đáy	-4676
▁đói	-4677
▁đùi	-4678
▁đúc	-4679
▁đũa	-4680
▁đạp	-4681
▁đấm	-4682
▁đậm	-4683
▁đậy	-4684
▁đắc	-4685
▁đắm	-4686
▁đắt	-4687
▁đồi	-4688
▁đồn	-4689
▁đứt	-4690
▁ưng	-4691
▁ổng	-4692
▁ửng	-4693
0275,	-4694
1075,	-4695
1375,	-4696
1625,	-4697
1675,	-4698
3575,	-4699
3675,	-4700
4975,	-4701
5175,	-4702
5325,	-4703
5675,	-4704
5775,	-4705
7375,	-4706
7625,	-4707
7675,	-4708
7875,	-4709
7925,	-4710
9825,	-4711
9925,	-4712
chiếc	-4713
chiến	-4714
chuẩn	-4715
giang	-4716
giống	-4717
gương	-4718
hưởng	-4719
ngang	-4720
nghèo	-4721
ngoan	-4722
nguồn	-4723
ngừng	-4724
quanh	-4725
quyền	-4726
thanh	-4727
thung	-4728
thuận	-4729
thắng	-4730
thống	-4731
triều	-4732
triệu	-4733
tránh	-4734
trông	-4735
trạng	-4736
trắng	-4737
tướng	-4738
vướng	-4739
▁0.91	-4740
▁1.07	-4741
▁1.31	-4742
▁1.40	-4743
▁1.46	-4744
▁1.57	-4745
▁1.60	-4746
▁1.65	-4747
▁1.79	-4748
▁2.05	-4749
▁2.09	-4750
▁2.15	-4751
▁2.16	-4752
▁2.30	-4753
▁2.33	-4754
▁2.53	-4755
▁2.57	-4756
▁2.63	-4757
▁2.65	-4758
▁2.69	-4759
▁2.73	-4760
▁2.81	-4761
▁2.85	-4762
▁3.09	-4763
▁4.22	-4764
▁bang	-4765
▁bách	-4766
▁bướm	-4767
▁chui	-4768
▁chày	-4769
▁châm	-4770
▁chôn	-4771
▁chằm	-4772
▁chọc	-4773
▁chốc	-4774
▁chừa	-4775
▁cưng	-4776
▁diều	-4777
▁diệp	-4778
▁diệt	-4779
▁dông	-4780
▁dược	-4781
▁giáp	-4782
▁giãn	-4783
▁giặc	-4784
▁giặt	-4785
▁hiển	-4786
▁hoan	-4787
▁hoại	-4788
▁hằng	-4789
▁kham	-4790
▁khuy	-4791
▁khái	-4792
▁khói	-4793
▁khẩn	-4794
▁kịch	-4795
▁liêm	-4796
▁liếc	-4797
▁liệt	-4798
▁lãng	-4799
▁lình	-4800
▁lõng	-4801
▁lưới	-4802
▁lười	-4803
▁lượn	-4804
▁lệch	-4805
▁lộng	-4806
▁lừng	-4807
▁miên	-4808
▁miêu	-4809
▁miệt	-4810
▁muội	-4811
▁màng	-4812
▁mãnh	-4813
▁mảnh	-4814
▁ngây	-4815
▁ngất	-4816
▁ngần	-4817
▁ngợi	-4818
▁ngụm	-4819
▁ngủi	-4820
▁ngừa	-4821
▁ngửa	-4822
▁ngửi	-4823
▁ngực	-4824
▁nhan	-4825
▁nhòa	-4826
▁nhún	-4827
▁nhăn	-4828
▁nhạy	-4829
▁nhộn	-4830
▁nhờn	-4831
▁ninh	-4832
▁nồng	-4833
▁pháo	-4834
▁phất	-4835
▁phối	-4836
▁phớt	-4837
▁quái	-4838
▁quét	-4839
▁quýt	-4840
▁quại	-4841
▁quạt	-4842
▁quấn	-4843
▁quẩn	-4844
▁rình	-4845
▁rảnh	-4846
▁rỗng	-4847
▁suối	-4848
▁sành	-4849
▁sòng	-4850
▁sườn	-4851
▁sưởi	-4852
▁tang	-4853
▁than	-4854
▁thoa	-4855
▁thon	-4856
▁thơi	-4857
▁thạc	-4858
▁thấm	-4859
▁thắp	-4860
▁thổi	-4861
▁tiếu	-4862
▁tiệm	-4863
▁toan	-4864
▁toái	-4865
▁trau	-4866
▁trùm	-4867
▁trại	-4868
▁tuân	-4869
▁tông	-4870
▁tùng	-4871
▁tống	-4872
▁tụng	-4873
▁vách	-4874
▁váng	-4875
▁vĩnh	-4876
▁xoay	-4877
▁xách	-4878
▁xăng	-4879
▁đảng	-4880
▁đụng	-4881
▁ương	-4882
02625,	-4883
02875,	-4884
04375,	-4885
07625,	-4886
09375,	-4887
10625,	-4888
16875,	-4889
18875,	-4890
19625,	-4891
22875,	-4892
33125,	-4893
35875,	-4894
36625,	-4895
37125,	-4896
38125,	-4897
39375,	-4898
48125,	-4899
50375,	-4900
54875,	-4901
55875,	-4902
58875,	-4903
63125,	-4904
65625,	-4905
68125,	-4906
73125,	-4907
95875,	-4908
98875,	-4909
khoảng	-4910
khoảnh	-4911
nghiêm	-4912
nghiên	-4913
phường	-4914
thoáng	-4915
▁1.575	-4916
▁1.579	-4917
▁1.633	-4918
▁1.653	-4919
▁1.675	-4920
▁1.699	-4921
▁1.737	-4922
▁1.899	-4923
▁1.950	-4924
▁1.96,	-4925
▁1.976	-4926
▁1.979	-4927
▁2.035	-4928
▁2.051	-4929
▁2.054	-4930
▁2.097	-4931
▁2.109	-4932
▁2.117	-4933
▁2.129	-4934
▁2.178	-4935
▁2.197	-4936
▁2.334	-4937
▁2.339	-4938
▁2.377	-4939
▁2.38,	-4940
▁2.44,	-4941
▁2.469	-4942
▁2.519	-4943
▁2.539	-4944
▁2.633	-4945
▁2.66,	-4946
▁2.677	-4947
▁2.68,	-4948
▁2.697	-4949
▁2.777	-4950
▁2.838	-4951
▁2.86,	-4952
▁2.919	-4953
▁2.92,	-4954
▁2.933	-4955
▁2.978	-4956
▁2.979	-4957
▁2.98,	-4958
▁3.038	-4959
▁3.18,	-4960
▁3.24,	-4961
▁3.42,	-4962
▁3.54,	-4963
▁3.58,	-4964
▁3.72,	-4965
▁chinh	-4966
▁chiếm	-4967
▁chuột	-4968
▁chăng	-4969
▁cưỡng	-4970
▁huynh	-4971
▁khinh	-4972
▁khoan	-4973
▁khoăn	-4974
▁khựng	-4975
▁luyến	-4976
▁lường	-4977
▁ngoái	-4978
▁ngoãn	-4979
▁ngẩng	-4980
▁nhang	-4981
▁nhiếp	-4982
▁nhung	-4983
▁phước	-4984
▁phẳng	-4985
▁phịch	-4986
▁quyến	-4987
▁thiêu	-4988
▁thình	-4989
▁thảnh	-4990
▁thỉnh	-4991
▁thủng	-4992
▁triết	-4993
▁triều	-4994
▁trùng	-4995
▁trúng	-4996
▁trăng	-4997
▁trượt	-4998
▁tường	-4999
▁xưởng	-5000
000625,	-5001
183125,	-5002
185625,	-5003
191875,	-5004
225625,	-5005
304375,	-5006
335625,	-5007
340625,	-5008
353125,	-5009
358125,	-5010
384375,	-5011
494375,	-5012
496875,	-5013
508125,	-5014
516875,	-5015
544375,	-5016
545625,	-5017
548125,	-5018
554375,	-5019
558125,	-5020
576875,	-5021
593125,	-5022
596875,	-5023
699375,	-5024
710625,	-5025
751875,	-5026
755625,	-5027
779375,	-5028
915625,	-5029
963125,	-5030
966875,	-5031
976875,	-5032
983125,	-5033
998125,	-5034
▁1.333,	-5035
▁1.536,	-5036
▁1.559,	-5037
▁1.799,	-5038
▁2.041,	-5039
▁2.099,	-5040
▁2.219,	-5041
▁2.281,	-5042
▁2.639,	-5043
▁2.701,	-5044
▁2.802,	-5045
▁2.861,	-5046
▁3.161,	-5047
▁3.181,	-5048
▁3.219,	-5049
▁3.221,	-5050
▁3.262,	-5051
▁3.342,	-5052
▁3.419,	-5053
▁3.541,	-5054
▁3.582,	-5055
▁3.861,	-5056
▁3.901,	-5057
▁4.141,	-5058
▁nghiễm	-5059
▁nghiệt	-5060
▁nghênh	-5061
▁ngượng	-5062
▁nhượng	-5063
▁thuyền	-5064
▁trương	-5065
▁1.4935,	-5066
▁1.5205,	-5067
▁1.6195,	-5068
▁1.8395,	-5069
▁1.8755,	-5070
▁2.1205,	-5071
▁2.1625,	-5072
▁2.3995,	-5073
▁2.6005,	-5074
▁2.6205,	-5075
▁2.9025,	-5076
▁3.3405,	-5077
▁3.3625,	-5078
▁3.4005,	-5079
▁3.6615,	-5080
▁3.9415,	-5081
▁nghiêng	-5082
▁1.34975,	-5083
▁1.37425,	-5084
▁1.50025,	-5085
▁1.66025,	-5086
▁1.71175,	-5087
▁1.80025,	-5088
▁1.94125,	-5089
▁2.07975,	-5090
▁2.10175,	-5091
▁2.17475,	-5092
▁2.28125,	-5093
▁2.29975,	-5094
▁2.30175,	-5095
▁2.35775,	-5096
▁2.53825,	-5097
▁2.64025,	-5098
▁2.64075,	-5099
▁2.70225,	-5100
▁2.73975,	-5101
▁2.76025,	-5102
▁2.82275,	-5103
▁2.98225,	-5104
▁3.04025,	-5105
▁3.04075,	-5106
▁3.10075,	-5107
▁3.16075,	-5108
▁3.22075,	-5109
▁3.26025,	-5110
▁3.32025,	-5111
▁3.40175,	-5112
▁3.48125,	-5113
▁3.56125,	-5114
▁3.58075,	-5115
▁3.64075,	-5116
▁3.70175,	-5117
▁3.82175,	-5118
▁4.20075,	-5119
▁1.355375,	-5120
▁1.375625,	-5121
▁1.440125,	-5122
▁1.460375,	-5123
▁1.521375,	-5124
▁1.532625,	-5125
▁1.541625,	-5126
▁1.599875,	-5127
▁1.620375,	-5128
▁1.635125,	-5129
▁1.695625,	-5130
▁1.855625,	-5131
▁1.901625,	-5132
▁1.921625,	-5133
▁1.957375,	-5134
▁1.981625,	-5135
▁2.141375,	-5136
▁2.181375,	-5137
▁2.196875,	-5138
▁2.220625,	-5139
▁2.258625,	-5140
▁2.262375,	-5141
▁2.302375,	-5142
▁2.318125,	-5143
▁2.322375,	-5144
▁2.359375,	-5145
▁2.401375,	-5146
▁2.479375,	-5147
▁2.479875,	-5148
▁2.500375,	-5149
▁2.500875,	-5150
▁2.522625,	-5151
▁2.560875,	-5152
▁2.561125,	-5153
▁2.620875,	-5154
▁2.662375,	-5155
▁2.680875,	-5156
▁2.682375,	-5157
▁2.700375,	-5158
▁2.755875,	-5159
▁2.782875,	-5160
▁2.798125,	-5161
▁2.820875,	-5162
▁2.900125,	-5163
▁2.980625,	-5164
▁3.042625,	-5165
▁3.062625,	-5166
▁3.080875,	-5167
▁3.081125,	-5168
▁3.100625,	-5169
▁3.101375,	-5170
▁3.139875,	-5171
▁3.160625,	-5172
▁3.181125,	-5173
▁3.201125,	-5174
▁3.282375,	-5175
▁3.341125,	-5176
▁3.341625,	-5177
▁3.342625,	-5178
▁3.361125,	-5179
▁3.361875,	-5180
▁3.382625,	-5181
▁3.400375,	-5182
▁3.402625,	-5183
▁3.420625,	-5184
▁3.422375,	-5185
▁3.440625,	-5186
▁3.441875,	-5187
▁3.442625,	-5188
▁3.480625,	-5189
▁3.481125,	-5190
▁3.481875,	-5191
▁3.501375,	-5192
▁3.501875,	-5193
▁3.522625,	-5194
▁3.542875,	-5195
▁3.560625,	-5196
▁3.562875,	-5197
▁3.581375,	-5198
▁3.641375,	-5199
▁3.661625,	-5200
▁3.680375,	-5201
▁3.721625,	-5202
▁3.741625,	-5203
▁3.802625,	-5204
▁3.941875,	-5205
▁3.961375,	-5206
▁3.961875,	-5207
▁4.021625,	-5208
▁4.261625,	-5209
▁1.4613125,	-5210
▁1.5018125,	-5211
▁1.5195625,	-5212
▁1.5398125,	-5213
▁1.6163125,	-5214
▁1.6219375,	-5215
▁1.6396875,	-5216
▁1.6599375,	-5217
▁1.6605625,	-5218
▁1.7205625,	-5219
▁1.7218125,	-5220
▁1.8150625,	-5221
▁1.8216875,	-5222
▁1.8404375,	-5223
▁1.9203125,	-5224
▁1.9375625,	-5225
▁1.9418125,	-5226
▁1.9763125,	-5227
▁1.9783125,	-5228
▁1.9920625,	-5229
▁2.0013125,	-5230
▁2.0168125,	-5231
▁2.0196875,	-5232
▁2.0376875,	-5233
▁2.0601875,	-5234
▁2.0801875,	-5235
▁2.1211875,	-5236
▁2.1615625,	-5237
▁2.1618125,	-5238
▁2.1803125,	-5239
▁2.1805625,	-5240
▁2.1955625,	-5241
▁2.1971875,	-5242
▁2.2204375,	-5243
▁2.2385625,	-5244
▁2.2403125,	-5245
▁2.2425625,	-5246
▁2.2565625,	-5247
▁2.2616875,	-5248
▁2.2993125,	-5249
▁2.3006875,	-5250
▁2.3394375,	-5251
▁2.3413125,	-5252
▁2.4561875,	-5253
▁2.4698125,	-5254
▁2.5010625,	-5255
▁2.5206875,	-5256
▁2.5399375,	-5257
▁2.5409375,	-5258
▁2.5821875,	-5259
▁2.6618125,	-5260
▁2.6999375,	-5261
▁2.7016875,	-5262
▁2.7205625,	-5263
▁2.7209375,	-5264
▁2.7393125,	-5265
▁2.7623125,	-5266
▁2.7626875,	-5267
▁2.7824375,	-5268
▁2.8001875,	-5269
▁2.8204375,	-5270
▁2.8408125,	-5271
▁2.8409375,	-5272
▁2.8609375,	-5273
▁2.8616875,	-5274
▁2.8823125,	-5275
▁2.9009375,	-5276
▁2.9404375,	-5277
▁2.9789375,	-5278
▁3.0008125,	-5279
▁3.0210625,	-5280
▁3.0389375,	-5281
▁3.0419375,	-5282
▁3.0618125,	-5283
▁3.0825625,	-5284
▁3.1219375,	-5285
▁3.1224375,	-5286
▁3.1226875,	-5287
▁3.1428125,	-5288
▁3.1623125,	-5289
▁3.1828125,	-5290
▁3.2005625,	-5291
▁3.2021875,	-5292
▁3.2025625,	-5293
▁3.2203125,	-5294
▁3.2221875,	-5295
▁3.2226875,	-5296
▁3.2404375,	-5297
▁3.2411875,	-5298
▁3.2423125,	-5299
▁3.2424375,	-5300
▁3.2606875,	-5301
▁3.2611875,	-5302
▁3.2624375,	-5303
▁3.2628125,	-5304
▁3.2804375,	-5305
▁3.3004375,	-5306
▁3.3008125,	-5307
▁3.3010625,	-5308
▁3.3011875,	-5309
▁3.3228125,	-5310
▁3.3609375,	-5311
▁3.3805625,	-5312
▁3.3813125,	-5313
▁3.3815625,	-5314
▁3.4001875,	-5315
▁3.4220625,	-5316
▁3.4604375,	-5317
▁3.4614375,	-5318
▁3.4814375,	-5319
▁3.5009375,	-5320
▁3.5223125,	-5321
▁3.5403125,	-5322
▁3.5418125,	-5323
▁3.5425625,	-5324
▁3.5623125,	-5325
▁3.5816875,	-5326
▁3.6005625,	-5327
▁3.6024375,	-5328
▁3.6216875,	-5329
▁3.6605625,	-5330
▁3.6624375,	-5331
▁3.6628125,	-5332
▁3.7218125,	-5333
▁3.7419375,	-5334
▁3.7618125,	-5335
▁3.7620625,	-5336
▁3.8428125,	-5337
▁3.8606875,	-5338
▁3.8611875,	-5339
▁3.8811875,	-5340
▁3.8815625,	-5341
▁3.9015625,	-5342
▁3.9016875,	-5343
▁3.9019375,	-5344
▁3.9613125,	-5345
▁3.9616875,	-5346
▁3.9619375,	-5347
▁4.0020625,	-5348
▁4.1218125,	-5349
▁4.1406875,	-5350
▁4.1416875,	-5351
▁4.1616875,	-5352
▁4.2214375,	-5353
▁4.2218125,	-5354
▁4.2415625,	-5355
▁4.3226875,	-5356
▁4.4018125,	-5357
mềm	-5358
não	-5359
túy	-5360
đũa	-5361
▁ốp	-5362
▁ủy	-5363
685,	-5364
luận	-5365
soát	-5366
trộm	-5367
xoay	-5368
đoán	-5369
▁0.9	-5370
▁bún	-5371
▁cựu	-5372
▁lòe	-5373
▁lốp	-5374
▁níu	-5375
▁nạp	-5376
▁nộp	-5377
▁ríu	-5378
▁rẫy	-5379
▁rợn	-5380
▁tọa	-5381
▁tợn	-5382
▁vởn	-5383
▁xẻo	-5384
▁đếm	-5385
/801.	-5386
/802.	-5387
/804.	-5388
/806.	-5389
/809.	-5390
0975,	-5391
7025,	-5392
7325,	-5393
khoản	-5394
tuyến	-5395
▁0.97	-5396
▁6.07	-5397
▁6.80	-5398
▁chàm	-5399
ghé	-5400
898,	-5401
▁bùn	-5402
9475,	-5403
trịnh	-5404
▁hửng	-5405
▁lướt	-5406
▁nhẽo	-5407
▁tầng	-5408
▁võng	-5409
▁xuân	-5410
/1207.	-5411
/1401.	-5412
/1402.	-5413
/1403.	-5414
/1404.	-5415
/1407.	-5416
/1408.	-5417
/1602.	-5418
/1604.	-5419
/1605.	-5420
/1608.	-5421
/1609.	-5422
/1805.	-5423
/1807.	-5424
/2202.	-5425
/2203.	-5426
/2204.	-5427
/2206.	-5428
/2403.	-5429
/2404.	-5430
/2405.	-5431
/2407.	-5432
/2409.	-5433
/2604.	-5434
/2605.	-5435
/2607.	-5436
/2801.	-5437
/2806.	-5438
/2809.	-5439
/3201.	-5440
/3206.	-5441
/3208.	-5442
/3405.	-5443
/3406.	-5444
/3409.	-5445
/3500.	-5446
/3601.	-5447
/3602.	-5448
/3603.	-5449
/3604.	-5450
/3605.	-5451
/3607.	-5452
/3801.	-5453
/3803.	-5454
/3805.	-5455
/3806.	-5456
/3808.	-5457
/3809.	-5458
/3997.	-5459
/3998.	-5460
/3999.	-5461
/4000.	-5462
/4003.	-5463
/4008.	-5464
/4010.	-5465
/4011.	-5466
/4012.	-5467
/4013.	-5468
/4014.	-5469
/4015.	-5470
/4016.	-5471
/4019.	-5472
/4020.	-5473
/4022.	-5474
/4023.	-5475
/4025.	-5476
/4028.	-5477
/4029.	-5478
/4203.	-5479
/4211.	-5480
/4212.	-5481
/4213.	-5482
/4216.	-5483
/4217.	-5484
/4218.	-5485
/4219.	-5486
/4222.	-5487
/4223.	-5488
/4224.	-5489
/4226.	-5490
/4227.	-5491
/4390.	-5492
/4393.	-5493
/4396.	-5494
/4399.	-5495
/4401.	-5496
/4405.	-5497
/4406.	-5498
/4408.	-5499
/3213.	-5500
/3216.	-5501
/3217.	-5502
/3220.	-5503
/3221.	-5504
/3225.	-5505
/3226.	-5506
/3227.	-5507
/3390.	-5508
/3392.	-5509
/3393.	-5510
/3394.	-5511
/3395.	-5512
/3396.	-5513
/3397.	-5514
/3398.	-5515
/3412.	-5516
/3415.	-5517
/3416.	-5518
/3418.	-5519
/3421.	-5520
/3422.	-5521
/3423.	-5522
/3424.	-5523
/3425.	-5524
/3426.	-5525
/3427.	-5526
/3429.	-5527
/3430.	-5528
/3431.	-5529
/3433.	-5530
/3437.	-5531
/3438.	-5532
/3439.	-5533
/3452.	-5534
/3455.	-5535
/3456.	-5536
/3457.	-5537
/3463.	-5538
/3464.	-5539
/3465.	-5540
/3469.	-5541
/3470.	-5542
/3472.	-5543
/3473.	-5544
/3477.	-5545
/3478.	-5546
/3479.	-5547
/3480.	-5548
/3485.	-5549
/3486.	-5550
/3488.	-5551
/3489.	-5552
/3490.	-5553
/3495.	-5554
/3497.	-5555
/3590.	-5556
/3591.	-5557
/3592.	-5558
/3595.	-5559
/3597.	-5560
/3610.	-5561
/3611.	-5562
/3615.	-5563
/3616.	-5564
/3619.	-5565
/3620.	-5566
/3621.	-5567
/3623.	-5568
/3625.	-5569
/3626.	-5570
/3627.	-5571
/3790.	-5572
/3796.	-5573
/3797.	-5574
/3798.	-5575
/3811.	-5576
/3812.	-5577
/3813.	-5578
/3814.	-5579
/3815.	-5580
/3816.	-5581
/3819.	-5582
/3822.	-5583
/3825.	-5584
/3829.	-5585
/3990.	-5586
/3992.	-5587
/3994.	-5588
/3996.	-5589
/4409.	-5590
/4410.	-5591
/4411.	-5592
/4412.	-5593
/4413.	-5594
/4414.	-5595
/4416.	-5596
/4417.	-5597
/4418.	-5598
/4419.	-5599
▁6.0	-5600
/2212.	-5601
/2213.	-5602
/2214.	-5603
/2216.	-5604
/2218.	-5605
/2219.	-5606
/2220.	-5607
/2221.	-5608
/2225.	-5609
/2226.	-5610
/2228.	-5611
/2229.	-5612
/2392.	-5613
/2393.	-5614
/2395.	-5615
/2410.	-5616
/2412.	-5617
/2416.	-5618
/2417.	-5619
/2423.	-5620
/2426.	-5621
/2433.	-5622
/2436.	-5623
/2438.	-5624
/2450.	-5625
/2451.	-5626
/2454.	-5627
/2455.	-5628
/2457.	-5629
/2462.	-5630
/2466.	-5631
/2468.	-5632
/2470.	-5633
/2471.	-5634
/2475.	-5635
/2476.	-5636
/2480.	-5637
/2482.	-5638
/2483.	-5639
/2484.	-5640
/2485.	-5641
/2487.	-5642
/2489.	-5643
/2490.	-5644
/2491.	-5645
/2493.	-5646
/2495.	-5647
/2496.	-5648
/2499.	-5649
/2591.	-5650
/2594.	-5651
/2595.	-5652
/2596.	-5653
/2598.	-5654
/2599.	-5655
/2613.	-5656
/2615.	-5657
/2618.	-5658
/2619.	-5659
/2620.	-5660
/2621.	-5661
/2623.	-5662
/2625.	-5663
/2626.	-5664
/2629.	-5665
/2792.	-5666
/2796.	-5667
/2813.	-5668
/2814.	-5669
/2815.	-5670
/2817.	-5671
/2819.	-5672
/2820.	-5673
/2823.	-5674
/2992.	-5675
/2995.	-5676
/2997.	-5677
/3000.	-5678
/3001.	-5679
/3002.	-5680
/3004.	-5681
/3008.	-5682
/3009.	-5683
/3011.	-5684
/3013.	-5685
/3015.	-5686
/3016.	-5687
/3017.	-5688
/3019.	-5689
/3020.	-5690
/3021.	-5691
/3022.	-5692
/3024.	-5693
/3027.	-5694
/3029.	-5695
/4421.	-5696
/4422.	-5697
/4430.	-5698
/4431.	-5699
▁dẫm	-5700
▁hiếp	-5701
/1422.	-5702
/1424.	-5703
/1427.	-5704
/1429.	-5705
/1431.	-5706
/1432.	-5707
/1435.	-5708
/1436.	-5709
/1437.	-5710
/1438.	-5711
/1439.	-5712
/1457.	-5713
/1461.	-5714
/1465.	-5715
/1466.	-5716
/1467.	-5717
/1468.	-5718
/1473.	-5719
/1475.	-5720
/1477.	-5721
/1480.	-5722
/1481.	-5723
/1482.	-5724
/1486.	-5725
/1489.	-5726
/1491.	-5727
/1495.	-5728
/1496.	-5729
/1497.	-5730
/1590.	-5731
/1593.	-5732
/1595.	-5733
/1596.	-5734
/1597.	-5735
/1599.	-5736
/1610.	-5737
/1611.	-5738
/1612.	-5739
/1613.	-5740
/1614.	-5741
/1615.	-5742
/1617.	-5743
/1618.	-5744
/1619.	-5745
/1620.	-5746
/1622.	-5747
/1624.	-5748
/1625.	-5749
/1628.	-5750
/1629.	-5751
/1791.	-5752
/1794.	-5753
/1795.	-5754
/1799.	-5755
/1810.	-5756
/1812.	-5757
/1816.	-5758
/1819.	-5759
/1820.	-5760
/1822.	-5761
/1824.	-5762
/1825.	-5763
/1826.	-5764
/1828.	-5765
/1829.	-5766
/1992.	-5767
/1994.	-5768
/1995.	-5769
/1997.	-5770
/1999.	-5771
/2001.	-5772
/2003.	-5773
/2004.	-5774
/2005.	-5775
/2007.	-5776
/2011.	-5777
/2013.	-5778
/2017.	-5779
/2018.	-5780
/2022.	-5781
/2023.	-5782
/2025.	-5783
/2026.	-5784
/2211.	-5785
/3609.	-5786
/4432.	-5787
/4433.	-5788
/4435.	-5789
/4436.	-5790
/4438.	-5791
/4451.	-5792
/4452.	-5793
/4453.	-5794
/4457.	-5795
/4458.	-5796
/4463.	-5797
/4464.	-5798
/4465.	-5799
hèn	-5800
bỗng	-5801
▁cúm	-5802
▁tím	-5803
/500.	-5804
/811.	-5805
/812.	-5806
/816.	-5807
/817.	-5808
/819.	-5809
/820.	-5810
/825.	-5811
/827.	-5812
/829.	-5813
/991.	-5814
/992.	-5815
/994.	-5816
/995.	-5817
/996.	-5818
/998.	-5819
/999.	-5820
9175,	-5821
/1001.	-5822
/1004.	-5823
/1005.	-5824
/1016.	-5825
/1020.	-5826
/1021.	-5827
/1022.	-5828
/1023.	-5829
/1024.	-5830
/1028.	-5831
/1212.	-5832
/1214.	-5833
/1215.	-5834
/1219.	-5835
/1220.	-5836
/1221.	-5837
/1224.	-5838
/1225.	-5839
/1228.	-5840
/1390.	-5841
/1395.	-5842
/1396.	-5843
/1397.	-5844
/1406.	-5845
/1410.	-5846
/1411.	-5847
/1414.	-5848
/1416.	-5849
/1417.	-5850
/1418.	-5851
/1421.	-5852
/1464.	-5853
/1483.	-5854
/3484.	-5855
/3492.	-5856
/4466.	-5857
/4468.	-5858
/4469.	-5859
/4470.	-5860
/4472.	-5861
/4474.	-5862
/4476.	-5863
/4478.	-5864
/4480.	-5865
/4482.	-5866
/4484.	-5867
/4487.	-5868
/4488.	-5869
/4489.	-5870
/4491.	-5871
/4492.	-5872
/4493.	-5873
/4494.	-5874
/4496.	-5875
/4497.	-5876
/4590.	-5877
/4592.	-5878
/4599.	-5879
/4602.	-5880
/4603.	-5881
/4604.	-5882
/4605.	-5883
/4607.	-5884
/4608.	-5885
/4609.	-5886
/4612.	-5887
/4613.	-5888
/4614.	-5889
/4620.	-5890
/4622.	-5891
/4625.	-5892
/4626.	-5893
/4628.	-5894
/4629.	-5895
/4790.	-5896
/4791.	-5897
/4792.	-5898
/4793.	-5899
690	-5900
mãn	-5901
mũi	-5902
tuệ	-5903
105,	-5904
185,	-5905
khỏa	-5906
▁hớp	-5907
1025,	-5908
9525,	-5909
▁4.96	-5910
▁diễm	-5911
▁hoãn	-5912
▁khỏa	-5913
▁thía	-5914
/1400.	-5915
/1441.	-5916
/1443.	-5917
/1446.	-5918
/1448.	-5919
/1449.	-5920
/1463.	-5921
/1598.	-5922
/1818.	-5923
/2440.	-5924
/2442.	-5925
/2443.	-5926
/2447.	-5927
/3212.	-5928
/3440.	-5929
/3441.	-5930
/3442.	-5931
/3444.	-5932
/3446.	-5933
/3447.	-5934
/3448.	-5935
/3449.	-5936
/3594.	-5937
/3608.	-5938
/4005.	-5939
/4400.	-5940
/4423.	-5941
/4441.	-5942
/4442.	-5943
/4445.	-5944
/4446.	-5945
/4447.	-5946
/4795.	-5947
/4796.	-5948
/4799.	-5949
/4804.	-5950
/4805.	-5951
/4808.	-5952
/4810.	-5953
/4813.	-5954
/4814.	-5955
/4816.	-5956
/4818.	-5957
/4821.	-5958
/4822.	-5959
/4824.	-5960
/4825.	-5961
/4826.	-5962
/4827.	-5963
/4828.	-5964
/4990.	-5965
/4992.	-5966
/4993.	-5967
/4996.	-5968
/5000.	-5969
/5001.	-5970
/5002.	-5971
/5006.	-5972
/5007.	-5973
/5010.	-5974
/5011.	-5975
/5012.	-5976
/5013.	-5977
/5014.	-5978
/5017.	-5979
/5018.	-5980
/5020.	-5981
/5021.	-5982
/5024.	-5983
/5026.	-5984
/5027.	-5985
/5029.	-5986
/5201.	-5987
/5204.	-5988
/5205.	-5989
/5214.	-5990
/5217.	-5991
/5220.	-5992
/5221.	-5993
/5223.	-5994
/5225.	-5995
/5226.	-5996
/5229.	-5997
/5391.	-5998
/5392.	-5999
tèo	-6000
▁nẻo	-6001
▁túy	-6002
/990.	-6003
3475,	-6004
5575,	-6005
thoải	-6006
▁bênh	-6007
▁chèo	-6008
▁ngòi	-6009
▁thòi	-6010
▁trèo	-6011
/1391.	-6012
/1823.	-6013
/2406.	-6014
/2419.	-6015
/2497.	-6016
/3807.	-6017
/4018.	-6018
/5390.	-6019
/5394.	-6020
/5397.	-6021
/5399.	-6022
/5400.	-6023
/5402.	-6024
/5403.	-6025
/5404.	-6026
/5405.	-6027
/5406.	-6028
/5407.	-6029
/5408.	-6030
/5410.	-6031
/5411.	-6032
/5416.	-6033
/5417.	-6034
/5418.	-6035
/5419.	-6036
/5422.	-6037
/5424.	-6038
/5428.	-6039
/5431.	-6040
/5435.	-6041
/5436.	-6042
/5437.	-6043
/5438.	-6044
/5443.	-6045
/5444.	-6046
/5446.	-6047
/5450.	-6048
/5451.	-6049
/5455.	-6050
/5457.	-6051
/5458.	-6052
/5461.	-6053
/5462.	-6054
/5463.	-6055
/5464.	-6056
/5465.	-6057
/5467.	-6058
/5468.	-6059
/5470.	-6060
/5472.	-6061
/5475.	-6062
/5478.	-6063
/5481.	-6064
/5485.	-6065
/5486.	-6066
/5488.	-6067
/5492.	-6068
/5493.	-6069
/5494.	-6070
/5496.	-6071
/5497.	-6072
/5498.	-6073
/5499.	-6074
/5592.	-6075
/5593.	-6076
/5594.	-6077
/5598.	-6078
/5599.	-6079
/5603.	-6080
/5604.	-6081
/5607.	-6082
/5608.	-6083
/5609.	-6084
/5611.	-6085
/5615.	-6086
/5616.	-6087
/5617.	-6088
/5619.	-6089
/5620.	-6090
/5621.	-6091
/5628.	-6092
/5629.	-6093
/5791.	-6094
/5794.	-6095
/5796.	-6096
/5797.	-6097
/5799.	-6098
/5803.	-6099
dặn	-6100
305,	-6101
▁5.0	-6102
▁5.2	-6103
▁5.7	-6104
▁bùi	-6105
▁cợt	-6106
▁sộp	-6107
▁vùi	-6108
3025,	-6109
tuyền	-6110
▁chặn	-6111
/1027.	-6112
/1217.	-6113
/1450.	-6114
/1462.	-6115
/1500.	-6116
/1809.	-6117
/2002.	-6118
/2394.	-6119
/3203.	-6120
/3483.	-6121
/4392.	-6122
/4424.	-6123
/5212.	-6124
/5441.	-6125
/5484.	-6126
/5804.	-6127
/5805.	-6128
/5807.	-6129
/5810.	-6130
/5811.	-6131
/5813.	-6132
/5818.	-6133
/5819.	-6134
/5821.	-6135
/5822.	-6136
/5824.	-6137
/5826.	-6138
/5829.	-6139
/5990.	-6140
/5991.	-6141
/5993.	-6142
/5995.	-6143
/5996.	-6144
/5997.	-6145
/6002.	-6146
/6003.	-6147
/6006.	-6148
/6010.	-6149
/6014.	-6150
/6015.	-6151
/6017.	-6152
/6018.	-6153
/6020.	-6154
/6022.	-6155
/6025.	-6156
/6027.	-6157
/6029.	-6158
/6201.	-6159
/6202.	-6160
/6204.	-6161
/6205.	-6162
/6206.	-6163
/6207.	-6164
/6208.	-6165
/6209.	-6166
/6210.	-6167
/6212.	-6168
/6214.	-6169
/6215.	-6170
/6217.	-6171
/6220.	-6172
/6224.	-6173
/6228.	-6174
/6229.	-6175
/6390.	-6176
/6392.	-6177
/6394.	-6178
/6395.	-6179
/6396.	-6180
/6397.	-6181
/6399.	-6182
/6402.	-6183
/6407.	-6184
/6409.	-6185
/6410.	-6186
/6412.	-6187
/6413.	-6188
/6415.	-6189
/6416.	-6190
/6418.	-6191
/6420.	-6192
/6421.	-6193
/6422.	-6194
/6423.	-6195
/6424.	-6196
/6427.	-6197
/6431.	-6198
/6432.	-6199
bra	-6200
kịp	-6201
sót	-6202
braz	-6203
mỏng	-6204
nhói	-6205
nhịp	-6206
▁cưu	-6207
▁gót	-6208
▁run	-6209
▁sói	-6210
▁đọt	-6211
3725,	-6212
brazi	-6213
▁1.25	-6214
▁1.29	-6215
▁4.51	-6216
▁chót	-6217
▁ngót	-6218
▁nhói	-6219
▁trói	-6220
▁trót	-6221
/1827.	-6222
/2390.	-6223
/2616.	-6224
/2824.	-6225
/3432.	-6226
/4462.	-6227
/4471.	-6228
/4499.	-6229
/4615.	-6230
/4623.	-6231
/5440.	-6232
/6004.	-6233
/6438.	-6234
/6439.	-6235
/6441.	-6236
/6442.	-6237
/6443.	-6238
/6446.	-6239
/6447.	-6240
/6450.	-6241
/6451.	-6242
/6452.	-6243
/6453.	-6244
/6454.	-6245
/6455.	-6246
/6456.	-6247
/6458.	-6248
/6459.	-6249
/6460.	-6250
/6461.	-6251
/6462.	-6252
/6463.	-6253
/6466.	-6254
/6467.	-6255
/6468.	-6256
/6469.	-6257
/6470.	-6258
/6472.	-6259
/6473.	-6260
/6474.	-6261
/6475.	-6262
/6476.	-6263
/6477.	-6264
/6478.	-6265
/6479.	-6266
/6480.	-6267
/6481.	-6268
/6482.	-6269
/6485.	-6270
/6487.	-6271
/6489.	-6272
/6491.	-6273
/6492.	-6274
/6497.	-6275
/6591.	-6276
/6595.	-6277
/6597.	-6278
/6598.	-6279
/6601.	-6280
/6602.	-6281
/6603.	-6282
/6605.	-6283
/6609.	-6284
/6610.	-6285
/6611.	-6286
/6612.	-6287
/6615.	-6288
/6616.	-6289
/6619.	-6290
/6622.	-6291
/6623.	-6292
/6624.	-6293
/6628.	-6294
/6629.	-6295
/6790.	-6296
/6791.	-6297
/6798.	-6298
/6802.	-6299
dựa	-6300
385,	-6301
chùa	-6302
khẩy	-6303
▁bùa	-6304
▁gớm	-6305
▁lùa	-6306
▁lạp	-6307
▁nép	-6308
▁rẩy	-6309
▁tép	-6310
▁van	-6311
▁4.03	-6312
▁cuốc	-6313
▁khuế	-6314
▁thép	-6315
▁vuốt	-6316
▁đuốc	-6317
/1413.	-6318
/1458.	-6319
/1621.	-6320
/2424.	-6321
/2624.	-6322
/2993.	-6323
/3006.	-6324
/5433.	-6325
/5601.	-6326
/6804.	-6327
/6805.	-6328
/6808.	-6329
/6814.	-6330
/6815.	-6331
/6817.	-6332
/6820.	-6333
/6822.	-6334
/6823.	-6335
/6825.	-6336
/6826.	-6337
/6827.	-6338
/6828.	-6339
/6829.	-6340
/6991.	-6341
/6992.	-6342
/6993.	-6343
/6995.	-6344
/6997.	-6345
/7002.	-6346
/7004.	-6347
/7008.	-6348
/7009.	-6349
/7012.	-6350
/7013.	-6351
/7015.	-6352
/7016.	-6353
/7017.	-6354
/7018.	-6355
/7022.	-6356
/7023.	-6357
/7025.	-6358
/7026.	-6359
/7201.	-6360
/7202.	-6361
/7205.	-6362
/7206.	-6363
/7208.	-6364
/7210.	-6365
/7211.	-6366
/7214.	-6367
/7216.	-6368
/7217.	-6369
/7220.	-6370
/7221.	-6371
/7222.	-6372
/7223.	-6373
/7225.	-6374
/7226.	-6375
/7227.	-6376
/7228.	-6377
/7229.	-6378
/7391.	-6379
/7392.	-6380
/7393.	-6381
/7395.	-6382
/7402.	-6383
/7404.	-6384
/7406.	-6385
/7407.	-6386
/7408.	-6387
/7411.	-6388
/7412.	-6389
/7414.	-6390
/7417.	-6391
/7420.	-6392
/7423.	-6393
/7424.	-6394
/7426.	-6395
/7430.	-6396
/7431.	-6397
/7433.	-6398
/7435.	-6399
nuôi	-6400
quệt	-6401
▁ghê	-6402
▁vỏn	-6403
/928.	-6404
▁cõng	-6405
▁nhẹn	-6406
/1329.	-6407
/1419.	-6408
/1426.	-6409
/1528.	-6410
/1529.	-6411
/1727.	-6412
/1729.	-6413
/1927.	-6414
/1929.	-6415
/2128.	-6416
/2441.	-6417
/2527.	-6418
/2528.	-6419
/2529.	-6420
/2727.	-6421
/2729.	-6422
/2829.	-6423
/2927.	-6424
/2929.	-6425
/3127.	-6426
/3128.	-6427
/3129.	-6428
/3727.	-6429
/3728.	-6430
/4128.	-6431
/4395.	-6432
/4528.	-6433
/4529.	-6434
/4727.	-6435
/4728.	-6436
/4729.	-6437
/4928.	-6438
/4929.	-6439
/5128.	-6440
/5219.	-6441
/5224.	-6442
/5495.	-6443
/5727.	-6444
/5728.	-6445
/5927.	-6446
/5928.	-6447
/6005.	-6448
/6328.	-6449
/6329.	-6450
/6527.	-6451
/6528.	-6452
/6727.	-6453
/6729.	-6454
/6929.	-6455
/7326.	-6456
/7327.	-6457
/7329.	-6458
/7436.	-6459
/7437.	-6460
/7438.	-6461
/7439.	-6462
/7441.	-6463
/7444.	-6464
/7445.	-6465
/7446.	-6466
/7447.	-6467
/7449.	-6468
/7450.	-6469
/7451.	-6470
/7452.	-6471
/7453.	-6472
/7457.	-6473
/7459.	-6474
/7462.	-6475
/7463.	-6476
/7465.	-6477
/7466.	-6478
/7467.	-6479
/7468.	-6480
/7471.	-6481
/7472.	-6482
/7473.	-6483
/7476.	-6484
/7477.	-6485
/7478.	-6486
/7479.	-6487
/7482.	-6488
/7483.	-6489
/7484.	-6490
/7486.	-6491
/7487.	-6492
/7488.	-6493
/7490.	-6494
/7492.	-6495
/7495.	-6496
/7497.	-6497
/7498.	-6498
/7499.	-6499
/925.	-6500
/1122.	-6501
/1123.	-6502
/1124.	-6503
/1125.	-6504
/1126.	-6505
/1201.	-6506
/1323.	-6507
/1324.	-6508
/1325.	-6509
/1326.	-6510
/1522.	-6511
/1524.	-6512
/1723.	-6513
/1725.	-6514
/1924.	-6515
/1926.	-6516
/2125.	-6517
/2126.	-6518
/2322.	-6519
/2323.	-6520
/2324.	-6521
/2325.	-6522
/2326.	-6523
/2524.	-6524
/2526.	-6525
/2612.	-6526
/2923.	-6527
/2926.	-6528
/3122.	-6529
/3123.	-6530
/3124.	-6531
/3125.	-6532
/3126.	-6533
/3211.	-6534
/3326.	-6535
/3524.	-6536
/3725.	-6537
/3922.	-6538
/3924.	-6539
/3925.	-6540
/4122.	-6541
/4124.	-6542
/4125.	-6543
/4323.	-6544
/4324.	-6545
/4325.	-6546
/4326.	-6547
/4522.	-6548
/4523.	-6549
/4524.	-6550
/4525.	-6551
/4526.	-6552
/4722.	-6553
/4723.	-6554
/4724.	-6555
/4726.	-6556
/4921.	-6557
/4922.	-6558
/4924.	-6559
/4925.	-6560
/4926.	-6561
/5122.	-6562
/5125.	-6563
/5325.	-6564
/5425.	-6565
/5522.	-6566
/5523.	-6567
/5524.	-6568
/5525.	-6569
/5723.	-6570
/5725.	-6571
/5726.	-6572
/5922.	-6573
/5925.	-6574
/6012.	-6575
/6122.	-6576
/6123.	-6577
/6124.	-6578
/6323.	-6579
/6325.	-6580
/6404.	-6581
/6522.	-6582
/6523.	-6583
/6525.	-6584
/6722.	-6585
/6726.	-6586
/6792.	-6587
/6923.	-6588
/6924.	-6589
/6925.	-6590
/7121.	-6591
/7122.	-6592
/7124.	-6593
/7321.	-6594
10875,	-6595
16625,	-6596
27625,	-6597
31125,	-6598
33375,	-6599
/916.	-6600
/918.	-6601
/1116.	-6602
/1119.	-6603
/1121.	-6604
/1318.	-6605
/1320.	-6606
/1321.	-6607
/1517.	-6608
/1518.	-6609
/1519.	-6610
/1603.	-6611
/1717.	-6612
/1718.	-6613
/1721.	-6614
/1917.	-6615
/1920.	-6616
/1921.	-6617
/2116.	-6618
/2118.	-6619
/2120.	-6620
/2121.	-6621
/2123.	-6622
/2201.	-6623
/2318.	-6624
/2518.	-6625
/2519.	-6626
/2716.	-6627
/2718.	-6628
/2719.	-6629
/2720.	-6630
/2916.	-6631
/2919.	-6632
/2920.	-6633
/2921.	-6634
/3116.	-6635
/3117.	-6636
/3204.	-6637
/3317.	-6638
/3319.	-6639
/3518.	-6640
/3718.	-6641
/3719.	-6642
/3720.	-6643
/3721.	-6644
/3917.	-6645
/3918.	-6646
/3921.	-6647
/4117.	-6648
/4118.	-6649
/4119.	-6650
/4121.	-6651
/4317.	-6652
/4319.	-6653
/4426.	-6654
/4517.	-6655
/4520.	-6656
/4716.	-6657
/4719.	-6658
/4720.	-6659
/4721.	-6660
/4919.	-6661
/4920.	-6662
/5116.	-6663
/5120.	-6664
/5316.	-6665
/5320.	-6666
/5516.	-6667
/5520.	-6668
/5719.	-6669
/5720.	-6670
/5920.	-6671
/6117.	-6672
/6119.	-6673
/6120.	-6674
/6318.	-6675
/6320.	-6676
/6517.	-6677
/6625.	-6678
/6717.	-6679
/6718.	-6680
/7116.	-6681
/7117.	-6682
/7118.	-6683
/7120.	-6684
/7317.	-6685
/7318.	-6686
/7319.	-6687
/7320.	-6688
10375,	-6689
38875,	-6690
52375,	-6691
53875,	-6692
56375,	-6693
66375,	-6694
71375,	-6695
74875,	-6696
76625,	-6697
77125,	-6698
77875,	-6699
/911.	-6700
/1112.	-6701
/1113.	-6702
/1114.	-6703
/1115.	-6704
/1311.	-6705
/1313.	-6706
/1511.	-6707
/1512.	-6708
/1711.	-6709
/1713.	-6710
/1714.	-6711
/1911.	-6712
/1913.	-6713
/1914.	-6714
/2114.	-6715
/2115.	-6716
/2311.	-6717
/2312.	-6718
/2313.	-6719
/2512.	-6720
/2514.	-6721
/2515.	-6722
/2711.	-6723
/2713.	-6724
/2714.	-6725
/2715.	-6726
/2913.	-6727
/2914.	-6728
/3023.	-6729
/3113.	-6730
/3114.	-6731
/3315.	-6732
/3493.	-6733
/3511.	-6734
/3512.	-6735
/3515.	-6736
/3713.	-6737
/4112.	-6738
/4113.	-6739
/4114.	-6740
/4312.	-6741
/4313.	-6742
/4394.	-6743
/4407.	-6744
/4454.	-6745
/4515.	-6746
/4711.	-6747
/4712.	-6748
/4713.	-6749
/4714.	-6750
/4911.	-6751
/4913.	-6752
/4914.	-6753
/4915.	-6754
/4917.	-6755
/5111.	-6756
/5112.	-6757
/5311.	-6758
/5312.	-6759
/5313.	-6760
/5511.	-6761
/5512.	-6762
/5515.	-6763
/5712.	-6764
/5714.	-6765
/5913.	-6766
/5914.	-6767
/6111.	-6768
/6113.	-6769
/6114.	-6770
/6115.	-6771
/6313.	-6772
/6315.	-6773
/6316.	-6774
/6511.	-6775
/6512.	-6776
/6513.	-6777
/6514.	-6778
/6515.	-6779
/6713.	-6780
/6714.	-6781
/6715.	-6782
/6911.	-6783
/6912.	-6784
/6914.	-6785
/7111.	-6786
/7112.	-6787
/7115.	-6788
/7311.	-6789
/7312.	-6790
/7313.	-6791
/7314.	-6792
78875,	-6793
88625,	-6794
89875,	-6795
97125,	-6796
brazil	-6797
chuông	-6798
thuyết	-6799
▁cằn	-6800
/906.	-6801
/908.	-6802
9325,	-6803
/1107.	-6804
/1109.	-6805
/1128.	-6806
/1307.	-6807
/1308.	-6808
/1310.	-6809
/1487.	-6810
/1498.	-6811
/1507.	-6812
/1510.	-6813
/1707.	-6814
/1708.	-6815
/1710.	-6816
/1907.	-6817
/1909.	-6818
/1910.	-6819
/1919.	-6820
/2109.	-6821
/2110.	-6822
/2307.	-6823
/2309.	-6824
/2507.	-6825
/2508.	-6826
/2509.	-6827
/2523.	-6828
/2707.	-6829
/2710.	-6830
/2717.	-6831
/2907.	-6832
/3106.	-6833
/3110.	-6834
/3306.	-6835
/3307.	-6836
/3471.	-6837
/3508.	-6838
/3509.	-6839
/3510.	-6840
/3707.	-6841
/3708.	-6842
/3709.	-6843
/3799.	-6844
/3906.	-6845
/3907.	-6846
/3908.	-6847
/3910.	-6848
/4107.	-6849
/4110.	-6850
/4306.	-6851
/4307.	-6852
/4308.	-6853
/4506.	-6854
/4507.	-6855
/4707.	-6856
/4708.	-6857
/4906.	-6858
/4908.	-6859
/5106.	-6860
/5107.	-6861
/5108.	-6862
/5307.	-6863
/5308.	-6864
/5310.	-6865
/5322.	-6866
/5506.	-6867
/5507.	-6868
/5508.	-6869
/5510.	-6870
/5706.	-6871
/5707.	-6872
/5907.	-6873
/5908.	-6874
/5909.	-6875
/6021.	-6876
/6106.	-6877
/6108.	-6878
/6112.	-6879
/6309.	-6880
/6310.	-6881
/6312.	-6882
/6507.	-6883
/6508.	-6884
/6509.	-6885
/6516.	-6886
/6706.	-6887
/6707.	-6888
/6708.	-6889
/6709.	-6890
/6710.	-6891
/7109.	-6892
/7308.	-6893
/7309.	-6894
/7310.	-6895
▁0.949	-6896
▁1.129	-6897
▁1.146	-6898
▁1.155	-6899
/822.	-6900
/902.	-6901
/904.	-6902
/905.	-6903
/997.	-6904
/1103.	-6905
/1104.	-6906
/1106.	-6907
/1302.	-6908
/1303.	-6909
/1305.	-6910
/1503.	-6911
/1506.	-6912
/1702.	-6913
/1703.	-6914
/1704.	-6915
/1706.	-6916
/1720.	-6917
/1903.	-6918
/1905.	-6919
/2102.	-6920
/2103.	-6921
/2105.	-6922
/2303.	-6923
/2304.	-6924
/2421.	-6925
/2444.	-6926
/2502.	-6927
/2503.	-6928
/2504.	-6929
/2506.	-6930
/2525.	-6931
/2703.	-6932
/2802.	-6933
/2904.	-6934
/2905.	-6935
/2906.	-6936
/3104.	-6937
/3210.	-6938
/3222.	-6939
/3302.	-6940
/3303.	-6941
/3502.	-6942
/3702.	-6943
/3703.	-6944
/3704.	-6945
/3705.	-6946
/3905.	-6947
/4009.	-6948
/4102.	-6949
/4103.	-6950
/4104.	-6951
/4303.	-6952
/4305.	-6953
/4503.	-6954
/4518.	-6955
/4704.	-6956
/4705.	-6957
/4905.	-6958
/5103.	-6959
/5104.	-6960
/5105.	-6961
/5304.	-6962
/5305.	-6963
/5447.	-6964
/5502.	-6965
/5503.	-6966
/5504.	-6967
/5505.	-6968
/5618.	-6969
/5703.	-6970
/5704.	-6971
/5705.	-6972
/5812.	-6973
/5904.	-6974
/5905.	-6975
/6103.	-6976
/6104.	-6977
/6105.	-6978
/6109.	-6979
/6302.	-6980
/6305.	-6981
/6502.	-6982
/6703.	-6983
/6704.	-6984
/6705.	-6985
/6902.	-6986
/6903.	-6987
/6904.	-6988
/6905.	-6989
/7102.	-6990
/7104.	-6991
/7105.	-6992
/7301.	-6993
/7302.	-6994
/7304.	-6995
▁1.255	-6996
▁1.293	-6997
▁1.307	-6998
▁1.327	-6999
léo	-7000
máy	-7001
tốn	-7002
véo	-7003
bưng	-7004
▁dĩa	-7005
▁gáy	-7006
▁léo	-7007
▁méo	-7008
/899.	-7009
/923.	-7010
ngưng	-7011
▁1.35	-7012
▁chéo	-7013
▁chốn	-7014
▁ngáy	-7015
▁nhốn	-7016
▁sưng	-7017
/1111.	-7018
/1199.	-7019
/1203.	-7020
/1299.	-7021
/1444.	-7022
/1451.	-7023
/1501.	-7024
/2199.	-7025
/2301.	-7026
/2418.	-7027
/2459.	-7028
/2701.	-7029
/2901.	-7030
/3099.	-7031
/3407.	-7032
/3420.	-7033
/3501.	-7034
/3520.	-7035
/3901.	-7036
/3919.	-7037
/3920.	-7038
/4198.	-7039
/4301.	-7040
/4398.	-7041
/4501.	-7042
/4597.	-7043
/4698.	-7044
/4701.	-7045
/4898.	-7046
/4899.	-7047
/4901.	-7048
/4907.	-7049
/5098.	-7050
/5099.	-7051
/5101.	-7052
/5198.	-7053
/5207.	-7054
/5298.	-7055
/5301.	-7056
/5448.	-7057
/5453.	-7058
/5456.	-7059
/5605.	-7060
/5627.	-7061
/5698.	-7062
/5898.	-7063
/5899.	-7064
/5901.	-7065
/6098.	-7066
/6099.	-7067
/6199.	-7068
/6299.	-7069
/6433.	-7070
/6436.	-7071
/6486.	-7072
/6699.	-7073
/6901.	-7074
/7098.	-7075
/7199.	-7076
/7298.	-7077
/7299.	-7078
/7481.	-7079
▁1.35,	-7080
▁1.39,	-7081
▁1.447	-7082
▁1.470	-7083
▁1.577	-7084
▁1.596	-7085
▁1.615	-7086
▁1.676	-7087
▁1.677	-7088
▁1.688	-7089
▁1.689	-7090
▁1.753	-7091
▁1.757	-7092
▁1.758	-7093
▁1.837	-7094
▁1.917	-7095
▁1.990	-7096
▁1.995	-7097
▁1.997	-7098
▁2.030	-7099
/794.	-7100
/795.	-7101
/897.	-7102
/1095.	-7103
/1097.	-7104
/1195.	-7105
/1206.	-7106
/1297.	-7107
/1695.	-7108
/1696.	-7109
/1697.	-7110
/1698.	-7111
/1896.	-7112
/2095.	-7113
/2096.	-7114
/2195.	-7115
/2197.	-7116
/2198.	-7117
/2295.	-7118
/2296.	-7119
/2297.	-7120
/2298.	-7121
/2696.	-7122
/2698.	-7123
/2712.	-7124
/2895.	-7125
/2896.	-7126
/2897.	-7127
/2898.	-7128
/3095.	-7129
/3096.	-7130
/3097.	-7131
/3098.	-7132
/3196.	-7133
/3295.	-7134
/3297.	-7135
/3695.	-7136
/3696.	-7137
/3698.	-7138
/3895.	-7139
/3897.	-7140
/4095.	-7141
/4096.	-7142
/4097.	-7143
/4099.	-7144
/4197.	-7145
/4295.	-7146
/4297.	-7147
/4696.	-7148
/4896.	-7149
/5095.	-7150
/5097.	-7151
/5194.	-7152
/5195.	-7153
/5196.	-7154
/5197.	-7155
/5294.	-7156
/5296.	-7157
/5297.	-7158
/5622.	-7159
/5696.	-7160
/5697.	-7161
/5894.	-7162
/6095.	-7163
/6096.	-7164
/6126.	-7165
/6194.	-7166
/6195.	-7167
/6196.	-7168
/6197.	-7169
/6294.	-7170
/6295.	-7171
/6296.	-7172
/6297.	-7173
/6307.	-7174
/6326.	-7175
/6505.	-7176
/6627.	-7177
/6694.	-7178
/6696.	-7179
/6697.	-7180
/6896.	-7181
/7094.	-7182
/7095.	-7183
/7194.	-7184
/7195.	-7185
/7196.	-7186
/7294.	-7187
/7295.	-7188
/7296.	-7189
30375,	-7190
▁1.551	-7191
▁2.053	-7192
▁2.076	-7193
▁2.094	-7194
▁2.110	-7195
▁2.118	-7196
▁2.134	-7197
▁2.157	-7198
▁2.169	-7199
▁đẹn	-7200
/792.	-7201
/793.	-7202
/890.	-7203
/892.	-7204
/893.	-7205
/1091.	-7206
/1193.	-7207
/1290.	-7208
/1292.	-7209
/1294.	-7210
/1690.	-7211
/1693.	-7212
/1892.	-7213
/1893.	-7214
/1894.	-7215
/2090.	-7216
/2092.	-7217
/2093.	-7218
/2094.	-7219
/2190.	-7220
/2193.	-7221
/2194.	-7222
/2290.	-7223
/2291.	-7224
/2294.	-7225
/2477.	-7226
/2691.	-7227
/2694.	-7228
/2890.	-7229
/2891.	-7230
/2893.	-7231
/2894.	-7232
/3014.	-7233
/3093.	-7234
/3094.	-7235
/3190.	-7236
/3194.	-7237
/3198.	-7238
/3290.	-7239
/3291.	-7240
/3527.	-7241
/3691.	-7242
/3692.	-7243
/3693.	-7244
/3891.	-7245
/3892.	-7246
/3893.	-7247
/3894.	-7248
/4090.	-7249
/4092.	-7250
/4093.	-7251
/4190.	-7252
/4192.	-7253
/4291.	-7254
/4292.	-7255
/4293.	-7256
/4691.	-7257
/4692.	-7258
/4693.	-7259
/4694.	-7260
/4894.	-7261
/5090.	-7262
/5091.	-7263
/5092.	-7264
/5093.	-7265
/5094.	-7266
/5192.	-7267
/5290.	-7268
/5291.	-7269
/5292.	-7270
/5293.	-7271
/5429.	-7272
/5690.	-7273
/5691.	-7274
/5890.	-7275
/6091.	-7276
/6093.	-7277
/6190.	-7278
/6290.	-7279
/6291.	-7280
/6440.	-7281
/6690.	-7282
/6691.	-7283
/6803.	-7284
/6890.	-7285
/6893.	-7286
/7091.	-7287
/7092.	-7288
/7093.	-7289
/7290.	-7290
/7293.	-7291
/7427.	-7292
▁2.194	-7293
▁2.269	-7294
▁2.317	-7295
▁2.350	-7296
▁2.378	-7297
▁2.395	-7298
▁2.397	-7299
bóc	-7300
bếp	-7301
tít	-7302
tạm	-7303
chụp	-7304
dạng	-7305
mạng	-7306
nhét	-7307
thít	-7308
▁cắp	-7309
▁hóc	-7310
▁hạm	-7311
▁kẹp	-7312
▁lét	-7313
▁mét	-7314
▁roi	-7315
▁rét	-7316
▁rít	-7317
▁róc	-7318
▁vạm	-7319
▁đét	-7320
/891.	-7321
/907.	-7322
▁cạch	-7323
▁dâng	-7324
▁miếu	-7325
▁mạch	-7326
▁ngoi	-7327
▁nhóc	-7328
▁quằn	-7329
▁trẻo	-7330
▁điếu	-7331
/1090.	-7332
/1209.	-7333
/1296.	-7334
/1798.	-7335
/2437.	-7336
/2622.	-7337
/2805.	-7338
/2915.	-7339
/3102.	-7340
/3229.	-7341
/3417.	-7342
/3503.	-7343
/3717.	-7344
/3927.	-7345
/4221.	-7346
/4455.	-7347
/4508.	-7348
/4904.	-7349
/5121.	-7350
/5487.	-7351
/5517.	-7352
/6807.	-7353
/6818.	-7354
/6898.	-7355
/6994.	-7356
/7019.	-7357
/7419.	-7358
56125,	-7359
▁1.536	-7360
▁2.435	-7361
▁2.510	-7362
▁2.515	-7363
▁2.533	-7364
▁2.568	-7365
▁2.578	-7366
▁2.655	-7367
▁2.656	-7368
▁2.694	-7369
▁2.733	-7370
▁2.751	-7371
▁2.768	-7372
▁2.809	-7373
▁2.951	-7374
▁2.990	-7375
▁3.013	-7376
▁3.034	-7377
▁3.056	-7378
▁3.058	-7379
▁3.078	-7380
▁3.156	-7381
▁3.22,	-7382
▁3.316	-7383
▁3.551	-7384
▁3.558	-7385
▁3.575	-7386
▁3.898	-7387
▁4.043	-7388
▁4.06,	-7389
▁4.230	-7390
▁4.24,	-7391
▁4.36,	-7392
▁6.057	-7393
▁chuỗi	-7394
▁chưng	-7395
▁huyệt	-7396
▁khiếp	-7397
▁khuya	-7398
▁khuấy	-7399
bấm	-7400
tấm	-7401
chảy	-7402
chấm	-7403
giảm	-7404
mảng	-7405
nghi	-7406
suối	-7407
sóng	-7408
▁búp	-7409
▁hợi	-7410
▁mảy	-7411
▁nén	-7412
▁súp	-7413
/921.	-7414
phảng	-7415
▁chín	-7416
▁chấm	-7417
▁khép	-7418
▁lảng	-7419
▁ngợp	-7420
▁phím	-7421
▁sảng	-7422
▁tiệp	-7423
/1010.	-7424
/1428.	-7425
/1594.	-7426
/1694.	-7427
/1904.	-7428
/2427.	-7429
/2520.	-7430
/3298.	-7431
/3453.	-7432
/3522.	-7433
/3909.	-7434
/4024.	-7435
/4304.	-7436
/4610.	-7437
/4624.	-7438
/5028.	-7439
/5119.	-7440
/5314.	-7441
/5595.	-7442
/5602.	-7443
/5729.	-7444
/5823.	-7445
/6809.	-7446
/6819.	-7447
/7213.	-7448
/7448.	-7449
nghiễm	-7450
▁1.533	-7451
▁2.01,	-7452
▁2.455	-7453
▁2.551	-7454
▁3.922	-7455
▁3.96,	-7456
▁khỉnh	-7457
▁nghét	-7458
▁nghẹt	-7459
▁ngoèo	-7460
▁ngoằn	-7461
▁nguôi	-7462
▁nguội	-7463
▁ngóng	-7464
▁phảng	-7465
▁quyển	-7466
▁trịnh	-7467
▁tuyền	-7468
▁vuông	-7469
▁điếng	-7470
078125,	-7471
080625,	-7472
109375,	-7473
189625,	-7474
306875,	-7475
324375,	-7476
339375,	-7477
346875,	-7478
348125,	-7479
363125,	-7480
378125,	-7481
381625,	-7482
383125,	-7483
504375,	-7484
514375,	-7485
531875,	-7486
581625,	-7487
584375,	-7488
656875,	-7489
676875,	-7490
678125,	-7491
679375,	-7492
696875,	-7493
711875,	-7494
714375,	-7495
720625,	-7496
725625,	-7497
753125,	-7498
766875,	-7499
mua	-7500
đua	-7501
bụng	-7502
dụng	-7503
▁mạc	-7504
▁đạc	-7505
/896.	-7506
3075,	-7507
5825,	-7508
khiêm	-7509
▁đoan	-7510
/1039.	-7511
/1239.	-7512
/1639.	-7513
/1739.	-7514
/1817.	-7515
/1891.	-7516
/1939.	-7517
/2139.	-7518
/2239.	-7519
/2539.	-7520
/2639.	-7521
/2939.	-7522
/3139.	-7523
/3218.	-7524
/3239.	-7525
/3339.	-7526
/3639.	-7527
/3697.	-7528
/3791.	-7529
/3810.	-7530
/3823.	-7531
/3839.	-7532
/4039.	-7533
/4139.	-7534
/4239.	-7535
/4339.	-7536
/4739.	-7537
/4839.	-7538
/5039.	-7539
/5139.	-7540
/5339.	-7541
/5912.	-7542
/6039.	-7543
/6227.	-7544
/6238.	-7545
/6239.	-7546
/6339.	-7547
/6539.	-7548
/6639.	-7549
/6712.	-7550
/6739.	-7551
/6839.	-7552
/6916.	-7553
/6938.	-7554
/6939.	-7555
/7024.	-7556
/7038.	-7557
/7138.	-7558
/7139.	-7559
/7238.	-7560
/7239.	-7561
/7338.	-7562
/7339.	-7563
nguyễn	-7564
trượng	-7565
▁3.78,	-7566
▁3.84,	-7567
▁4.14,	-7568
▁dượng	-7569
▁gượng	-7570
769375,	-7571
774375,	-7572
781875,	-7573
822875,	-7574
870625,	-7575
899375,	-7576
905625,	-7577
906875,	-7578
960625,	-7579
961875,	-7580
979375,	-7581
981875,	-7582
▁1.072,	-7583
▁1.311,	-7584
▁1.319,	-7585
▁1.407,	-7586
▁1.413,	-7587
▁1.454,	-7588
▁1.494,	-7589
▁1.576,	-7590
▁1.599,	-7591
▁1.601,	-7592
▁1.611,	-7593
▁1.618,	-7594
▁1.619,	-7595
▁1.795,	-7596
▁1.876,	-7597
▁1.919,	-7598
▁2.079,	-7599
▁ghé	-7600
/836.	-7601
/837.	-7602
/936.	-7603
▁lênh	-7604
▁nhuệ	-7605
/1137.	-7606
/1138.	-7607
/1237.	-7608
/1238.	-7609
/1508.	-7610
/1538.	-7611
/1607.	-7612
/1738.	-7613
/1838.	-7614
/2010.	-7615
/2037.	-7616
/2038.	-7617
/2137.	-7618
/2337.	-7619
/2338.	-7620
/2638.	-7621
/2737.	-7622
/2738.	-7623
/2937.	-7624
/2938.	-7625
/3038.	-7626
/3137.	-7627
/3138.	-7628
/3337.	-7629
/3637.	-7630
/3638.	-7631
/3737.	-7632
/3738.	-7633
/3837.	-7634
/3838.	-7635
/4138.	-7636
/4238.	-7637
/4337.	-7638
/4338.	-7639
/4538.	-7640
/4637.	-7641
/4638.	-7642
/4736.	-7643
/4738.	-7644
/4836.	-7645
/4837.	-7646
/4838.	-7647
/4937.	-7648
/4938.	-7649
/5038.	-7650
/5136.	-7651
/5137.	-7652
/5236.	-7653
/5237.	-7654
/5327.	-7655
/5337.	-7656
/5338.	-7657
/5536.	-7658
/5636.	-7659
/5637.	-7660
/5736.	-7661
/5836.	-7662
/5837.	-7663
/5838.	-7664
/5903.	-7665
/5937.	-7666
/5938.	-7667
/5998.	-7668
/6036.	-7669
/6037.	-7670
/6136.	-7671
/6137.	-7672
/6337.	-7673
/6536.	-7674
/6637.	-7675
/6736.	-7676
/6737.	-7677
/6936.	-7678
/7036.	-7679
/7136.	-7680
/7236.	-7681
/7337.	-7682
245625,	-7683
▁1.696,	-7684
▁2.081,	-7685
▁2.139,	-7686
▁2.169,	-7687
▁2.173,	-7688
▁2.178,	-7689
▁2.216,	-7690
▁2.296,	-7691
▁2.299,	-7692
▁2.412,	-7693
▁2.417,	-7694
▁2.581,	-7695
▁2.601,	-7696
▁2.633,	-7697
▁2.679,	-7698
▁2.691,	-7699
/796.	-7700
/834.	-7701
/934.	-7702
/935.	-7703
miếng	-7704
/1035.	-7705
/1136.	-7706
/1235.	-7707
/1236.	-7708
/1319.	-7709
/1336.	-7710
/1735.	-7711
/1736.	-7712
/1835.	-7713
/1935.	-7714
/2036.	-7715
/2136.	-7716
/2236.	-7717
/2327.	-7718
/2336.	-7719
/2505.	-7720
/2536.	-7721
/2635.	-7722
/2636.	-7723
/2735.	-7724
/2736.	-7725
/2826.	-7726
/2935.	-7727
/2936.	-7728
/3035.	-7729
/3036.	-7730
/3135.	-7731
/3215.	-7732
/3235.	-7733
/3321.	-7734
/3334.	-7735
/3336.	-7736
/3434.	-7737
/3521.	-7738
/3534.	-7739
/3536.	-7740
/3634.	-7741
/3635.	-7742
/3636.	-7743
/3734.	-7744
/3736.	-7745
/3834.	-7746
/3835.	-7747
/3836.	-7748
/3934.	-7749
/3935.	-7750
/3936.	-7751
/4034.	-7752
/4035.	-7753
/4036.	-7754
/4134.	-7755
/4136.	-7756
/4225.	-7757
/4236.	-7758
/4534.	-7759
/4635.	-7760
/4835.	-7761
/4935.	-7762
/5034.	-7763
/5035.	-7764
/5309.	-7765
/5401.	-7766
/5534.	-7767
/5535.	-7768
/5825.	-7769
/5835.	-7770
/5935.	-7771
/6135.	-7772
/6234.	-7773
/6334.	-7774
/6400.	-7775
/6488.	-7776
/6534.	-7777
/6634.	-7778
/6635.	-7779
/6735.	-7780
/6816.	-7781
/6834.	-7782
/6835.	-7783
/6892.	-7784
/6934.	-7785
/7034.	-7786
/7035.	-7787
/7134.	-7788
/7135.	-7789
/7234.	-7790
/7235.	-7791
/7334.	-7792
/7410.	-7793
87875,	-7794
▁2.692,	-7795
▁2.856,	-7796
▁2.857,	-7797
▁2.919,	-7798
▁2.942,	-7799
785,	-7800
khóa	-7801
muôn	-7802
/798.	-7803
/832.	-7804
/833.	-7805
2925,	-7806
/1117.	-7807
/1134.	-7808
/1191.	-7809
/1233.	-7810
/1234.	-7811
/1333.	-7812
/1334.	-7813
/1534.	-7814
/1633.	-7815
/1733.	-7816
/1734.	-7817
/1833.	-7818
/1834.	-7819
/1933.	-7820
/2134.	-7821
/2191.	-7822
/2233.	-7823
/2234.	-7824
/2334.	-7825
/2396.	-7826
/2533.	-7827
/2534.	-7828
/2634.	-7829
/2734.	-7830
/2834.	-7831
/2934.	-7832
/3033.	-7833
/3134.	-7834
/3233.	-7835
/3234.	-7836
/3333.	-7837
/3505.	-7838
/3533.	-7839
/3539.	-7840
/3633.	-7841
/3732.	-7842
/4032.	-7843
/4033.	-7844
/4132.	-7845
/4133.	-7846
/4232.	-7847
/4233.	-7848
/4332.	-7849
/4513.	-7850
/4532.	-7851
/4618.	-7852
/4633.	-7853
/4732.	-7854
/4833.	-7855
/4932.	-7856
/4994.	-7857
/5032.	-7858
/5036.	-7859
/5132.	-7860
/5218.	-7861
/5232.	-7862
/5233.	-7863
/5332.	-7864
/5632.	-7865
/5633.	-7866
/5732.	-7867
/5733.	-7868
/5832.	-7869
/5923.	-7870
/5932.	-7871
/5933.	-7872
/6032.	-7873
/6033.	-7874
/6132.	-7875
/6133.	-7876
/6221.	-7877
/6232.	-7878
/6233.	-7879
/6332.	-7880
/6532.	-7881
/6626.	-7882
/6632.	-7883
/6732.	-7884
/6733.	-7885
/6833.	-7886
/6933.	-7887
/7032.	-7888
/7033.	-7889
/7132.	-7890
/7133.	-7891
/7232.	-7892
/7332.	-7893
/7333.	-7894
▁2.957,	-7895
▁2.979,	-7896
▁2.982,	-7897
▁3.059,	-7898
▁3.101,	-7899
khốn	-7900
/824.	-7901
/830.	-7902
/831.	-7903
/930.	-7904
/931.	-7905
2825,	-7906
/1031.	-7907
/1131.	-7908
/1132.	-7909
/1231.	-7910
/1331.	-7911
/1332.	-7912
/1531.	-7913
/1532.	-7914
/1631.	-7915
/1731.	-7916
/1796.	-7917
/1895.	-7918
/1916.	-7919
/2000.	-7920
/2131.	-7921
/2132.	-7922
/2205.	-7923
/2231.	-7924
/2401.	-7925
/2531.	-7926
/2632.	-7927
/2832.	-7928
/2932.	-7929
/3032.	-7930
/3132.	-7931
/3230.	-7932
/3231.	-7933
/3332.	-7934
/3491.	-7935
/3530.	-7936
/3531.	-7937
/3532.	-7938
/3730.	-7939
/3731.	-7940
/3931.	-7941
/4030.	-7942
/4130.	-7943
/4131.	-7944
/4230.	-7945
/4231.	-7946
/4330.	-7947
/4415.	-7948
/4449.	-7949
/4459.	-7950
/4486.	-7951
/4530.	-7952
/4531.	-7953
/4630.	-7954
/4631.	-7955
/4830.	-7956
/4930.	-7957
/4931.	-7958
/5030.	-7959
/5130.	-7960
/5131.	-7961
/5230.	-7962
/5231.	-7963
/5239.	-7964
/5331.	-7965
/5530.	-7966
/5531.	-7967
/5630.	-7968
/5830.	-7969
/5930.	-7970
/5931.	-7971
/6030.	-7972
/6128.	-7973
/6130.	-7974
/6321.	-7975
/6330.	-7976
/6331.	-7977
/6444.	-7978
/6530.	-7979
/6531.	-7980
/6630.	-7981
/6831.	-7982
/6930.	-7983
/7030.	-7984
/7031.	-7985
/7130.	-7986
/7131.	-7987
/7328.	-7988
/7330.	-7989
/7496.	-7990
▁suông	-7991
▁3.208,	-7992
▁3.239,	-7993
▁3.302,	-7994
▁3.399,	-7995
▁3.481,	-7996
▁3.502,	-7997
▁3.522,	-7998
▁3.562,	-7999
▁vòi	-8000
/700.	-8001
/789.	-8002
/889.	-8003
/900.	-8004
/989.	-8005
/1100.	-8006
/1300.	-8007
/1330.	-8008
/1523.	-8009
/1530.	-8010
/1589.	-8011
/1630.	-8012
/1689.	-8013
/1700.	-8014
/1728.	-8015
/1730.	-8016
/1789.	-8017
/1800.	-8018
/1830.	-8019
/1930.	-8020
/2030.	-8021
/2089.	-8022
/2100.	-8023
/2200.	-8024
/2230.	-8025
/2289.	-8026
/2300.	-8027
/2389.	-8028
/2589.	-8029
/2630.	-8030
/2700.	-8031
/2730.	-8032
/2811.	-8033
/2889.	-8034
/2900.	-8035
/2996.	-8036
/3089.	-8037
/3130.	-8038
/3189.	-8039
/3200.	-8040
/3289.	-8041
/3300.	-8042
/3389.	-8043
/3411.	-8044
/3460.	-8045
/3589.	-8046
/3600.	-8047
/3606.	-8048
/3689.	-8049
/3700.	-8050
/3789.	-8051
/3800.	-8052
/3889.	-8053
/3900.	-8054
/4001.	-8055
/4031.	-8056
/4100.	-8057
/4289.	-8058
/4300.	-8059
/4689.	-8060
/4700.	-8061
/4789.	-8062
/4800.	-8063
/4900.	-8064
/4989.	-8065
/5089.	-8066
/5213.	-8067
/5300.	-8068
/5389.	-8069
/5589.	-8070
/5600.	-8071
/5689.	-8072
/5789.	-8073
/5800.	-8074
/5889.	-8075
/5900.	-8076
/6089.	-8077
/6100.	-8078
/6189.	-8079
/6198.	-8080
/6200.	-8081
/6300.	-8082
/6589.	-8083
/6600.	-8084
/6889.	-8085
/6989.	-8086
/7100.	-8087
/7189.	-8088
/7212.	-8089
/7300.	-8090
/7389.	-8091
▁1.597	-8092
▁2.219	-8093
758125,	-8094
▁3.642,	-8095
▁3.719,	-8096
▁3.802,	-8097
▁4.121,	-8098
▁4.301,	-8099
đón	-8100
/787.	-8101
/987.	-8102
/988.	-8103
3425,	-8104
▁khía	-8105
/1026.	-8106
/1088.	-8107
/1288.	-8108
/1289.	-8109
/1387.	-8110
/1388.	-8111
/1389.	-8112
/1587.	-8113
/1687.	-8114
/1887.	-8115
/1988.	-8116
/2087.	-8117
/2088.	-8118
/2187.	-8119
/2209.	-8120
/2217.	-8121
/2287.	-8122
/2587.	-8123
/2588.	-8124
/2687.	-8125
/2688.	-8126
/2787.	-8127
/2788.	-8128
/2888.	-8129
/2987.	-8130
/2988.	-8131
/3039.	-8132
/3087.	-8133
/3100.	-8134
/3188.	-8135
/3237.	-8136
/3288.	-8137
/3387.	-8138
/3388.	-8139
/3435.	-8140
/3587.	-8141
/3688.	-8142
/3887.	-8143
/3888.	-8144
/3987.	-8145
/3988.	-8146
/4087.	-8147
/4088.	-8148
/4187.	-8149
/4188.	-8150
/4287.	-8151
/4388.	-8152
/4587.	-8153
/4687.	-8154
/4688.	-8155
/4788.	-8156
/4803.	-8157
/4887.	-8158
/4988.	-8159
/5087.	-8160
/5187.	-8161
/5188.	-8162
/5191.	-8163
/5235.	-8164
/5287.	-8165
/5288.	-8166
/5388.	-8167
/5415.	-8168
/5587.	-8169
/5588.	-8170
/5887.	-8171
/5987.	-8172
/5988.	-8173
/6087.	-8174
/6088.	-8175
/6187.	-8176
/6188.	-8177
/6287.	-8178
/6288.	-8179
/6387.	-8180
/6388.	-8181
/6607.	-8182
/6787.	-8183
/6788.	-8184
/6887.	-8185
/6888.	-8186
/6987.	-8187
/6988.	-8188
/7087.	-8189
/7088.	-8190
/7188.	-8191
/7288.	-8192
/7387.	-8193
89625,	-8194
▁1.916	-8195
▁4.321,	-8196
▁4.898,	-8197
▁4.922,	-8198
▁chuồng	-8199
23,	-8200
▁ươi	-8201
/785.	-8202
/786.	-8203
/807.	-8204
/884.	-8205
/1014.	-8206
/1085.	-8207
/1087.	-8208
/1185.	-8209
/1286.	-8210
/1385.	-8211
/1386.	-8212
/1585.	-8213
/1586.	-8214
/1685.	-8215
/1686.	-8216
/1785.	-8217
/2085.	-8218
/2086.	-8219
/2186.	-8220
/2224.	-8221
/2285.	-8222
/2286.	-8223
/2385.	-8224
/2386.	-8225
/2481.	-8226
/2586.	-8227
/2685.	-8228
/2686.	-8229
/2885.	-8230
/2922.	-8231
/2985.	-8232
/2986.	-8233
/3005.	-8234
/3185.	-8235
/3285.	-8236
/3286.	-8237
/3330.	-8238
/3386.	-8239
/3585.	-8240
/3685.	-8241
/3786.	-8242
/3886.	-8243
/3985.	-8244
/3986.	-8245
/4085.	-8246
/4086.	-8247
/4186.	-8248
/4285.	-8249
/4286.	-8250
/4386.	-8251
/4586.	-8252
/4685.	-8253
/4686.	-8254
/4785.	-8255
/4798.	-8256
/4885.	-8257
/4886.	-8258
/4985.	-8259
/4986.	-8260
/5185.	-8261
/5186.	-8262
/5285.	-8263
/5286.	-8264
/5385.	-8265
/5586.	-8266
/5686.	-8267
/5785.	-8268
/5885.	-8269
/5892.	-8270
/5986.	-8271
/6086.	-8272
/6107.	-8273
/6127.	-8274
/6185.	-8275
/6186.	-8276
/6285.	-8277
/6386.	-8278
/6586.	-8279
/6685.	-8280
/6686.	-8281
/6716.	-8282
/6786.	-8283
/6886.	-8284
/6986.	-8285
/7084.	-8286
/7085.	-8287
/7284.	-8288
/7285.	-8289
/7291.	-8290
/7384.	-8291
/7385.	-8292
/7386.	-8293
▁3.523,	-8294
▁chướng	-8295
▁khuynh	-8296
▁khuyển	-8297
▁khuếch	-8298
▁ngoảnh	-8299
/782.	-8300
/783.	-8301
/883.	-8302
/888.	-8303
/982.	-8304
/983.	-8305
/1025.	-8306
/1083.	-8307
/1084.	-8308
/1184.	-8309
/1188.	-8310
/1283.	-8311
/1384.	-8312
/1583.	-8313
/1584.	-8314
/1683.	-8315
/1684.	-8316
/1984.	-8317
/2083.	-8318
/2184.	-8319
/2283.	-8320
/2284.	-8321
/2383.	-8322
/2384.	-8323
/2463.	-8324
/2492.	-8325
/2583.	-8326
/2584.	-8327
/2683.	-8328
/2697.	-8329
/2725.	-8330
/2784.	-8331
/2983.	-8332
/3083.	-8333
/3115.	-8334
/3184.	-8335
/3283.	-8336
/3383.	-8337
/3384.	-8338
/3584.	-8339
/3683.	-8340
/3684.	-8341
/3783.	-8342
/3784.	-8343
/3883.	-8344
/3884.	-8345
/3932.	-8346
/4083.	-8347
/4084.	-8348
/4184.	-8349
/4502.	-8350
/4584.	-8351
/4683.	-8352
/4684.	-8353
/4783.	-8354
/4784.	-8355
/4884.	-8356
/4939.	-8357
/4983.	-8358
/5083.	-8359
/5084.	-8360
/5209.	-8361
/5283.	-8362
/5383.	-8363
/5384.	-8364
/5683.	-8365
/5783.	-8366
/5784.	-8367
/5883.	-8368
/5884.	-8369
/5983.	-8370
/5989.	-8371
/6083.	-8372
/6084.	-8373
/6184.	-8374
/6308.	-8375
/6383.	-8376
/6584.	-8377
/6608.	-8378
/6683.	-8379
/6698.	-8380
/6784.	-8381
/6799.	-8382
/6884.	-8383
/6909.	-8384
/6983.	-8385
/6984.	-8386
/7083.	-8387
/7183.	-8388
/7283.	-8389
/7383.	-8390
/7405.	-8391
▁ngưỡng	-8392
▁trướng	-8393
1084375,	-8394
2729375,	-8395
4278125,	-8396
6280625,	-8397
9301875,	-8398
▁1.1105,	-8399
/600.	-8400
/780.	-8401
/880.	-8402
/881.	-8403
/980.	-8404
/981.	-8405
/1082.	-8406
/1181.	-8407
/1509.	-8408
/1581.	-8409
/1582.	-8410
/1782.	-8411
/1881.	-8412
/1882.	-8413
/1897.	-8414
/1981.	-8415
/1982.	-8416
/2082.	-8417
/2182.	-8418
/2281.	-8419
/2282.	-8420
/2382.	-8421
/2430.	-8422
/2581.	-8423
/2681.	-8424
/2682.	-8425
/2781.	-8426
/2810.	-8427
/2981.	-8428
/3082.	-8429
/3181.	-8430
/3281.	-8431
/3282.	-8432
/3382.	-8433
/3682.	-8434
/3782.	-8435
/4081.	-8436
/4082.	-8437
/4181.	-8438
/4281.	-8439
/4282.	-8440
/4327.	-8441
/4382.	-8442
/4387.	-8443
/4467.	-8444
/4581.	-8445
/4582.	-8446
/4591.	-8447
/4681.	-8448
/4682.	-8449
/4781.	-8450
/4782.	-8451
/4882.	-8452
/4981.	-8453
/4982.	-8454
/5081.	-8455
/5082.	-8456
/5189.	-8457
/5281.	-8458
/5282.	-8459
/5382.	-8460
/5635.	-8461
/5682.	-8462
/5781.	-8463
/5782.	-8464
/5881.	-8465
/5882.	-8466
/5981.	-8467
/6182.	-8468
/6282.	-8469
/6381.	-8470
/6582.	-8471
/6620.	-8472
/6680.	-8473
/6681.	-8474
/6682.	-8475
/6781.	-8476
/6795.	-8477
/6811.	-8478
/6824.	-8479
/6881.	-8480
/6882.	-8481
/6906.	-8482
/6980.	-8483
/6981.	-8484
/7082.	-8485
/7180.	-8486
/7181.	-8487
/7281.	-8488
/7282.	-8489
/7306.	-8490
/7380.	-8491
/7382.	-8492
▁nguyệt	-8493
▁1.1555,	-8494
▁1.2965,	-8495
▁1.3325,	-8496
▁1.3745,	-8497
▁1.3965,	-8498
▁1.5145,	-8499
sớm	-8500
/778.	-8501
/779.	-8502
/878.	-8503
/879.	-8504
/978.	-8505
/979.	-8506
▁đoạt	-8507
/1008.	-8508
/1080.	-8509
/1130.	-8510
/1179.	-8511
/1380.	-8512
/1579.	-8513
/1580.	-8514
/1636.	-8515
/1679.	-8516
/1680.	-8517
/1780.	-8518
/1808.	-8519
/1879.	-8520
/1979.	-8521
/1980.	-8522
/2080.	-8523
/2130.	-8524
/2279.	-8525
/2280.	-8526
/2379.	-8527
/2380.	-8528
/2779.	-8529
/2793.	-8530
/2880.	-8531
/2979.	-8532
/3079.	-8533
/3180.	-8534
/3279.	-8535
/3280.	-8536
/3379.	-8537
/3380.	-8538
/3580.	-8539
/3679.	-8540
/3779.	-8541
/3780.	-8542
/3979.	-8543
/4079.	-8544
/4080.	-8545
/4115.	-8546
/4180.	-8547
/4280.	-8548
/4379.	-8549
/4380.	-8550
/4579.	-8551
/4580.	-8552
/4679.	-8553
/4680.	-8554
/4779.	-8555
/4780.	-8556
/4879.	-8557
/4880.	-8558
/4979.	-8559
/5080.	-8560
/5179.	-8561
/5379.	-8562
/5579.	-8563
/5580.	-8564
/5591.	-8565
/5679.	-8566
/5680.	-8567
/5722.	-8568
/5780.	-8569
/5879.	-8570
/5880.	-8571
/6079.	-8572
/6080.	-8573
/6179.	-8574
/6180.	-8575
/6379.	-8576
/6380.	-8577
/6429.	-8578
/6445.	-8579
/6580.	-8580
/6678.	-8581
/6679.	-8582
/6779.	-8583
/6878.	-8584
/6879.	-8585
/6978.	-8586
/6979.	-8587
/6996.	-8588
/7078.	-8589
/7178.	-8590
/7278.	-8591
▁2.891,	-8592
▁1.5275,	-8593
▁1.5595,	-8594
▁1.6005,	-8595
▁1.6365,	-8596
▁1.6415,	-8597
▁1.6755,	-8598
▁1.7305,	-8599
/776.	-8600
/777.	-8601
/876.	-8602
/877.	-8603
thuật	-8604
/1078.	-8605
/1177.	-8606
/1178.	-8607
/1216.	-8608
/1278.	-8609
/1377.	-8610
/1378.	-8611
/1677.	-8612
/1678.	-8613
/1778.	-8614
/1877.	-8615
/1977.	-8616
/1978.	-8617
/2078.	-8618
/2177.	-8619
/2178.	-8620
/2278.	-8621
/2377.	-8622
/2387.	-8623
/2479.	-8624
/2617.	-8625
/2677.	-8626
/2778.	-8627
/2878.	-8628
/2977.	-8629
/2978.	-8630
/3012.	-8631
/3078.	-8632
/3088.	-8633
/3177.	-8634
/3178.	-8635
/3378.	-8636
/3577.	-8637
/3578.	-8638
/3677.	-8639
/3678.	-8640
/3777.	-8641
/3877.	-8642
/3878.	-8643
/3899.	-8644
/3977.	-8645
/3978.	-8646
/4078.	-8647
/4177.	-8648
/4178.	-8649
/4277.	-8650
/4278.	-8651
/4377.	-8652
/4577.	-8653
/4578.	-8654
/4678.	-8655
/4699.	-8656
/4777.	-8657
/4878.	-8658
/4977.	-8659
/4978.	-8660
/5077.	-8661
/5078.	-8662
/5177.	-8663
/5178.	-8664
/5277.	-8665
/5278.	-8666
/5321.	-8667
/5377.	-8668
/5421.	-8669
/5677.	-8670
/5777.	-8671
/5877.	-8672
/5878.	-8673
/5977.	-8674
/5978.	-8675
/6077.	-8676
/6177.	-8677
/6277.	-8678
/6278.	-8679
/6306.	-8680
/6378.	-8681
/6430.	-8682
/6577.	-8683
/6684.	-8684
/6777.	-8685
/6832.	-8686
/6876.	-8687
/6877.	-8688
/7177.	-8689
/7276.	-8690
/7277.	-8691
/7376.	-8692
/7475.	-8693
▁4.12,	-8694
▁kiêng	-8695
388125,	-8696
▁1.7795,	-8697
▁1.7945,	-8698
▁1.8365,	-8699
/774.	-8700
/875.	-8701
/974.	-8702
/1075.	-8703
/1076.	-8704
/1176.	-8705
/1276.	-8706
/1576.	-8707
/1676.	-8708
/1775.	-8709
/1792.	-8710
/1976.	-8711
/2075.	-8712
/2076.	-8713
/2106.	-8714
/2176.	-8715
/2222.	-8716
/2376.	-8717
/2414.	-8718
/2532.	-8719
/2575.	-8720
/2576.	-8721
/2776.	-8722
/2875.	-8723
/2876.	-8724
/2975.	-8725
/2976.	-8726
/3075.	-8727
/3076.	-8728
/3228.	-8729
/3275.	-8730
/3276.	-8731
/3325.	-8732
/3376.	-8733
/3575.	-8734
/3675.	-8735
/3676.	-8736
/3775.	-8737
/3876.	-8738
/3975.	-8739
/4075.	-8740
/4076.	-8741
/4176.	-8742
/4214.	-8743
/4275.	-8744
/4374.	-8745
/4375.	-8746
/4429.	-8747
/4674.	-8748
/4774.	-8749
/4776.	-8750
/4874.	-8751
/4877.	-8752
/4974.	-8753
/4975.	-8754
/4976.	-8755
/5174.	-8756
/5176.	-8757
/5202.	-8758
/5274.	-8759
/5275.	-8760
/5276.	-8761
/5375.	-8762
/5631.	-8763
/5675.	-8764
/5676.	-8765
/5717.	-8766
/5774.	-8767
/5775.	-8768
/5875.	-8769
/5876.	-8770
/5974.	-8771
/5976.	-8772
/6031.	-8773
/6074.	-8774
/6174.	-8775
/6175.	-8776
/6176.	-8777
/6274.	-8778
/6375.	-8779
/6574.	-8780
/6575.	-8781
/6576.	-8782
/6674.	-8783
/6675.	-8784
/6774.	-8785
/6775.	-8786
/6874.	-8787
/6875.	-8788
/6974.	-8789
/7074.	-8790
/7075.	-8791
/7174.	-8792
/7274.	-8793
/7374.	-8794
/7461.	-8795
▁1.8975,	-8796
▁1.9505,	-8797
▁1.9565,	-8798
▁1.9715,	-8799
/772.	-8800
/773.	-8801
/803.	-8802
/872.	-8803
/973.	-8804
thỉnh	-8805
▁thùy	-8806
/1073.	-8807
/1074.	-8808
/1174.	-8809
/1183.	-8810
/1273.	-8811
/1274.	-8812
/1373.	-8813
/1399.	-8814
/1573.	-8815
/1574.	-8816
/1774.	-8817
/1779.	-8818
/1874.	-8819
/1973.	-8820
/1974.	-8821
/2021.	-8822
/2073.	-8823
/2074.	-8824
/2272.	-8825
/2372.	-8826
/2374.	-8827
/2428.	-8828
/2572.	-8829
/2573.	-8830
/2574.	-8831
/2672.	-8832
/2777.	-8833
/2872.	-8834
/3072.	-8835
/3073.	-8836
/3074.	-8837
/3081.	-8838
/3173.	-8839
/3174.	-8840
/3272.	-8841
/3273.	-8842
/3372.	-8843
/3374.	-8844
/3672.	-8845
/3773.	-8846
/3774.	-8847
/3817.	-8848
/3872.	-8849
/3874.	-8850
/3902.	-8851
/3938.	-8852
/3972.	-8853
/3974.	-8854
/4072.	-8855
/4073.	-8856
/4074.	-8857
/4172.	-8858
/4173.	-8859
/4174.	-8860
/4207.	-8861
/4272.	-8862
/4273.	-8863
/4372.	-8864
/4373.	-8865
/4572.	-8866
/4573.	-8867
/4933.	-8868
/4972.	-8869
/5033.	-8870
/5072.	-8871
/5073.	-8872
/5573.	-8873
/5597.	-8874
/5606.	-8875
/5673.	-8876
/5739.	-8877
/5772.	-8878
/5773.	-8879
/6072.	-8880
/6073.	-8881
/6173.	-8882
/6272.	-8883
/6428.	-8884
/6572.	-8885
/6573.	-8886
/6672.	-8887
/6772.	-8888
/7072.	-8889
/7073.	-8890
/7173.	-8891
/7336.	-8892
/7422.	-8893
▁4.179,	-8894
▁1.9805,	-8895
▁1.9935,	-8896
▁1.9985,	-8897
▁1.9995,	-8898
▁2.0355,	-8899
vớ	-8900
48,	-8901
lật	-8902
vận	-8903
xua	-8904
biên	-8905
sành	-8906
▁cật	-8907
▁xao	-8908
▁đái	-8909
/270.	-8910
/456.	-8911
/742.	-8912
/768.	-8913
/771.	-8914
/871.	-8915
/971.	-8916
5075,	-8917
ngẩng	-8918
▁cành	-8919
▁nhại	-8920
▁quẫn	-8921
▁đùng	-8922
/1072.	-8923
/1101.	-8924
/1272.	-8925
/1277.	-8926
/1372.	-8927
/1433.	-8928
/1474.	-8929
/1600.	-8930
/1627.	-8931
/1724.	-8932
/1761.	-8933
/1772.	-8934
/1777.	-8935
/1837.	-8936
/1972.	-8937
/1986.	-8938
/2091.	-8939
/2172.	-8940
/2181.	-8941
/2305.	-8942
/2330.	-8943
/2332.	-8944
/2609.	-8945
/2628.	-8946
/2650.	-8947
/2760.	-8948
/3309.	-8949
/3556.	-8950
/3630.	-8951
/3993.	-8952
/4027.	-8953
/4175.	-8954
/4215.	-8955
/4389.	-8956
/4498.	-8957
/4569.	-8958
/4576.	-8959
/4706.	-8960
/5127.	-8961
/5474.	-8962
/5491.	-8963
/5713.	-8964
/6008.	-8965
/6057.	-8966
/6371.	-8967
/6571.	-8968
/6771.	-8969
/6801.	-8970
/6871.	-8971
/6971.	-8972
/7005.	-8973
/7071.	-8974
/7171.	-8975
/7204.	-8976
/7247.	-8977
/7271.	-8978
/7371.	-8979
/7399.	-8980
/7460.	-8981
▁1.702	-8982
▁chiên	-8983
▁tuyên	-8984
▁1.548,	-8985
▁2.0135,	-8986
▁2.0535,	-8987
▁2.0945,	-8988
▁2.1115,	-8989
▁2.1595,	-8990
▁2.1765,	-8991
▁2.1785,	-8992
▁2.2155,	-8993
▁2.2795,	-8994
▁2.3195,	-8995
▁2.3315,	-8996
▁2.3365,	-8997
▁2.3575,	-8998
▁2.3775,	-8999
mòn	-9000
náo	-9001
▁lề	-9002
/85.	-9003
giai	-9004
khẩn	-9005
tiết	-9006
▁mòn	-9007
/248.	-9008
/414.	-9009
/597.	-9010
/740.	-9011
/856.	-9012
/903.	-9013
▁6.19	-9014
▁ngầu	-9015
/1222.	-9016
/1504.	-9017
/1654.	-9018
/1709.	-9019
/1719.	-9020
/1967.	-9021
/1993.	-9022
/2173.	-9023
/2744.	-9024
/2860.	-9025
/2912.	-9026
/2931.	-9027
/3061.	-9028
/3091.	-9029
/3187.	-9030
/3361.	-9031
/3674.	-9032
/3714.	-9033
/3748.	-9034
/3833.	-9035
/3890.	-9036
/3926.	-9037
/3954.	-9038
/4007.	-9039
/4077.	-9040
/4116.	-9041
/4202.	-9042
/4560.	-9043
/4567.	-9044
/4595.	-9045
/4831.	-9046
/4918.	-9047
/4955.	-9048
/5005.	-9049
/5019.	-9050
/5345.	-9051
/5393.	-9052
/5482.	-9053
/5489.	-9054
/5518.	-9055
/5575.	-9056
/5610.	-9057
/5701.	-9058
/5802.	-9059
/5820.	-9060
/5833.	-9061
/5855.	-9062
/5895.	-9063
/5910.	-9064
/5953.	-9065
/6009.	-9066
/6062.	-9067
/6142.	-9068
/6298.	-9069
/6336.	-9070
/6343.	-9071
/6357.	-9072
/6585.	-9073
/6649.	-9074
/6868.	-9075
/6915.	-9076
/6973.	-9077
/6982.	-9078
/7010.	-9079
/7158.	-9080
/7480.	-9081
49375,	-9082
▁1.970	-9083
▁khuẩn	-9084
▁2.4205,	-9085
▁2.4215,	-9086
▁2.4595,	-9087
▁2.5025,	-9088
▁2.5945,	-9089
▁2.5965,	-9090
▁2.6605,	-9091
▁2.6785,	-9092
▁2.6965,	-9093
▁2.7185,	-9094
▁2.7205,	-9095
▁2.7395,	-9096
▁2.7565,	-9097
▁2.8175,	-9098
▁2.8395,	-9099
rủ	-9100
úy	-9101
bấy	-9102
hất	-9103
khổ	-9104
mến	-9105
râu	-9106
▁úy	-9107
/65.	-9108
mông	-9109
▁bái	-9110
▁sến	-9111
▁tâu	-9112
▁vác	-9113
/141.	-9114
/142.	-9115
/305.	-9116
/344.	-9117
/602.	-9118
/826.	-9119
▁2.8,	-9120
▁loay	-9121
▁nghẽ	-9122
▁quây	-9123
▁quầy	-9124
▁rách	-9125
▁ròng	-9126
▁thâu	-9127
/1204.	-9128
/1208.	-9129
/1434.	-9130
/1588.	-9131
/1987.	-9132
/1991.	-9133
/2046.	-9134
/2138.	-9135
/2597.	-9136
/2745.	-9137
/2879.	-9138
/2902.	-9139
/2982.	-9140
/3120.	-9141
/3142.	-9142
/3168.	-9143
/3323.	-9144
/3357.	-9145
/3428.	-9146
/3622.	-9147
/3628.	-9148
/3768.	-9149
/3826.	-9150
/3827.	-9151
/3852.	-9152
/4091.	-9153
/4244.	-9154
/4279.	-9155
/4302.	-9156
/4320.	-9157
/4335.	-9158
/4636.	-9159
/4675.	-9160
/4709.	-9161
/4778.	-9162
/4940.	-9163
/4971.	-9164
/5096.	-9165
/5149.	-9166
/5459.	-9167
/5550.	-9168
/5596.	-9169
/6139.	-9170
/6242.	-9171
/6279.	-9172
/6283.	-9173
/6333.	-9174
/6543.	-9175
/6621.	-9176
/6638.	-9177
/6645.	-9178
/6723.	-9179
/6778.	-9180
/6800.	-9181
/6845.	-9182
/6937.	-9183
/7056.	-9184
/7258.	-9185
/7303.	-9186
/7335.	-9187
▁1.674	-9188
▁2.65,	-9189
▁nghẽn	-9190
▁2.6500	-9191
▁nghiền	-9192
▁1.7165,	-9193
▁2.9115,	-9194
▁2.9605,	-9195
▁3.0405,	-9196
▁3.0595,	-9197
▁3.1605,	-9198
▁3.2385,	-9199
xú	-9200
thà	-9201
xúm	-9202
ẵng	-9203
▁vú	-9204
▁ẩu	-9205
/42.	-9206
/47.	-9207
chứa	-9208
giọt	-9209
mong	-9210
trau	-9211
▁ham	-9212
▁lây	-9213
▁mao	-9214
▁mâu	-9215
▁nâu	-9216
▁xéo	-9217
▁xôn	-9218
/233.	-9219
/369.	-9220
/507.	-9221
/559.	-9222
vương	-9223
▁2.43	-9224
▁2.47	-9225
▁họng	-9226
▁nành	-9227
▁nẵng	-9228
/1150.	-9229
/1223.	-9230
/1249.	-9231
/2237.	-9232
/2259.	-9233
/2400.	-9234
/2452.	-9235
/2555.	-9236
/2611.	-9237
/2721.	-9238
/2830.	-9239
/2961.	-9240
/2974.	-9241
/3158.	-9242
/3183.	-9243
/3247.	-9244
/3277.	-9245
/3292.	-9246
/3299.	-9247
/3445.	-9248
/3566.	-9249
/3722.	-9250
/3968.	-9251
/4059.	-9252
/4228.	-9253
/4261.	-9254
/4575.	-9255
/4664.	-9256
/4769.	-9257
/4817.	-9258
/4875.	-9259
/5086.	-9260
/5140.	-9261
/5238.	-9262
/5250.	-9263
/5251.	-9264
/5434.	-9265
/5828.	-9266
/5859.	-9267
/5874.	-9268
/5888.	-9269
/5921.	-9270
/5934.	-9271
/6011.	-9272
/6192.	-9273
/6405.	-9274
/6494.	-9275
/6633.	-9276
/6758.	-9277
/6852.	-9278
/6972.	-9279
/7157.	-9280
/7421.	-9281
/7474.	-9282
64375,	-9283
88125,	-9284
90625,	-9285
94375,	-9286
308125,	-9287
836875,	-9288
▁3.081,	-9289
0088125,	-9290
6194375,	-9291
▁3.2815,	-9292
▁3.3025,	-9293
▁3.3605,	-9294
▁3.3825,	-9295
▁3.4205,	-9296
▁3.4825,	-9297
▁3.5025,	-9298
▁3.5205,	-9299
tắm	-9300
▁cù	-9301
▁gù	-9302
/30.	-9303
/40.	-9304
/41.	-9305
/70.	-9306
/71.	-9307
/72.	-9308
/73.	-9309
/74.	-9310
/76.	-9311
/86.	-9312
chức	-9313
lặng	-9314
thai	-9315
/389.	-9316
/514.	-9317
/702.	-9318
/952.	-9319
/956.	-9320
/968.	-9321
trừng	-9322
▁3.7,	-9323
▁3.81	-9324
/1108.	-9325
/1379.	-9326
/1575.	-9327
/1634.	-9328
/1645.	-9329
/1722.	-9330
/1888.	-9331
/2062.	-9332
/2077.	-9333
/2143.	-9334
/2207.	-9335
/2317.	-9336
/2361.	-9337
/2722.	-9338
/2952.	-9339
/3037.	-9340
/3108.	-9341
/3219.	-9342
/3260.	-9343
/3320.	-9344
/3494.	-9345
/3588.	-9346
/3673.	-9347
/3746.	-9348
/3772.	-9349
/3792.	-9350
/3923.	-9351
/4026.	-9352
/4235.	-9353
/4516.	-9354
/4677.	-9355
/4794.	-9356
/4806.	-9357
/4844.	-9358
/4984.	-9359
/5059.	-9360
/5079.	-9361
/5227.	-9362
/5265.	-9363
/5572.	-9364
/5684.	-9365
/5687.	-9366
/5708.	-9367
/5840.	-9368
/5939.	-9369
/5957.	-9370
/5975.	-9371
/6121.	-9372
/6166.	-9373
/6367.	-9374
/6376.	-9375
/6521.	-9376
/6542.	-9377
/6728.	-9378
/6734.	-9379
/6846.	-9380
/7066.	-9381
/7233.	-9382
/7388.	-9383
/7403.	-9384
▁nhược	-9385
▁1.899,	-9386
▁3.621,	-9387
▁3.819,	-9388
▁3.5215,	-9389
▁3.5405,	-9390
▁3.7025,	-9391
▁3.7605,	-9392
▁3.7825,	-9393
▁3.8205,	-9394
▁3.8425,	-9395
▁4.0015,	-9396
▁4.0615,	-9397
▁4.1985,	-9398
▁4.2205,	-9399
/8.	-9400
ướn	-9401
▁rộ	-9402
▁xi	-9403
▁xế	-9404
/10.	-9405
/15.	-9406
/19.	-9407
/29.	-9408
/38.	-9409
/39.	-9410
/48.	-9411
/49.	-9412
/59.	-9413
/82.	-9414
/98.	-9415
hoại	-9416
phẩm	-9417
rảnh	-9418
trội	-9419
▁dệt	-9420
▁nại	-9421
▁quẻ	-9422
▁rác	-9423
▁rầm	-9424
▁vây	-9425
▁vứt	-9426
▁đằm	-9427
/191.	-9428
/412.	-9429
/598.	-9430
quãng	-9431
▁mướn	-9432
▁tạng	-9433
/1029.	-9434
/1120.	-9435
/1189.	-9436
/1309.	-9437
/1533.	-9438
/1545.	-9439
/1871.	-9440
/1915.	-9441
/2024.	-9442
/2041.	-9443
/2042.	-9444
/2208.	-9445
/2238.	-9446
/2366.	-9447
/2411.	-9448
/2445.	-9449
/2465.	-9450
/2601.	-9451
/2608.	-9452
/2642.	-9453
/2816.	-9454
/3155.	-9455
/3163.	-9456
/3232.	-9457
/3313.	-9458
/3338.	-9459
/3794.	-9460
/3832.	-9461
/4166.	-9462
/4328.	-9463
/4361.	-9464
/4428.	-9465
/4443.	-9466
/4504.	-9467
/4519.	-9468
/4585.	-9469
/4649.	-9470
/4650.	-9471
/4734.	-9472
/4834.	-9473
/4843.	-9474
/5040.	-9475
/5302.	-9476
/5532.	-9477
/5625.	-9478
/5751.	-9479
/5847.	-9480
/6064.	-9481
/6750.	-9482
/6783.	-9483
/6977.	-9484
/6990.	-9485
/7064.	-9486
/7369.	-9487
/7409.	-9488
46625,	-9489
▁trạch	-9490
291875,	-9491
▁3.421,	-9492
▁4.2615,	-9493
▁4.3415,	-9494
▁4.3815,	-9495
▁4.6005,	-9496
▁1.09525,	-9497
▁1.15325,	-9498
▁1.21475,	-9499
dị	-9500
hễ	-9501
/7.	-9502
môn	-9503
ném	-9504
đột	-9505
đợt	-9506
▁7.	-9507
▁gò	-9508
▁hã	-9509
/25.	-9510
/37.	-9511
/66.	-9512
chĩa	-9513
toan	-9514
vững	-9515
▁gốm	-9516
▁hao	-9517
▁hãm	-9518
▁lậu	-9519
/253.	-9520
/348.	-9521
/388.	-9522
/617.	-9523
/639.	-9524
/868.	-9525
/882.	-9526
/929.	-9527
/986.	-9528
▁4.47	-9529
▁7.34	-9530
▁phết	-9531
▁trội	-9532
/1000.	-9533
/1264.	-9534
/1304.	-9535
/1353.	-9536
/1376.	-9537
/1469.	-9538
/1488.	-9539
/1692.	-9540
/1890.	-9541
/1948.	-9542
/1949.	-9543
/2111.	-9544
/2174.	-9545
/2429.	-9546
/2453.	-9547
/2578.	-9548
/2614.	-9549
/2679.	-9550
/2733.	-9551
/3169.	-9552
/3250.	-9553
/3371.	-9554
/3582.	-9555
/3879.	-9556
/3980.	-9557
/4527.	-9558
/4596.	-9559
/4801.	-9560
/4881.	-9561
/4890.	-9562
/5076.	-9563
/5326.	-9564
/5376.	-9565
/5500.	-9566
/5724.	-9567
/5972.	-9568
/6007.	-9569
/6419.	-9570
/6471.	-9571
/6500.	-9572
/6520.	-9573
/6568.	-9574
/6721.	-9575
/6776.	-9576
/7161.	-9577
/7242.	-9578
/7251.	-9579
/7286.	-9580
/7434.	-9581
75625,	-9582
choáng	-9583
▁1.535	-9584
▁phùng	-9585
▁3.242,	-9586
▁1.21625,	-9587
▁1.25475,	-9588
▁1.31025,	-9589
▁1.33325,	-9590
▁1.35375,	-9591
▁1.39375,	-9592
▁1.40825,	-9593
▁1.41425,	-9594
▁1.41625,	-9595
▁1.47525,	-9596
▁1.51225,	-9597
▁1.52625,	-9598
▁1.53025,	-9599
chợ	-9600
chữ	-9601
tột	-9602
tụi	-9603
▁nỡ	-9604
/18.	-9605
/24.	-9606
/44.	-9607
/64.	-9608
/78.	-9609
thừa	-9610
▁bẹp	-9611
▁dột	-9612
▁giã	-9613
▁giế	-9614
▁giề	-9615
▁gáp	-9616
▁liề	-9617
▁sặc	-9618
▁độn	-9619
/110.	-9620
/118.	-9621
/121.	-9622
/166.	-9623
/193.	-9624
/243.	-9625
/371.	-9626
/424.	-9627
/451.	-9628
/481.	-9629
/498.	-9630
/692.	-9631
/767.	-9632
/910.	-9633
/976.	-9634
▁ganh	-9635
▁liều	-9636
▁mảng	-9637
▁vầng	-9638
/1086.	-9639
/1180.	-9640
/1257.	-9641
/1269.	-9642
/1281.	-9643
/1478.	-9644
/1653.	-9645
/2261.	-9646
/2293.	-9647
/2320.	-9648
/2339.	-9649
/2373.	-9650
/2439.	-9651
/2486.	-9652
/2513.	-9653
/2522.	-9654
/2561.	-9655
/3266.	-9656
/3335.	-9657
/3348.	-9658
/3945.	-9659
/3995.	-9660
/4126.	-9661
/4209.	-9662
/4440.	-9663
/4444.	-9664
/4536.	-9665
/4606.	-9666
/4809.	-9667
/4969.	-9668
/4999.	-9669
/5071.	-9670
/5074.	-9671
/5172.	-9672
/5228.	-9673
/5533.	-9674
/5710.	-9675
/5787.	-9676
/5862.	-9677
/6000.	-9678
/6490.	-9679
/6754.	-9680
/6773.	-9681
/6968.	-9682
/7028.	-9683
/7058.	-9684
71625,	-9685
thuyền	-9686
▁1.89,	-9687
▁giếng	-9688
▁giềng	-9689
360625,	-9690
▁3.841,	-9691
▁1.5305,	-9692
▁1.55975,	-9693
▁1.57675,	-9694
▁1.59925,	-9695
▁1.65175,	-9696
▁1.66175,	-9697
▁1.67425,	-9698
▁1.67625,	-9699
/4.	-9700
83,	-9701
môi	-9702
đăm	-9703
ươn	-9704
▁dê	-9705
▁dẻ	-9706
▁xả	-9707
/22.	-9708
/32.	-9709
/35.	-9710
/43.	-9711
/53.	-9712
/61.	-9713
/63.	-9714
ngắm	-9715
nắng	-9716
▁ghe	-9717
▁ngó	-9718
▁phe	-9719
▁phô	-9720
▁đèo	-9721
/428.	-9722
/446.	-9723
/546.	-9724
/557.	-9725
/629.	-9726
▁vươn	-9727
▁xiên	-9728
/1149.	-9729
/1160.	-9730
/1232.	-9731
/1394.	-9732
/1454.	-9733
/1592.	-9734
/1682.	-9735
/1831.	-9736
/1918.	-9737
/2331.	-9738
/2590.	-9739
/2780.	-9740
/2808.	-9741
/2812.	-9742
/2851.	-9743
/2884.	-9744
/2887.	-9745
/2968.	-9746
/2969.	-9747
/2999.	-9748
/3205.	-9749
/3268.	-9750
/3349.	-9751
/3526.	-9752
/3631.	-9753
/3648.	-9754
/3729.	-9755
/4044.	-9756
/4057.	-9757
/4101.	-9758
/4290.	-9759
/4460.	-9760
/4946.	-9761
/4987.	-9762
/5334.	-9763
/5378.	-9764
/5763.	-9765
/6322.	-9766
/6348.	-9767
/6496.	-9768
/6518.	-9769
/6656.	-9770
/6749.	-9771
/7237.	-9772
/7262.	-9773
/7373.	-9774
/7425.	-9775
289375,	-9776
▁2.174,	-9777
▁3.281,	-9778
▁3.408,	-9779
▁3.583,	-9780
▁1.5335,	-9781
▁1.5405,	-9782
▁2.1795,	-9783
▁4.3025,	-9784
▁1.69475,	-9785
▁1.70225,	-9786
▁1.73675,	-9787
▁1.75875,	-9788
▁1.84025,	-9789
▁1.85625,	-9790
▁1.88125,	-9791
▁1.89425,	-9792
▁1.90975,	-9793
▁1.91425,	-9794
▁1.93575,	-9795
▁1.93825,	-9796
▁1.96075,	-9797
▁1.97075,	-9798
▁2.02925,	-9799
ẳm	-9800
phi	-9801
phí	-9802
phú	-9803
▁rà	-9804
▁rớ	-9805
dinh	-9806
▁lẩm	-9807
/220.	-9808
/292.	-9809
/322.	-9810
/432.	-9811
/630.	-9812
/633.	-9813
/682.	-9814
/723.	-9815
/738.	-9816
dường	-9817
sương	-9818
▁bành	-9819
▁hững	-9820
▁ngài	-9821
▁nung	-9822
▁thẳm	-9823
▁trâu	-9824
/1230.	-9825
/1280.	-9826
/1359.	-9827
/1760.	-9828
/1773.	-9829
/1898.	-9830
/2019.	-9831
/2196.	-9832
/2308.	-9833
/2434.	-9834
/2458.	-9835
/2656.	-9836
/2761.	-9837
/2908.	-9838
/2949.	-9839
/3278.	-9840
/3316.	-9841
/3356.	-9842
/3499.	-9843
/3516.	-9844
/3551.	-9845
/3739.	-9846
/3821.	-9847
/3828.	-9848
/4108.	-9849
/4157.	-9850
/4539.	-9851
/4770.	-9852
/4849.	-9853
/4866.	-9854
/5008.	-9855
/5061.	-9856
/5117.	-9857
/5138.	-9858
/5210.	-9859
/5513.	-9860
/5667.	-9861
/5672.	-9862
/6026.	-9863
/6034.	-9864
/6303.	-9865
/6389.	-9866
/6434.	-9867
/6501.	-9868
/6503.	-9869
/6673.	-9870
/6793.	-9871
/6985.	-9872
/7039.	-9873
/7080.	-9874
/7101.	-9875
/7176.	-9876
/7198.	-9877
/7398.	-9878
79125,	-9879
944375,	-9880
▁nghiến	-9881
▁2.6225,	-9882
▁4.0405,	-9883
▁2.07375,	-9884
▁2.07675,	-9885
▁2.11725,	-9886
▁2.12025,	-9887
▁2.14875,	-9888
▁2.15325,	-9889
▁2.16025,	-9890
▁2.16825,	-9891
▁2.17175,	-9892
▁2.19925,	-9893
▁2.21125,	-9894
▁2.22125,	-9895
▁2.24075,	-9896
▁2.24125,	-9897
▁2.24275,	-9898
▁2.24875,	-9899
tạ	-9900
ùm	-9901
ỉa	-9902
71,	-9903
bạc	-9904
nạn	-9905
tàu	-9906
▁ga	-9907
▁sò	-9908
▁sỡ	-9909
▁ỉa	-9910
/27.	-9911
/60.	-9912
tang	-9913
viết	-9914
▁bẩn	-9915
▁gie	-9916
▁kha	-9917
▁lột	-9918
▁ngà	-9919
▁sầu	-9920
▁sủa	-9921
▁đòn	-9922
/169.	-9923
/203.	-9924
/261.	-9925
/285.	-9926
/294.	-9927
/373.	-9928
/493.	-9929
/535.	-9930
/588.	-9931
/591.	-9932
/799.	-9933
/839.	-9934
thoạt	-9935
▁gieo	-9936
▁giùm	-9937
▁khâu	-9938
/1265.	-9939
/1375.	-9940
/1537.	-9941
/1540.	-9942
/1811.	-9943
/1865.	-9944
/1884.	-9945
/1941.	-9946
/1971.	-9947
/2006.	-9948
/2180.	-9949
/2292.	-9950
/3191.	-9951
/3360.	-9952
/3373.	-9953
/3506.	-9954
/3946.	-9955
/4089.	-9956
/4229.	-9957
/4284.	-9958
/4376.	-9959
/4733.	-9960
/4758.	-9961
/4991.	-9962
/5064.	-9963
/5303.	-9964
/5306.	-9965
/5317.	-9966
/5398.	-9967
/5427.	-9968
/5480.	-9969
/5527.	-9970
/5562.	-9971
/5565.	-9972
/6231.	-9973
/6385.	-9974
/6391.	-9975
/6425.	-9976
/6564.	-9977
/6847.	-9978
/6907.	-9979
/7149.	-9980
/7207.	-9981
/7209.	-9982
/7279.	-9983
/7358.	-9984
/7390.	-9985
▁thuẫn	-9986
▁3.571,	-9987
▁3.921,	-9988
▁1.46875,	-9989
▁1.59725,	-9990
▁2.25075,	-9991
▁2.25175,	-9992
▁2.27875,	-9993
▁2.28175,	-9994
▁2.29125,	-9995
▁2.29625,	-9996
▁2.30875,	-9997
▁2.31075,	-9998
▁2.31275,	-9999
ởn	-10000
/3.	-10001
54,	-10002
vôi	-10003
đẫm	-10004
▁cớ	-10005
▁hì	-10006
▁hẫ	-10007
▁chở	-10008
▁lởn	-10009
▁xạc	-10010
/181.	-10011
/332.	-10012
/436.	-10013
/608.	-10014
/718.	-10015
/720.	-10016
/823.	-10017
/873.	-10018
nương	-10019
▁4.80	-10020
▁hẫng	-10021
▁thác	-10022
▁tàng	-10023
/1019.	-10024
/1198.	-10025
/1242.	-10026
/1247.	-10027
/1393.	-10028
/1549.	-10029
/1661.	-10030
/1673.	-10031
/1870.	-10032
/1889.	-10033
/1900.	-10034
/1912.	-10035
/2058.	-10036
/2127.	-10037
/2530.	-10038
/2767.	-10039
/2768.	-10040
/2899.	-10041
/2911.	-10042
/3047.	-10043
/3238.	-10044
/3496.	-10045
/3564.	-10046
/3667.	-10047
/3864.	-10048
/3885.	-10049
/3983.	-10050
/4142.	-10051
/4191.	-10052
/4251.	-10053
/4402.	-10054
/4450.	-10055
/4568.	-10056
/5070.	-10057
/5115.	-10058
/5264.	-10059
/5328.	-10060
/5329.	-10061
/5639.	-10062
/5768.	-10063
/5771.	-10064
/6038.	-10065
/6060.	-10066
/6116.	-10067
/6148.	-10068
/6382.	-10069
/6384.	-10070
/6711.	-10071
/6841.	-10072
/6922.	-10073
/6932.	-10074
/7197.	-10075
/7280.	-10076
/7352.	-10077
/7401.	-10078
/7489.	-10079
▁3.16,	-10080
▁luồng	-10081
▁nhong	-10082
▁trinh	-10083
▁1.954,	-10084
▁3.828,	-10085
▁1.4125,	-10086
▁3.6805,	-10087
▁2.18175,	-10088
▁2.31425,	-10089
▁2.33075,	-10090
▁2.35475,	-10091
▁2.36225,	-10092
▁2.36275,	-10093
▁2.37875,	-10094
▁2.38025,	-10095
▁2.39925,	-10096
▁2.43725,	-10097
▁2.45475,	-10098
▁2.45725,	-10099
bù	-10100
sư	-10101
xử	-10102
dài	-10103
hòn	-10104
phổ	-10105
phủ	-10106
say	-10107
tao	-10108
▁bẩm	-10109
▁lay	-10110
/108.	-10111
/115.	-10112
/175.	-10113
/212.	-10114
/448.	-10115
/605.	-10116
/669.	-10117
/703.	-10118
/710.	-10119
/924.	-10120
/948.	-10121
/962.	-10122
1825,	-10123
thiệt	-10124
▁diệm	-10125
▁đanh	-10126
/1007.	-10127
/1081.	-10128
/1229.	-10129
/1606.	-10130
/1771.	-10131
/1942.	-10132
/1968.	-10133
/2253.	-10134
/2460.	-10135
/2498.	-10136
/2753.	-10137
/2797.	-10138
/3067.	-10139
/3086.	-10140
/3119.	-10141
/3253.	-10142
/3262.	-10143
/3293.	-10144
/3504.	-10145
/3538.	-10146
/3583.	-10147
/3831.	-10148
/3882.	-10149
/3929.	-10150
/4045.	-10151
/4111.	-10152
/4200.	-10153
/4271.	-10154
/4381.	-10155
/4909.	-10156
/5025.	-10157
/5183.	-10158
/5246.	-10159
/5266.	-10160
/5273.	-10161
/5370.	-10162
/5477.	-10163
/5634.	-10164
/5870.	-10165
/6019.	-10166
/6560.	-10167
/6640.	-10168
/6667.	-10169
/6688.	-10170
/6724.	-10171
/6730.	-10172
/6745.	-10173
/6813.	-10174
/6920.	-10175
/6955.	-10176
/7001.	-10177
/7168.	-10178
/7190.	-10179
/7273.	-10180
▁3.36,	-10181
▁chiêm	-10182
▁1.7475,	-10183
▁1.81875,	-10184
▁2.45925,	-10185
▁2.46025,	-10186
▁2.47625,	-10187
▁2.47925,	-10188
▁2.48075,	-10189
▁2.51675,	-10190
▁2.51875,	-10191
▁2.51925,	-10192
▁2.51975,	-10193
▁2.52075,	-10194
▁2.53575,	-10195
▁2.53975,	-10196
▁2.54175,	-10197
▁2.55675,	-10198
▁2.58075,	-10199
cổ	-10200
da	-10201
hổ	-10202
lệ	-10203
cơn	-10204
vết	-10205
▁kí	-10206
▁mủ	-10207
▁nô	-10208
▁sờ	-10209
▁sứ	-10210
▁té	-10211
▁đệ	-10212
/52.	-10213
biện	-10214
khảo	-10215
nhàn	-10216
xanh	-10217
▁kín	-10218
▁mài	-10219
▁rêu	-10220
/140.	-10221
/235.	-10222
/246.	-10223
/814.	-10224
/865.	-10225
/943.	-10226
quỳnh	-10227
▁chay	-10228
▁ghen	-10229
▁nuối	-10230
▁xình	-10231
/1051.	-10232
/1337.	-10233
/1423.	-10234
/1662.	-10235
/1715.	-10236
/1716.	-10237
/1765.	-10238
/1786.	-10239
/1846.	-10240
/1906.	-10241
/1932.	-10242
/2269.	-10243
/2610.	-10244
/2693.	-10245
/2775.	-10246
/3030.	-10247
/3042.	-10248
/3109.	-10249
/3156.	-10250
/3160.	-10251
/3327.	-10252
/3344.	-10253
/3354.	-10254
/3529.	-10255
/3574.	-10256
/3576.	-10257
/3613.	-10258
/3680.	-10259
/3753.	-10260
/4316.	-10261
/4404.	-10262
/4514.	-10263
/4903.	-10264
/4980.	-10265
/5181.	-10266
/5211.	-10267
/5280.	-10268
/5323.	-10269
/5413.	-10270
/5509.	-10271
/5583.	-10272
/5955.	-10273
/5992.	-10274
/6147.	-10275
/6263.	-10276
/6398.	-10277
/6414.	-10278
/6631.	-10279
/6742.	-10280
/6746.	-10281
/6870.	-10282
/6873.	-10283
/6975.	-10284
/7006.	-10285
/7040.	-10286
/7055.	-10287
/7182.	-10288
/7292.	-10289
83125,	-10290
▁2.2525,	-10291
▁1.49525,	-10292
▁2.63825,	-10293
▁2.67775,	-10294
▁2.68075,	-10295
▁2.71625,	-10296
▁2.71825,	-10297
▁2.73875,	-10298
▁2.74025,	-10299
cụ	-10300
vụ	-10301
rầm	-10302
▁kè	-10303
▁vo	-10304
lược	-10305
nhầm	-10306
thần	-10307
vàng	-10308
▁côn	-10309
▁cúc	-10310
▁dưa	-10311
▁gao	-10312
▁kẹt	-10313
▁mầm	-10314
▁nôn	-10315
▁nọc	-10316
▁rền	-10317
▁vần	-10318
/136.	-10319
/231.	-10320
/353.	-10321
/361.	-10322
/370.	-10323
/501.	-10324
/611.	-10325
/618.	-10326
/845.	-10327
/937.	-10328
6675,	-10329
tuyên	-10330
▁bong	-10331
▁siết	-10332
/1006.	-10333
/1049.	-10334
/1459.	-10335
/1471.	-10336
/1499.	-10337
/1536.	-10338
/1691.	-10339
/1815.	-10340
/1860.	-10341
/1975.	-10342
/2027.	-10343
/2099.	-10344
/2551.	-10345
/2868.	-10346
/2973.	-10347
/3143.	-10348
/3436.	-10349
/3612.	-10350
/3723.	-10351
/3844.	-10352
/3871.	-10353
/3965.	-10354
/3991.	-10355
/4006.	-10356
/4106.	-10357
/4210.	-10358
/4220.	-10359
/4340.	-10360
/4540.	-10361
/4748.	-10362
/4950.	-10363
/5048.	-10364
/5222.	-10365
/5240.	-10366
/5272.	-10367
/5387.	-10368
/5476.	-10369
/5514.	-10370
/5661.	-10371
/5743.	-10372
/5839.	-10373
/6218.	-10374
/6246.	-10375
/6251.	-10376
/6271.	-10377
/6284.	-10378
/6292.	-10379
/6510.	-10380
/6563.	-10381
/6692.	-10382
/6700.	-10383
/7020.	-10384
/7137.	-10385
thuyên	-10386
895625,	-10387
▁1.716,	-10388
▁2.8205,	-10389
▁2.8575,	-10390
▁3.1205,	-10391
▁1.36675,	-10392
▁2.74175,	-10393
▁2.77125,	-10394
▁2.82025,	-10395
▁2.83475,	-10396
▁2.84125,	-10397
▁2.85975,	-10398
▁2.88275,	-10399
dễ	-10400
hỗ	-10401
tờ	-10402
vũ	-10403
huy	-10404
hỗn	-10405
khả	-10406
tùy	-10407
đen	-10408
▁ni	-10409
▁vơ	-10410
▁xo	-10411
đọng	-10412
▁han	-10413
▁hờn	-10414
▁xoa	-10415
/228.	-10416
/272.	-10417
/290.	-10418
/558.	-10419
/583.	-10420
/613.	-10421
/959.	-10422
nhiệt	-10423
▁1.20	-10424
▁3.3,	-10425
▁lúng	-10426
/1034.	-10427
/1079.	-10428
/1173.	-10429
/1484.	-10430
/1556.	-10431
/1568.	-10432
/1577.	-10433
/1632.	-10434
/1642.	-10435
/1867.	-10436
/1957.	-10437
/2016.	-10438
/2113.	-10439
/2215.	-10440
/2568.	-10441
/2689.	-10442
/2740.	-10443
/2773.	-10444
/2803.	-10445
/2842.	-10446
/3053.	-10447
/3269.	-10448
/3403.	-10449
/3540.	-10450
/3711.	-10451
/3712.	-10452
/3841.	-10453
/3858.	-10454
/3860.	-10455
/3904.	-10456
/4049.	-10457
/4067.	-10458
/4298.	-10459
/4495.	-10460
/4564.	-10461
/4847.	-10462
/5349.	-10463
/5473.	-10464
/5557.	-10465
/5577.	-10466
/5582.	-10467
/5590.	-10468
/5692.	-10469
/5721.	-10470
/5858.	-10471
/6092.	-10472
/6125.	-10473
/6150.	-10474
/6237.	-10475
/6280.	-10476
/6289.	-10477
/6319.	-10478
/6411.	-10479
/6495.	-10480
/6857.	-10481
/6900.	-10482
/7089.	-10483
/7145.	-10484
/7305.	-10485
/7322.	-10486
▁1.790	-10487
▁1.207,	-10488
▁2.68025,	-10489
▁2.90075,	-10490
▁2.90275,	-10491
▁2.91675,	-10492
▁2.96025,	-10493
▁2.98025,	-10494
▁3.04175,	-10495
▁3.05975,	-10496
▁3.06075,	-10497
▁3.09625,	-10498
▁3.10025,	-10499
ìa	-10500
chí	-10501
dây	-10502
rời	-10503
sâu	-10504
▁hư	-10505
▁đò	-10506
/46.	-10507
dược	-10508
rừng	-10509
▁ken	-10510
▁trệ	-10511
/152.	-10512
/304.	-10513
/306.	-10514
/445.	-10515
/478.	-10516
/499.	-10517
/511.	-10518
/567.	-10519
/645.	-10520
/660.	-10521
/753.	-10522
/960.	-10523
xương	-10524
▁chìa	-10525
▁gàng	-10526
▁lưỡi	-10527
▁tiêm	-10528
/1041.	-10529
/1186.	-10530
/1312.	-10531
/1315.	-10532
/1638.	-10533
/1751.	-10534
/1872.	-10535
/2107.	-10536
/2275.	-10537
/2302.	-10538
/2343.	-10539
/2448.	-10540
/2772.	-10541
/3103.	-10542
/3301.	-10543
/3308.	-10544
/3507.	-10545
/3519.	-10546
/3870.	-10547
/3896.	-10548
/3911.	-10549
/4051.	-10550
/4055.	-10551
/4165.	-10552
/4257.	-10553
/4749.	-10554
/4764.	-10555
/4916.	-10556
/5037.	-10557
/5051.	-10558
/5234.	-10559
/5284.	-10560
/5335.	-10561
/5442.	-10562
/5528.	-10563
/5612.	-10564
/5614.	-10565
/5793.	-10566
/5860.	-10567
/5973.	-10568
/6101.	-10569
/6183.	-10570
/6350.	-10571
/6599.	-10572
/6642.	-10573
/6665.	-10574
/6756.	-10575
/6780.	-10576
/6794.	-10577
/6861.	-10578
/6908.	-10579
/6940.	-10580
/7175.	-10581
/7428.	-10582
▁1.739	-10583
▁1.846	-10584
▁3.66,	-10585
▁chiêu	-10586
▁khổng	-10587
▁ngông	-10588
▁0.949,	-10589
▁3.13425,	-10590
▁3.14125,	-10591
▁3.15825,	-10592
▁3.19625,	-10593
▁3.20175,	-10594
▁3.22175,	-10595
▁3.26225,	-10596
▁3.30025,	-10597
▁3.34275,	-10598
▁3.37025,	-10599
cá	-10600
dụ	-10601
vi	-10602
/1.	-10603
/6.	-10604
hẹp	-10605
mùa	-10606
▁dĩ	-10607
▁hò	-10608
▁lợ	-10609
885,	-10610
sang	-10611
▁dẹt	-10612
▁lợm	-10613
▁phơ	-10614
▁thò	-10615
/158.	-10616
/295.	-10617
/425.	-10618
/438.	-10619
/538.	-10620
/560.	-10621
/581.	-10622
/599.	-10623
/683.	-10624
/713.	-10625
/919.	-10626
▁huân	-10627
▁ngải	-10628
▁nhàn	-10629
/1060.	-10630
/1440.	-10631
/1445.	-10632
/1544.	-10633
/1766.	-10634
/1804.	-10635
/2063.	-10636
/2079.	-10637
/2223.	-10638
/2346.	-10639
/2397.	-10640
/2469.	-10641
/2564.	-10642
/2678.	-10643
/2798.	-10644
/2833.	-10645
/2909.	-10646
/2967.	-10647
/3049.	-10648
/3105.	-10649
/3598.	-10650
/3599.	-10651
/3802.	-10652
/3873.	-10653
/3881.	-10654
/4037.	-10655
/4127.	-10656
/4299.	-10657
/4363.	-10658
/4439.	-10659
/4535.	-10660
/4574.	-10661
/4594.	-10662
/4853.	-10663
/4855.	-10664
/5004.	-10665
/5062.	-10666
/5289.	-10667
/5362.	-10668
/5681.	-10669
/5738.	-10670
/5792.	-10671
/5886.	-10672
/5919.	-10673
/5929.	-10674
/5947.	-10675
/5999.	-10676
/6293.	-10677
/6593.	-10678
/6604.	-10679
/6891.	-10680
/6895.	-10681
/6963.	-10682
/7041.	-10683
/7215.	-10684
/7341.	-10685
/7346.	-10686
/7469.	-10687
31375,	-10688
890625,	-10689
▁1.8885,	-10690
▁3.39825,	-10691
▁3.40225,	-10692
▁3.40275,	-10693
▁3.42125,	-10694
▁3.43025,	-10695
▁3.44175,	-10696
▁3.47325,	-10697
▁3.47975,	-10698
▁3.49825,	-10699
mổ	-10700
mỹ	-10701
ừu	-10702
chở	-10703
sực	-10704
▁bẽ	-10705
▁cò	-10706
▁tễ	-10707
/81.	-10708
/83.	-10709
/93.	-10710
/95.	-10711
hóng	-10712
▁bốn	-10713
▁cừu	-10714
▁hái	-10715
▁rán	-10716
▁rợp	-10717
▁uất	-10718
▁víu	-10719
▁đun	-10720
/154.	-10721
/268.	-10722
/345.	-10723
/463.	-10724
/545.	-10725
/699.	-10726
/741.	-10727
/751.	-10728
/805.	-10729
/917.	-10730
▁ngộp	-10731
▁tễnh	-10732
/1096.	-10733
/1158.	-10734
/1196.	-10735
/1291.	-10736
/1637.	-10737
/1672.	-10738
/1741.	-10739
/1862.	-10740
/1908.	-10741
/2299.	-10742
/2643.	-10743
/2645.	-10744
/2972.	-10745
/3090.	-10746
/3214.	-10747
/3271.	-10748
/3312.	-10749
/3329.	-10750
/3804.	-10751
/3820.	-10752
/3913.	-10753
/4069.	-10754
/4266.	-10755
/4351.	-10756
/4473.	-10757
/4510.	-10758
/4511.	-10759
/4589.	-10760
/4611.	-10761
/4860.	-10762
/5336.	-10763
/5469.	-10764
/5501.	-10765
/5529.	-10766
/5563.	-10767
/5872.	-10768
/5897.	-10769
/6153.	-10770
/6548.	-10771
/6552.	-10772
/6569.	-10773
/6755.	-10774
/6830.	-10775
/7097.	-10776
/7148.	-10777
/7185.	-10778
/7381.	-10779
/7456.	-10780
18125,	-10781
52875,	-10782
▁1.679	-10783
▁khiết	-10784
▁2.218,	-10785
▁2.291,	-10786
▁3.279,	-10787
▁3.9815,	-10788
▁3.08125,	-10789
▁3.50125,	-10790
▁3.52075,	-10791
▁3.54125,	-10792
▁3.54275,	-10793
▁3.70125,	-10794
▁3.71825,	-10795
▁3.72225,	-10796
▁3.74225,	-10797
▁3.76075,	-10798
▁3.76125,	-10799
gà	-10800
vệ	-10801
độ	-10802
quê	-10803
▁ủa	-10804
/17.	-10805
/21.	-10806
/51.	-10807
/67.	-10808
▁gai	-10809
▁rôm	-10810
▁ven	-10811
▁vía	-10812
/113.	-10813
/242.	-10814
/255.	-10815
/593.	-10816
/625.	-10817
/761.	-10818
/766.	-10819
/818.	-10820
/969.	-10821
▁nhạo	-10822
▁phao	-10823
/1056.	-10824
/1071.	-10825
/1133.	-10826
/1192.	-10827
/1374.	-10828
/1456.	-10829
/1616.	-10830
/1663.	-10831
/1748.	-10832
/1757.	-10833
/1788.	-10834
/1961.	-10835
/2044.	-10836
/2692.	-10837
/2748.	-10838
/2825.	-10839
/2855.	-10840
/2877.	-10841
/2881.	-10842
/3347.	-10843
/3385.	-10844
/3476.	-10845
/3563.	-10846
/3614.	-10847
/3666.	-10848
/3694.	-10849
/3861.	-10850
/3939.	-10851
/4120.	-10852
/4195.	-10853
/4310.	-10854
/4315.	-10855
/4321.	-10856
/4385.	-10857
/4566.	-10858
/4619.	-10859
/4735.	-10860
/4998.	-10861
/5203.	-10862
/5770.	-10863
/5961.	-10864
/5980.	-10865
/6028.	-10866
/6075.	-10867
/6203.	-10868
/6235.	-10869
/6347.	-10870
/6464.	-10871
/6493.	-10872
/6533.	-10873
/6864.	-10874
/6867.	-10875
/7081.	-10876
/7129.	-10877
/7347.	-10878
/7494.	-10879
▁3.839	-10880
▁2.097,	-10881
▁2.101,	-10882
▁2.71875,	-10883
▁3.86125,	-10884
▁3.88175,	-10885
▁3.92175,	-10886
▁3.94275,	-10887
▁4.00225,	-10888
▁4.08075,	-10889
▁4.14075,	-10890
▁4.25675,	-10891
▁4.28075,	-10892
▁4.35575,	-10893
▁4.46175,	-10894
▁4.50275,	-10895
▁4.56075,	-10896
▁4.68125,	-10897
▁5.42175,	-10898
▁5.46075,	-10899
kẻ	-10900
khí	-10901
ngô	-10902
ngũ	-10903
đảo	-10904
▁tở	-10905
▁ếm	-10906
/87.	-10907
dũng	-10908
khối	-10909
tiễn	-10910
tuần	-10911
▁gắt	-10912
▁nhả	-10913
▁tấu	-10914
▁tởm	-10915
▁vạt	-10916
▁xui	-10917
/249.	-10918
/257.	-10919
/408.	-10920
/457.	-10921
/577.	-10922
/813.	-10923
/951.	-10924
5875,	-10925
▁khuê	-10926
▁nhện	-10927
/1030.	-10928
/1036.	-10929
/1094.	-10930
/1241.	-10931
/1352.	-10932
/1366.	-10933
/1460.	-10934
/1492.	-10935
/1505.	-10936
/1535.	-10937
/1644.	-10938
/1755.	-10939
/1875.	-10940
/1876.	-10941
/2014.	-10942
/2112.	-10943
/2164.	-10944
/2235.	-10945
/2314.	-10946
/2354.	-10947
/2553.	-10948
/2577.	-10949
/2633.	-10950
/2790.	-10951
/2827.	-10952
/2873.	-10953
/2874.	-10954
/2945.	-10955
/3010.	-10956
/3318.	-10957
/3557.	-10958
/3646.	-10959
/3955.	-10960
/4053.	-10961
/4183.	-10962
/4318.	-10963
/4364.	-10964
/4397.	-10965
/4481.	-10966
/4541.	-10967
/4627.	-10968
/4660.	-10969
/4751.	-10970
/4757.	-10971
/4934.	-10972
/4958.	-10973
/5023.	-10974
/5355.	-10975
/5396.	-10976
/5581.	-10977
/5678.	-10978
/5758.	-10979
/5954.	-10980
/6145.	-10981
/6213.	-10982
/6360.	-10983
/6558.	-10984
/6767.	-10985
/6838.	-10986
/6999.	-10987
/7042.	-10988
/7113.	-10989
/7165.	-10990
/7265.	-10991
32375,	-10992
▁1.839	-10993
▁phàng	-10994
▁1.83925,	-10995
▁2.17925,	-10996
▁3.11425,	-10997
▁6.19425,	-10998
▁1.014375,	-10999
mỡ	-11000
sĩ	-11001
đả	-11002
ễu	-11003
ọp	-11004
son	-11005
/31.	-11006
giấc	-11007
khái	-11008
trôi	-11009
▁bít	-11010
▁bủa	-11011
▁cọp	-11012
▁thô	-11013
/114.	-11014
/179.	-11015
/232.	-11016
/321.	-11017
/475.	-11018
/508.	-11019
/517.	-11020
/555.	-11021
/670.	-11022
/739.	-11023
/800.	-11024
/866.	-11025
/955.	-11026
▁0.80	-11027
▁bưng	-11028
▁liễu	-11029
▁luồn	-11030
▁truy	-11031
/1089.	-11032
/1157.	-11033
/1253.	-11034
/1516.	-11035
/1864.	-11036
/1928.	-11037
/2009.	-11038
/2342.	-11039
/2631.	-11040
/2670.	-11041
/2756.	-11042
/2886.	-11043
/2990.	-11044
/3031.	-11045
/3034.	-11046
/3080.	-11047
/3121.	-11048
/3192.	-11049
/3401.	-11050
/3645.	-11051
/3655.	-11052
/3668.	-11053
/3671.	-11054
/3706.	-11055
/3724.	-11056
/3776.	-11057
/4017.	-11058
/4038.	-11059
/4598.	-11060
/4656.	-11061
/4893.	-11062
/5102.	-11063
/5182.	-11064
/5200.	-11065
/5206.	-11066
/5539.	-11067
/5556.	-11068
/5665.	-11069
/5670.	-11070
/5718.	-11071
/5850.	-11072
/5985.	-11073
/6001.	-11074
/6129.	-11075
/6248.	-11076
/6743.	-11077
/6921.	-11078
/6962.	-11079
/7021.	-11080
/7070.	-11081
/7324.	-11082
/7397.	-11083
▁1.999	-11084
▁2.798	-11085
▁2.419,	-11086
▁0.8055,	-11087
▁3.4425,	-11088
▁1.052375,	-11089
▁1.145625,	-11090
▁1.189625,	-11091
▁1.192875,	-11092
▁1.193375,	-11093
▁1.194125,	-11094
▁1.235125,	-11095
▁1.255375,	-11096
▁1.269875,	-11097
▁1.292875,	-11098
▁1.335625,	-11099
ca	-11100
kệ	-11101
õn	-11102
đô	-11103
bọc	-11104
cãi	-11105
tra	-11106
▁ve	-11107
/20.	-11108
lùng	-11109
nghệ	-11110
▁bến	-11111
▁dẫu	-11112
▁hân	-11113
▁nõn	-11114
/102.	-11115
/107.	-11116
/117.	-11117
/298.	-11118
/480.	-11119
/512.	-11120
/596.	-11121
/628.	-11122
/944.	-11123
▁trằn	-11124
/1011.	-11125
/1092.	-11126
/1342.	-11127
/1543.	-11128
/1675.	-11129
/1681.	-11130
/1732.	-11131
/1963.	-11132
/2704.	-11133
/2732.	-11134
/2794.	-11135
/2948.	-11136
/3064.	-11137
/3182.	-11138
/3391.	-11139
/3740.	-11140
/3742.	-11141
/3778.	-11142
/3788.	-11143
/3898.	-11144
/3912.	-11145
/4137.	-11146
/4208.	-11147
/4521.	-11148
/4676.	-11149
/4747.	-11150
/4864.	-11151
/4869.	-11152
/5041.	-11153
/5057.	-11154
/5075.	-11155
/5157.	-11156
/5168.	-11157
/5173.	-11158
/5342.	-11159
/5452.	-11160
/5547.	-11161
/5663.	-11162
/5668.	-11163
/5688.	-11164
/5695.	-11165
/5711.	-11166
/5735.	-11167
/5753.	-11168
/5776.	-11169
/5851.	-11170
/5871.	-11171
/5982.	-11172
/6024.	-11173
/6222.	-11174
/6245.	-11175
/6268.	-11176
/6345.	-11177
/6551.	-11178
/6751.	-11179
/6851.	-11180
/6948.	-11181
/6965.	-11182
/7152.	-11183
/7192.	-11184
/7394.	-11185
▁2.329	-11186
▁2.2955,	-11187
▁1.81675,	-11188
▁2.12825,	-11189
▁3.02075,	-11190
▁1.352625,	-11191
▁1.373875,	-11192
▁1.374875,	-11193
▁1.391375,	-11194
▁1.391625,	-11195
▁1.413625,	-11196
▁1.446625,	-11197
▁1.447875,	-11198
▁1.454875,	-11199
cư	-11200
ịn	-11201
▁ả	-11202
cán	-11203
non	-11204
nội	-11205
phù	-11206
thử	-11207
▁tể	-11208
/12.	-11209
▁cua	-11210
▁hớn	-11211
▁khế	-11212
▁lạt	-11213
▁mịn	-11214
/300.	-11215
/393.	-11216
/401.	-11217
/614.	-11218
/654.	-11219
/687.	-11220
/729.	-11221
/848.	-11222
/869.	-11223
/870.	-11224
/894.	-11225
▁nhạn	-11226
▁rưỡi	-11227
▁thắm	-11228
/1042.	-11229
/1127.	-11230
/1141.	-11231
/1167.	-11232
/1412.	-11233
/1550.	-11234
/2040.	-11235
/2157.	-11236
/2267.	-11237
/2276.	-11238
/2446.	-11239
/2511.	-11240
/2521.	-11241
/2540.	-11242
/2582.	-11243
/2840.	-11244
/2957.	-11245
/3171.	-11246
/3243.	-11247
/3304.	-11248
/3593.	-11249
/3596.	-11250
/3664.	-11251
/3716.	-11252
/3747.	-11253
/3754.	-11254
/4048.	-11255
/4182.	-11256
/4204.	-11257
/4274.	-11258
/4341.	-11259
/4509.	-11260
/4750.	-11261
/4775.	-11262
/4786.	-11263
/4811.	-11264
/4902.	-11265
/5372.	-11266
/5426.	-11267
/5646.	-11268
/5816.	-11269
/5852.	-11270
/5869.	-11271
/6066.	-11272
/6097.	-11273
/6219.	-11274
/6240.	-11275
/6281.	-11276
/6349.	-11277
/6373.	-11278
/6535.	-11279
/6583.	-11280
/6606.	-11281
/6677.	-11282
/6693.	-11283
/6840.	-11284
/6863.	-11285
/6951.	-11286
96625,	-11287
▁2.249	-11288
▁2.253	-11289
▁2.318,	-11290
▁1.456875,	-11291
▁1.471875,	-11292
▁1.473875,	-11293
▁1.476625,	-11294
▁1.494625,	-11295
▁1.495625,	-11296
▁1.510375,	-11297
▁1.511875,	-11298
▁1.513125,	-11299
▁o	-11300
/5.	-11301
dạy	-11302
tấn	-11303
▁bá	-11304
▁bẻ	-11305
/56.	-11306
/90.	-11307
thơm	-11308
đảng	-11309
▁cạm	-11310
▁mải	-11311
▁nhũ	-11312
▁rải	-11313
▁tan	-11314
▁đần	-11315
/319.	-11316
/326.	-11317
/359.	-11318
/365.	-11319
/464.	-11320
/574.	-11321
/594.	-11322
/689.	-11323
/756.	-11324
/846.	-11325
/922.	-11326
/954.	-11327
/964.	-11328
▁6.17	-11329
▁oanh	-11330
/1040.	-11331
/1211.	-11332
/1322.	-11333
/1356.	-11334
/1558.	-11335
/1564.	-11336
/1671.	-11337
/1814.	-11338
/1937.	-11339
/1985.	-11340
/2242.	-11341
/2251.	-11342
/2357.	-11343
/2368.	-11344
/2449.	-11345
/2552.	-11346
/2664.	-11347
/2822.	-11348
/2998.	-11349
/3236.	-11350
/3267.	-11351
/3296.	-11352
/3305.	-11353
/3359.	-11354
/3752.	-11355
/3875.	-11356
/3963.	-11357
/4021.	-11358
/4145.	-11359
/4206.	-11360
/4360.	-11361
/4601.	-11362
/4654.	-11363
/4725.	-11364
/4755.	-11365
/4767.	-11366
/4819.	-11367
/4966.	-11368
/5134.	-11369
/5261.	-11370
/5333.	-11371
/5423.	-11372
/5449.	-11373
/5699.	-11374
/5817.	-11375
/6023.	-11376
/7063.	-11377
/7068.	-11378
/7331.	-11379
/7377.	-11380
/7458.	-11381
▁2.259	-11382
986875,	-11383
▁1.534,	-11384
▁choáng	-11385
▁1.5545,	-11386
▁2.85625,	-11387
▁1.535625,	-11388
▁1.542375,	-11389
▁1.556875,	-11390
▁1.558375,	-11391
▁1.562375,	-11392
▁1.576875,	-11393
▁1.579625,	-11394
▁1.590625,	-11395
▁1.594375,	-11396
▁1.596875,	-11397
▁1.607625,	-11398
▁1.611625,	-11399
hỡ	-11400
căn	-11401
hỡi	-11402
ngã	-11403
ngộ	-11404
tái	-11405
▁mỡ	-11406
▁tạ	-11407
▁tỉ	-11408
khen	-11409
▁bột	-11410
▁hươ	-11411
▁rủa	-11412
▁the	-11413
▁xen	-11414
/197.	-11415
/217.	-11416
/252.	-11417
/402.	-11418
/404.	-11419
/413.	-11420
/420.	-11421
/441.	-11422
/518.	-11423
/659.	-11424
/887.	-11425
/927.	-11426
/961.	-11427
/975.	-11428
▁chao	-11429
▁hươu	-11430
▁lanh	-11431
▁mượn	-11432
▁quắt	-11433
/1002.	-11434
/1515.	-11435
/1764.	-11436
/1840.	-11437
/2029.	-11438
/2032.	-11439
/2124.	-11440
/2248.	-11441
/2315.	-11442
/2333.	-11443
/2783.	-11444
/2903.	-11445
/2928.	-11446
/2941.	-11447
/2966.	-11448
/2971.	-11449
/3070.	-11450
/3186.	-11451
/3209.	-11452
/3362.	-11453
/3644.	-11454
/3863.	-11455
/3950.	-11456
/4205.	-11457
/4561.	-11458
/4718.	-11459
/5053.	-11460
/5118.	-11461
/5262.	-11462
/5270.	-11463
/5319.	-11464
/5343.	-11465
/5414.	-11466
/5420.	-11467
/5466.	-11468
/5674.	-11469
/5715.	-11470
/5808.	-11471
/5915.	-11472
/6168.	-11473
/6269.	-11474
/6370.	-11475
/6547.	-11476
/6588.	-11477
/6806.	-11478
/6953.	-11479
/7060.	-11480
/7067.	-11481
/7141.	-11482
/7193.	-11483
nghiện	-11484
▁2.489	-11485
▁1.5965,	-11486
▁4.3215,	-11487
▁2.22075,	-11488
▁2.71075,	-11489
▁1.620625,	-11490
▁1.631125,	-11491
▁1.639125,	-11492
▁1.653375,	-11493
▁1.672375,	-11494
▁1.672625,	-11495
▁1.679875,	-11496
▁1.690125,	-11497
▁1.700375,	-11498
▁1.710125,	-11499
nho	-11500
nhé	-11501
▁lô	-11502
▁mí	-11503
▁mũ	-11504
▁tỷ	-11505
▁đả	-11506
/92.	-11507
khăn	-11508
linh	-11509
nghỉ	-11510
quán	-11511
quằn	-11512
sững	-11513
thản	-11514
▁gột	-11515
▁lân	-11516
▁mím	-11517
▁mặn	-11518
▁quỷ	-11519
/254.	-11520
/267.	-11521
/284.	-11522
/356.	-11523
/491.	-11524
/681.	-11525
/711.	-11526
/737.	-11527
/853.	-11528
▁2.19	-11529
▁cảng	-11530
▁hoạn	-11531
▁luân	-11532
▁phẫn	-11533
▁sình	-11534
/1055.	-11535
/1142.	-11536
/1275.	-11537
/1284.	-11538
/1298.	-11539
/1526.	-11540
/1699.	-11541
/2047.	-11542
/2146.	-11543
/2183.	-11544
/2319.	-11545
/2364.	-11546
/2560.	-11547
/2585.	-11548
/2795.	-11549
/2854.	-11550
/3107.	-11551
/3311.	-11552
/3365.	-11553
/3377.	-11554
/3458.	-11555
/3481.	-11556
/3793.	-11557
/3953.	-11558
/3989.	-11559
/4352.	-11560
/4812.	-11561
/4889.	-11562
/5047.	-11563
/5154.	-11564
/5163.	-11565
/5318.	-11566
/5576.	-11567
/5578.	-11568
/5863.	-11569
/5951.	-11570
/5979.	-11571
/6178.	-11572
/6355.	-11573
/6782.	-11574
/6812.	-11575
/6854.	-11576
/6918.	-11577
/6964.	-11578
/7079.	-11579
/7123.	-11580
/7270.	-11581
/7349.	-11582
▁3.902	-11583
▁xương	-11584
103125,	-11585
▁nghiện	-11586
▁1.4705,	-11587
▁2.19425,	-11588
▁2.89875,	-11589
▁2.93125,	-11590
▁1.714875,	-11591
▁1.718875,	-11592
▁1.719375,	-11593
▁1.732875,	-11594
▁1.739625,	-11595
▁1.750375,	-11596
▁1.752875,	-11597
▁1.757625,	-11598
▁1.759625,	-11599
vỡ	-11600
/2.	-11601
nối	-11602
phì	-11603
▁lơ	-11604
▁lọ	-11605
▁mờ	-11606
▁đỗ	-11607
/11.	-11608
/23.	-11609
975,	-11610
▁mon	-11611
/338.	-11612
/400.	-11613
/423.	-11614
/449.	-11615
/469.	-11616
/519.	-11617
/585.	-11618
/677.	-11619
/680.	-11620
/734.	-11621
/874.	-11622
/915.	-11623
▁cang	-11624
▁quặp	-11625
▁riết	-11626
/1013.	-11627
/1043.	-11628
/1301.	-11629
/1328.	-11630
/1354.	-11631
/1601.	-11632
/1787.	-11633
/1839.	-11634
/1899.	-11635
/1996.	-11636
/2035.	-11637
/2363.	-11638
/2673.	-11639
/2750.	-11640
/2856.	-11641
/2963.	-11642
/3052.	-11643
/3060.	-11644
/3443.	-11645
/3466.	-11646
/3669.	-11647
/3903.	-11648
/3941.	-11649
/4129.	-11650
/4160.	-11651
/4189.	-11652
/4425.	-11653
/4490.	-11654
/4670.	-11655
/4823.	-11656
/4883.	-11657
/5150.	-11658
/5175.	-11659
/5347.	-11660
/5365.	-11661
/5367.	-11662
/5439.	-11663
/5545.	-11664
/6041.	-11665
/6225.	-11666
/6365.	-11667
/6587.	-11668
/6897.	-11669
/6931.	-11670
/7003.	-11671
/7169.	-11672
/7259.	-11673
/7261.	-11674
/7315.	-11675
/7325.	-11676
/7364.	-11677
/7379.	-11678
/7464.	-11679
▁triệt	-11680
300625,	-11681
5008125,	-11682
▁2.4975,	-11683
▁1.653625,	-11684
▁1.760125,	-11685
▁1.792875,	-11686
▁1.794125,	-11687
▁1.797625,	-11688
▁1.816375,	-11689
▁1.835875,	-11690
▁1.837125,	-11691
▁1.837875,	-11692
▁1.858625,	-11693
▁1.866375,	-11694
▁1.874125,	-11695
▁1.875625,	-11696
▁1.875875,	-11697
▁1.879125,	-11698
▁1.880125,	-11699
sai	-11700
▁bê	-11701
▁bì	-11702
▁bõ	-11703
/69.	-11704
kiên	-11705
▁cấn	-11706
▁dán	-11707
▁nhó	-11708
▁nhẽ	-11709
▁san	-11710
▁thớ	-11711
▁trá	-11712
▁vịn	-11713
/211.	-11714
/334.	-11715
/468.	-11716
/504.	-11717
/556.	-11718
/561.	-11719
/582.	-11720
/592.	-11721
/636.	-11722
/646.	-11723
/708.	-11724
/791.	-11725
/842.	-11726
/932.	-11727
▁tanh	-11728
▁tòng	-11729
/1190.	-11730
/1200.	-11731
/1392.	-11732
/1539.	-11733
/1635.	-11734
/1873.	-11735
/2674.	-11736
/2818.	-11737
/2892.	-11738
/3028.	-11739
/3040.	-11740
/3131.	-11741
/3197.	-11742
/3256.	-11743
/3294.	-11744
/3745.	-11745
/4002.	-11746
/4135.	-11747
/4141.	-11748
/4146.	-11749
/4314.	-11750
/4329.	-11751
/4403.	-11752
/4479.	-11753
/4546.	-11754
/4731.	-11755
/4756.	-11756
/4772.	-11757
/5114.	-11758
/5369.	-11759
/5381.	-11760
/5386.	-11761
/5626.	-11762
/5658.	-11763
/5747.	-11764
/5926.	-11765
/5994.	-11766
/6161.	-11767
/6181.	-11768
/6253.	-11769
/6364.	-11770
/6426.	-11771
/6435.	-11772
/6506.	-11773
/6537.	-11774
/6702.	-11775
/6883.	-11776
/6944.	-11777
/7046.	-11778
/7076.	-11779
/7172.	-11780
/7231.	-11781
/7366.	-11782
ngưỡng	-11783
▁2.791	-11784
▁chừng	-11785
▁1.7955,	-11786
▁2.01875,	-11787
▁1.394625,	-11788
▁1.587875,	-11789
▁1.894125,	-11790
▁1.899125,	-11791
▁1.907625,	-11792
▁1.915875,	-11793
▁1.916875,	-11794
▁1.935875,	-11795
▁1.936375,	-11796
▁1.939875,	-11797
▁1.940125,	-11798
▁1.940375,	-11799
mập	-11800
▁nộ	-11801
/16.	-11802
/77.	-11803
▁bứt	-11804
▁húp	-11805
▁mơn	-11806
▁rắc	-11807
▁túc	-11808
/189.	-11809
/310.	-11810
/340.	-11811
/520.	-11812
/665.	-11813
/722.	-11814
/828.	-11815
/851.	-11816
/860.	-11817
thiện	-11818
▁3.1,	-11819
▁hiếm	-11820
▁ngao	-11821
▁nhặt	-11822
▁viền	-11823
▁vong	-11824
/1033.	-11825
/1152.	-11826
/1226.	-11827
/1357.	-11828
/1363.	-11829
/1381.	-11830
/1409.	-11831
/1490.	-11832
/1493.	-11833
/1502.	-11834
/1790.	-11835
/1902.	-11836
/1960.	-11837
/1966.	-11838
/2012.	-11839
/2175.	-11840
/2352.	-11841
/2473.	-11842
/2647.	-11843
/2690.	-11844
/2739.	-11845
/2838.	-11846
/2951.	-11847
/2991.	-11848
/3140.	-11849
/3159.	-11850
/3251.	-11851
/3328.	-11852
/3413.	-11853
/3618.	-11854
/4355.	-11855
/4383.	-11856
/4668.	-11857
/4730.	-11858
/4815.	-11859
/5065.	-11860
/5088.	-11861
/5124.	-11862
/5366.	-11863
/5624.	-11864
/5669.	-11865
/5779.	-11866
/5806.	-11867
/5943.	-11868
/5958.	-11869
/6049.	-11870
/6102.	-11871
/6216.	-11872
/6401.	-11873
/6538.	-11874
/6655.	-11875
/6658.	-11876
/6836.	-11877
/7051.	-11878
/7103.	-11879
/7107.	-11880
/7110.	-11881
/7151.	-11882
▁1.435	-11883
▁thoạt	-11884
▁2.321,	-11885
▁2.435,	-11886
▁2.801,	-11887
▁2.6195,	-11888
▁3.18125,	-11889
▁3.62075,	-11890
▁1.956375,	-11891
▁1.957875,	-11892
▁1.960875,	-11893
▁1.976875,	-11894
▁1.995125,	-11895
▁2.001125,	-11896
▁2.007375,	-11897
▁2.012875,	-11898
▁2.014875,	-11899
đá	-11900
▁ờ	-11901
/0.	-11902
gìn	-11903
tục	-11904
▁ưa	-11905
trải	-11906
trầm	-11907
tung	-11908
▁cậy	-11909
▁rắn	-11910
▁tụy	-11911
▁vắc	-11912
/147.	-11913
/200.	-11914
/286.	-11915
/362.	-11916
/383.	-11917
/506.	-11918
/532.	-11919
/706.	-11920
/984.	-11921
▁giam	-11922
▁thổn	-11923
▁tằng	-11924
/1164.	-11925
/1197.	-11926
/1254.	-11927
/1282.	-11928
/1351.	-11929
/1430.	-11930
/1514.	-11931
/1666.	-11932
/1745.	-11933
/1885.	-11934
/2028.	-11935
/2034.	-11936
/2097.	-11937
/2160.	-11938
/2210.	-11939
/2252.	-11940
/2264.	-11941
/2306.	-11942
/2365.	-11943
/2467.	-11944
/2559.	-11945
/2925.	-11946
/3003.	-11947
/3007.	-11948
/3065.	-11949
/3199.	-11950
/3248.	-11951
/3274.	-11952
/3345.	-11953
/3375.	-11954
/3461.	-11955
/3572.	-11956
/3744.	-11957
/3818.	-11958
/3824.	-11959
/3880.	-11960
/3962.	-11961
/4259.	-11962
/4485.	-11963
/4512.	-11964
/4545.	-11965
/4556.	-11966
/4571.	-11967
/4666.	-11968
/4829.	-11969
/5043.	-11970
/5052.	-11971
/5180.	-11972
/5761.	-11973
/5798.	-11974
/5891.	-11975
/6085.	-11976
/6276.	-11977
/6594.	-11978
/6738.	-11979
/6926.	-11980
/7077.	-11981
/7266.	-11982
/7342.	-11983
/7429.	-11984
/7470.	-11985
/7493.	-11986
▁1.695,	-11987
▁3.561,	-11988
▁4.6815,	-11989
▁1.23625,	-11990
▁2.33375,	-11991
▁2.71775,	-11992
▁1.276625,	-11993
▁1.939375,	-11994
▁2.016125,	-11995
▁2.027625,	-11996
▁2.035125,	-11997
▁2.036375,	-11998
▁2.040625,	-11999
bầu	-12000
càn	-12001
cải	-12002
dầu	-12003
gạt	-12004
hàn	-12005
/75.	-12006
/89.	-12007
chăn	-12008
chậu	-12009
hồng	-12010
lồng	-12011
ngầu	-12012
nhăn	-12013
ninh	-12014
trăn	-12015
đùng	-12016
▁dời	-12017
▁lăn	-12018
▁nêu	-12019
▁sắm	-12020
/168.	-12021
/190.	-12022
/230.	-12023
/378.	-12024
/540.	-12025
/642.	-12026
/697.	-12027
/838.	-12028
/940.	-12029
/946.	-12030
chuột	-12031
chống	-12032
tường	-12033
▁chấn	-12034
▁mùng	-12035
▁ngẩn	-12036
▁nhục	-12037
▁rồng	-12038
▁thóc	-12039
▁điêu	-12040
/1017.	-12041
/1037.	-12042
/1063.	-12043
/1227.	-12044
/1344.	-12045
/1781.	-12046
/1901.	-12047
/2084.	-12048
/2189.	-12049
/2277.	-12050
/2517.	-12051
/2728.	-12052
/2869.	-12053
/2944.	-12054
/3077.	-12055
/3141.	-12056
/3368.	-12057
/3475.	-12058
/3617.	-12059
/3843.	-12060
/3960.	-12061
/3981.	-12062
/4391.	-12063
/4550.	-12064
/4559.	-12065
/4616.	-12066
/4715.	-12067
/4891.	-12068
/4967.	-12069
/5003.	-12070
/5256.	-12071
/5548.	-12072
/5645.	-12073
/5730.	-12074
/5746.	-12075
/5778.	-12076
/5906.	-12077
/6110.	-12078
/6140.	-12079
/6241.	-12080
/6372.	-12081
/6540.	-12082
/6651.	-12083
/6654.	-12084
/6741.	-12085
/6821.	-12086
/7037.	-12087
/7252.	-12088
/7361.	-12089
/7415.	-12090
/7455.	-12091
▁nghêu	-12092
▁thùng	-12093
▁1.1545,	-12094
▁3.36275,	-12095
▁2.051625,	-12096
▁2.056875,	-12097
▁2.071625,	-12098
▁2.078875,	-12099
bơi	-12100
cắt	-12101
vữa	-12102
chữa	-12103
kính	-12104
luật	-12105
lính	-12106
quản	-12107
tiến	-12108
▁hoi	-12109
▁háo	-12110
▁hấn	-12111
▁hức	-12112
▁mốc	-12113
▁sút	-12114
▁túm	-12115
▁tỏi	-12116
▁vơi	-12117
/342.	-12118
/466.	-12119
/467.	-12120
/487.	-12121
/637.	-12122
/714.	-12123
/885.	-12124
/945.	-12125
▁cháo	-12126
▁chỉn	-12127
▁hoay	-12128
▁muôn	-12129
▁thẫn	-12130
▁vênh	-12131
/1135.	-12132
/1415.	-12133
/1420.	-12134
/1688.	-12135
/1712.	-12136
/1746.	-12137
/1836.	-12138
/1958.	-12139
/2122.	-12140
/2135.	-12141
/2149.	-12142
/2245.	-12143
/2262.	-12144
/2510.	-12145
/2535.	-12146
/2544.	-12147
/2548.	-12148
/2627.	-12149
/2676.	-12150
/2705.	-12151
/2821.	-12152
/2837.	-12153
/3026.	-12154
/3176.	-12155
/3263.	-12156
/3474.	-12157
/3544.	-12158
/3546.	-12159
/3726.	-12160
/3750.	-12161
/3760.	-12162
/4004.	-12163
/4105.	-12164
/4140.	-12165
/4234.	-12166
/4276.	-12167
/4288.	-12168
/4740.	-12169
/4876.	-12170
/5049.	-12171
/5324.	-12172
/5330.	-12173
/5348.	-12174
/5834.	-12175
/5893.	-12176
/6131.	-12177
/6191.	-12178
/6243.	-12179
/6557.	-12180
/6579.	-12181
/6653.	-12182
/6670.	-12183
/6720.	-12184
/6998.	-12185
/7126.	-12186
/7368.	-12187
▁hoành	-12188
▁huyện	-12189
▁phính	-12190
▁phăng	-12191
▁thung	-12192
▁2.162,	-12193
▁2.962,	-12194
▁2.089875,	-12195
▁2.094125,	-12196
▁2.116625,	-12197
▁2.117375,	-12198
▁2.120375,	-12199
bin	-12200
bối	-12201
cối	-12202
hôn	-12203
hận	-12204
nát	-12205
rối	-12206
tội	-12207
/55.	-12208
chối	-12209
khát	-12210
liền	-12211
phối	-12212
ranh	-12213
thôn	-12214
▁dội	-12215
▁nát	-12216
▁đềm	-12217
/188.	-12218
/202.	-12219
/403.	-12220
/433.	-12221
/459.	-12222
/668.	-12223
/672.	-12224
/808.	-12225
/933.	-12226
/938.	-12227
/958.	-12228
/972.	-12229
▁3.31	-12230
▁chát	-12231
/1058.	-12232
/1070.	-12233
/1118.	-12234
/1151.	-12235
/1210.	-12236
/1348.	-12237
/1364.	-12238
/1626.	-12239
/1656.	-12240
/1880.	-12241
/1950.	-12242
/1952.	-12243
/1953.	-12244
/2051.	-12245
/2144.	-12246
/2232.	-12247
/2391.	-12248
/2461.	-12249
/2695.	-12250
/2746.	-12251
/2759.	-12252
/2789.	-12253
/2835.	-12254
/3136.	-12255
/3154.	-12256
/3166.	-12257
/3399.	-12258
/3514.	-12259
/3558.	-12260
/3869.	-12261
/3916.	-12262
/4334.	-12263
/4477.	-12264
/4695.	-12265
/4703.	-12266
/4787.	-12267
/4845.	-12268
/4927.	-12269
/4964.	-12270
/5055.	-12271
/5190.	-12272
/5368.	-12273
/5430.	-12274
/5574.	-12275
/5709.	-12276
/5867.	-12277
/5936.	-12278
/5941.	-12279
/6078.	-12280
/6138.	-12281
/6236.	-12282
/6304.	-12283
/6592.	-12284
/6842.	-12285
/6885.	-12286
/7186.	-12287
▁chênh	-12288
▁muỗng	-12289
▁nghìn	-12290
▁phanh	-12291
▁1.778,	-12292
▁3.316,	-12293
▁1.63825,	-12294
▁3.33125,	-12295
▁1.958625,	-12296
▁2.122125,	-12297
▁2.129125,	-12298
▁2.130375,	-12299
kỹ	-12300
hữu	-12301
lâm	-12302
lét	-12303
nền	-12304
/58.	-12305
cộng	-12306
nhặt	-12307
ráng	-12308
trâm	-12309
▁căm	-12310
▁mâm	-12311
▁nan	-12312
▁sâm	-12313
▁xăm	-12314
▁đăm	-12315
/127.	-12316
/161.	-12317
/182.	-12318
/240.	-12319
/620.	-12320
/626.	-12321
/763.	-12322
5925,	-12323
kháng	-12324
▁láng	-12325
▁ngặt	-12326
/1110.	-12327
/1306.	-12328
/1563.	-12329
/1649.	-12330
/1652.	-12331
/1878.	-12332
/1886.	-12333
/1922.	-12334
/1936.	-12335
/1954.	-12336
/1983.	-12337
/2104.	-12338
/2141.	-12339
/2166.	-12340
/2381.	-12341
/2431.	-12342
/2516.	-12343
/2649.	-12344
/2680.	-12345
/2845.	-12346
/2950.	-12347
/3179.	-12348
/3245.	-12349
/3343.	-12350
/3350.	-12351
/3400.	-12352
/3498.	-12353
/3984.	-12354
/4123.	-12355
/4354.	-12356
/4563.	-12357
/4588.	-12358
/4665.	-12359
/4760.	-12360
/5009.	-12361
/5015.	-12362
/5123.	-12363
/5141.	-12364
/5361.	-12365
/5640.	-12366
/5664.	-12367
/6230.	-12368
/6265.	-12369
/6327.	-12370
/6448.	-12371
/6465.	-12372
/6524.	-12373
/6617.	-12374
/6618.	-12375
/6744.	-12376
/6855.	-12377
/7044.	-12378
/7048.	-12379
/7099.	-12380
/7114.	-12381
39125,	-12382
▁2.139	-12383
▁2.859	-12384
▁khuây	-12385
▁1.4335,	-12386
▁3.5015,	-12387
▁2.05925,	-12388
▁2.09175,	-12389
▁3.20125,	-12390
▁2.132375,	-12391
▁2.134875,	-12392
▁2.140625,	-12393
▁2.152375,	-12394
▁2.154875,	-12395
▁2.195375,	-12396
▁2.195875,	-12397
▁2.198875,	-12398
▁2.200875,	-12399
tóc	-12400
cọng	-12401
hiền	-12402
miền	-12403
thổi	-12404
trỗi	-12405
▁cỗi	-12406
▁hổi	-12407
▁ngộ	-12408
▁tám	-12409
▁đặn	-12410
▁đỗi	-12411
/329.	-12412
/337.	-12413
/454.	-12414
/570.	-12415
/685.	-12416
/686.	-12417
/715.	-12418
/790.	-12419
/821.	-12420
/942.	-12421
khung	-12422
▁3.51	-12423
▁biền	-12424
▁lung	-12425
▁phổi	-12426
▁tung	-12427
▁vung	-12428
▁xích	-12429
▁điền	-12430
/1155.	-12431
/1159.	-12432
/1349.	-12433
/1485.	-12434
/1566.	-12435
/1701.	-12436
/1743.	-12437
/1797.	-12438
/1841.	-12439
/1845.	-12440
/1934.	-12441
/1964.	-12442
/2015.	-12443
/2020.	-12444
/2050.	-12445
/2355.	-12446
/2456.	-12447
/2600.	-12448
/2702.	-12449
/2706.	-12450
/2708.	-12451
/3045.	-12452
/3331.	-12453
/3525.	-12454
/3549.	-12455
/3701.	-12456
/3757.	-12457
/3915.	-12458
/4551.	-12459
/4647.	-12460
/4797.	-12461
/4912.	-12462
/4945.	-12463
/5085.	-12464
/5152.	-12465
/5350.	-12466
/5432.	-12467
/5541.	-12468
/5638.	-12469
/5845.	-12470
/5917.	-12471
/5924.	-12472
/6052.	-12473
/6081.	-12474
/6118.	-12475
/6311.	-12476
/6314.	-12477
/6377.	-12478
/6529.	-12479
/6725.	-12480
/6740.	-12481
/6785.	-12482
/6837.	-12483
/6848.	-12484
/6865.	-12485
/6894.	-12486
/6960.	-12487
/7147.	-12488
▁1.834	-12489
▁3.48,	-12490
▁1.19425,	-12491
▁1.27275,	-12492
▁1.65125,	-12493
▁1.69375,	-12494
▁1.83675,	-12495
▁2.42075,	-12496
▁2.137375,	-12497
▁2.213625,	-12498
▁2.236375,	-12499
hậu	-12500
trò	-12501
đập	-12502
bánh	-12503
căng	-12504
cạnh	-12505
gánh	-12506
găng	-12507
hăng	-12508
hứng	-12509
lăng	-12510
lạnh	-12511
rộng	-12512
tăng	-12513
xinh	-12514
xứng	-12515
đắng	-12516
▁bám	-12517
▁dãi	-12518
▁dập	-12519
▁dừa	-12520
▁rập	-12521
▁tảo	-12522
▁xập	-12523
/112.	-12524
/146.	-12525
/167.	-12526
/219.	-12527
/627.	-12528
/657.	-12529
thăng	-12530
▁chảo	-12531
▁chập	-12532
▁lăng	-12533
▁măng	-12534
▁nhậu	-12535
▁thập	-12536
/1045.	-12537
/1062.	-12538
/1218.	-12539
/1651.	-12540
/1669.	-12541
/1821.	-12542
/1998.	-12543
/2008.	-12544
/2039.	-12545
/2081.	-12546
/2101.	-12547
/2152.	-12548
/2329.	-12549
/2398.	-12550
/2637.	-12551
/2724.	-12552
/2726.	-12553
/2754.	-12554
/2943.	-12555
/3172.	-12556
/3195.	-12557
/3322.	-12558
/3517.	-12559
/3973.	-12560
/4153.	-12561
/4170.	-12562
/4369.	-12563
/4621.	-12564
/4672.	-12565
/4761.	-12566
/4897.	-12567
/5016.	-12568
/5164.	-12569
/5216.	-12570
/5244.	-12571
/5537.	-12572
/5700.	-12573
/5750.	-12574
/5752.	-12575
/6051.	-12576
/6167.	-12577
/6226.	-12578
/6652.	-12579
/6659.	-12580
/6810.	-12581
/6917.	-12582
/7400.	-12583
/7413.	-12584
▁chánh	-12585
▁ngạnh	-12586
▁nhánh	-12587
▁trứng	-12588
▁2.536,	-12589
▁1.41525,	-12590
▁2.50125,	-12591
▁2.237125,	-12592
▁2.238875,	-12593
▁2.239125,	-12594
▁2.239625,	-12595
▁2.249875,	-12596
▁2.250375,	-12597
▁2.256125,	-12598
▁2.260625,	-12599
mồ	-12600
kèm	-12601
lái	-12602
đốt	-12603
▁sục	-12604
▁đôn	-12605
▁đốt	-12606
▁đục	-12607
/116.	-12608
/119.	-12609
/125.	-12610
/150.	-12611
/210.	-12612
/213.	-12613
/214.	-12614
/215.	-12615
/216.	-12616
/218.	-12617
/226.	-12618
/245.	-12619
/302.	-12620
/311.	-12621
/312.	-12622
/314.	-12623
/315.	-12624
/316.	-12625
/317.	-12626
/318.	-12627
/410.	-12628
/411.	-12629
/415.	-12630
/416.	-12631
/417.	-12632
/418.	-12633
/419.	-12634
/431.	-12635
/435.	-12636
/440.	-12637
/513.	-12638
/515.	-12639
/516.	-12640
/610.	-12641
/615.	-12642
/616.	-12643
/619.	-12644
/634.	-12645
/674.	-12646
/694.	-12647
/913.	-12648
chừng	-12649
▁bừng	-12650
▁cọng	-12651
▁khục	-12652
▁vừng	-12653
▁điệp	-12654
/1012.	-12655
/1243.	-12656
/1262.	-12657
/1365.	-12658
/1382.	-12659
/2179.	-12660
/2254.	-12661
/2288.	-12662
/2378.	-12663
/2646.	-12664
/2930.	-12665
/3553.	-12666
/3830.	-12667
/3928.	-12668
/4294.	-12669
/4648.	-12670
/4667.	-12671
/4854.	-12672
/4957.	-12673
/5193.	-12674
/5279.	-12675
/5526.	-12676
/5571.	-12677
/5656.	-12678
/5856.	-12679
/5864.	-12680
/6249.	-12681
/6346.	-12682
/6544.	-12683
/6858.	-12684
/6899.	-12685
/6935.	-12686
/6945.	-12687
/6976.	-12688
/7065.	-12689
▁nguyền	-12690
6905625,	-12691
▁1.53525,	-12692
▁2.269875,	-12693
▁2.281125,	-12694
▁2.290625,	-12695
▁2.292875,	-12696
▁2.298125,	-12697
▁2.299875,	-12698
▁2.310875,	-12699
cóc	-12700
gắn	-12701
keo	-12702
vai	-12703
đào	-12704
▁am	-12705
▁lự	-12706
/13.	-12707
/94.	-12708
/96.	-12709
/97.	-12710
/99.	-12711
bách	-12712
▁bào	-12713
▁dìm	-12714
▁dấn	-12715
▁lõi	-12716
▁reo	-12717
▁sào	-12718
▁ván	-12719
▁ách	-12720
/130.	-12721
/131.	-12722
/132.	-12723
/198.	-12724
/227.	-12725
/280.	-12726
/541.	-12727
/553.	-12728
/712.	-12729
/716.	-12730
/717.	-12731
/719.	-12732
▁hoán	-12733
▁huấn	-12734
▁ngán	-12735
▁tách	-12736
▁táng	-12737
▁đênh	-12738
/1099.	-12739
/1102.	-12740
/1194.	-12741
/1513.	-12742
/1665.	-12743
/1803.	-12744
/1861.	-12745
/2072.	-12746
/2133.	-12747
/2413.	-12748
/2488.	-12749
/2580.	-12750
/2593.	-12751
/2723.	-12752
/2841.	-12753
/2910.	-12754
/2942.	-12755
/2960.	-12756
/3084.	-12757
/3284.	-12758
/3310.	-12759
/3451.	-12760
/3686.	-12761
/3857.	-12762
/4064.	-12763
/4193.	-12764
/4342.	-12765
/4553.	-12766
/4744.	-12767
/4973.	-12768
/5100.	-12769
/5109.	-12770
/5110.	-12771
/5129.	-12772
/5584.	-12773
/5694.	-12774
/5911.	-12775
/6013.	-12776
/6076.	-12777
/6170.	-12778
/6223.	-12779
/6286.	-12780
/6301.	-12781
/6342.	-12782
/6581.	-12783
/6590.	-12784
/6647.	-12785
/6731.	-12786
/6843.	-12787
/7154.	-12788
/7244.	-12789
/7269.	-12790
▁2.599	-12791
▁thoái	-12792
▁2.9585,	-12793
▁2.25625,	-12794
▁1.895875,	-12795
▁2.316375,	-12796
▁2.316625,	-12797
▁2.333375,	-12798
▁2.334625,	-12799
/62.	-12800
▁lẩn	-12801
▁rạo	-12802
/133.	-12803
/135.	-12804
/137.	-12805
/138.	-12806
/139.	-12807
/170.	-12808
/171.	-12809
/172.	-12810
/173.	-12811
/174.	-12812
/176.	-12813
/177.	-12814
/178.	-12815
/192.	-12816
/194.	-12817
/195.	-12818
/199.	-12819
/234.	-12820
/236.	-12821
/237.	-12822
/238.	-12823
/271.	-12824
/273.	-12825
/275.	-12826
/276.	-12827
/277.	-12828
/278.	-12829
/279.	-12830
/291.	-12831
/293.	-12832
/297.	-12833
/299.	-12834
/330.	-12835
/331.	-12836
/335.	-12837
/336.	-12838
/339.	-12839
/343.	-12840
/355.	-12841
/372.	-12842
/375.	-12843
/376.	-12844
/490.	-12845
/509.	-12846
/537.	-12847
/622.	-12848
/647.	-12849
/662.	-12850
/679.	-12851
/752.	-12852
/815.	-12853
/912.	-12854
/985.	-12855
/1054.	-12856
/1202.	-12857
/1205.	-12858
/1343.	-12859
/1660.	-12860
/1783.	-12861
/2274.	-12862
/2360.	-12863
/2501.	-12864
/2661.	-12865
/2762.	-12866
/3018.	-12867
/3025.	-12868
/3066.	-12869
/3153.	-12870
/3467.	-12871
/3545.	-12872
/3771.	-12873
/4143.	-12874
/4634.	-12875
/4850.	-12876
/5135.	-12877
/5161.	-12878
/5208.	-12879
/5252.	-12880
/5558.	-12881
/5916.	-12882
/6035.	-12883
/6067.	-12884
/6498.	-12885
/6561.	-12886
/6763.	-12887
/6927.	-12888
/7014.	-12889
/7128.	-12890
/7179.	-12891
/7224.	-12892
▁mường	-12893
▁1.938,	-12894
▁1.2145,	-12895
▁1.9535,	-12896
▁1.819375,	-12897
▁2.335125,	-12898
▁2.355375,	-12899
▁lồ	-12900
/26.	-12901
/33.	-12902
vĩnh	-12903
▁tẩy	-12904
/239.	-12905
/259.	-12906
/377.	-12907
/379.	-12908
/390.	-12909
/391.	-12910
/392.	-12911
/394.	-12912
/395.	-12913
/396.	-12914
/397.	-12915
/398.	-12916
/430.	-12917
/434.	-12918
/437.	-12919
/439.	-12920
/470.	-12921
/471.	-12922
/472.	-12923
/473.	-12924
/476.	-12925
/477.	-12926
/495.	-12927
/496.	-12928
/497.	-12929
/529.	-12930
/530.	-12931
/531.	-12932
/533.	-12933
/534.	-12934
/539.	-12935
/571.	-12936
/572.	-12937
/573.	-12938
/575.	-12939
/576.	-12940
/578.	-12941
/579.	-12942
/590.	-12943
/631.	-12944
/664.	-12945
/939.	-12946
thùng	-12947
/1267.	-12948
/1295.	-12949
/1327.	-12950
/1455.	-12951
/1726.	-12952
/1925.	-12953
/2045.	-12954
/2185.	-12955
/2257.	-12956
/2258.	-12957
/2321.	-12958
/2350.	-12959
/2399.	-12960
/2541.	-12961
/2606.	-12962
/2791.	-12963
/3144.	-12964
/3149.	-12965
/3223.	-12966
/3370.	-12967
/3657.	-12968
/3710.	-12969
/3762.	-12970
/3943.	-12971
/4098.	-12972
/4199.	-12973
/4336.	-12974
/4346.	-12975
/4537.	-12976
/4639.	-12977
/4690.	-12978
/4759.	-12979
/4773.	-12980
/4851.	-12981
/5552.	-12982
/5585.	-12983
/5652.	-12984
/5831.	-12985
/6094.	-12986
/6247.	-12987
/6273.	-12988
/6351.	-12989
/6636.	-12990
/7096.	-12991
/7485.	-12992
▁2.358,	-12993
▁2.44025,	-12994
▁1.756125,	-12995
▁2.218625,	-12996
▁2.356875,	-12997
▁2.358875,	-12998
▁2.377625,	-12999
nửa	-13000
sếp	-13001
ngửa	-13002
▁máo	-13003
▁xáo	-13004
▁xửa	-13005
/143.	-13006
/151.	-13007
/153.	-13008
/155.	-13009
/156.	-13010
/157.	-13011
/159.	-13012
/165.	-13013
/180.	-13014
/250.	-13015
/251.	-13016
/256.	-13017
/258.	-13018
/313.	-13019
/350.	-13020
/351.	-13021
/386.	-13022
/399.	-13023
/595.	-13024
/632.	-13025
/635.	-13026
/650.	-13027
/673.	-13028
/675.	-13029
/676.	-13030
/678.	-13031
/690.	-13032
/691.	-13033
/693.	-13034
/695.	-13035
/696.	-13036
/698.	-13037
/730.	-13038
/732.	-13039
/733.	-13040
/736.	-13041
/744.	-13042
/746.	-13043
/855.	-13044
đương	-13045
▁chửa	-13046
▁móng	-13047
▁phan	-13048
▁tháo	-13049
▁trật	-13050
/1105.	-13051
/1139.	-13052
/1153.	-13053
/1175.	-13054
/1316.	-13055
/1335.	-13056
/1452.	-13057
/1453.	-13058
/1931.	-13059
/1938.	-13060
/1962.	-13061
/2161.	-13062
/2375.	-13063
/2415.	-13064
/2660.	-13065
/2699.	-13066
/2870.	-13067
/3175.	-13068
/3414.	-13069
/3568.	-13070
/3665.	-13071
/3937.	-13072
/3969.	-13073
/4201.	-13074
/4483.	-13075
/4583.	-13076
/4852.	-13077
/5045.	-13078
/5046.	-13079
/5671.	-13080
/5765.	-13081
/6016.	-13082
/6063.	-13083
/6155.	-13084
/6449.	-13085
/6570.	-13086
/6970.	-13087
/7153.	-13088
/7440.	-13089
91625,	-13090
▁buồng	-13091
▁2.821,	-13092
▁khoang	-13093
▁3.26075,	-13094
▁1.891625,	-13095
▁2.378125,	-13096
▁2.381625,	-13097
▁2.390875,	-13098
▁2.395375,	-13099
sạn	-13100
sốc	-13101
/34.	-13102
châm	-13103
mảnh	-13104
▁béo	-13105
▁cẩm	-13106
/101.	-13107
/106.	-13108
/185.	-13109
/352.	-13110
/354.	-13111
/357.	-13112
/358.	-13113
/450.	-13114
/452.	-13115
/455.	-13116
/458.	-13117
/550.	-13118
/552.	-13119
/554.	-13120
/651.	-13121
/652.	-13122
/653.	-13123
/655.	-13124
/656.	-13125
/658.	-13126
/765.	-13127
/835.	-13128
/914.	-13129
/920.	-13130
/1015.	-13131
/1077.	-13132
/1168.	-13133
/1270.	-13134
/1279.	-13135
/1383.	-13136
/1405.	-13137
/1548.	-13138
/1802.	-13139
/1849.	-13140
/2031.	-13141
/2192.	-13142
/2371.	-13143
/2425.	-13144
/2472.	-13145
/2641.	-13146
/2752.	-13147
/2785.	-13148
/2828.	-13149
/2831.	-13150
/2882.	-13151
/2940.	-13152
/2980.	-13153
/3410.	-13154
/3523.	-13155
/3560.	-13156
/3579.	-13157
/3624.	-13158
/3632.	-13159
/3766.	-13160
/3781.	-13161
/3845.	-13162
/3853.	-13163
/4162.	-13164
/4322.	-13165
/4343.	-13166
/4378.	-13167
/4384.	-13168
/4600.	-13169
/4641.	-13170
/4652.	-13171
/4702.	-13172
/4717.	-13173
/5249.	-13174
/5460.	-13175
/5519.	-13176
/5944.	-13177
/5966.	-13178
/6258.	-13179
/6643.	-13180
/6687.	-13181
/6695.	-13182
/6762.	-13183
/6866.	-13184
/6958.	-13185
/7108.	-13186
/7254.	-13187
/7297.	-13188
/7360.	-13189
/7372.	-13190
/7491.	-13191
▁2.32,	-13192
▁2.42,	-13193
▁2.72,	-13194
▁lưỡng	-13195
▁0.91125,	-13196
▁1.916125,	-13197
▁2.400625,	-13198
▁2.401625,	-13199
giơ	-13200
rút	-13201
/84.	-13202
sàng	-13203
▁hạo	-13204
▁nhễ	-13205
▁rùa	-13206
/120.	-13207
/122.	-13208
/123.	-13209
/124.	-13210
/126.	-13211
/129.	-13212
/160.	-13213
/162.	-13214
/163.	-13215
/224.	-13216
/229.	-13217
/368.	-13218
/453.	-13219
/564.	-13220
/607.	-13221
/724.	-13222
/731.	-13223
/735.	-13224
/852.	-13225
▁thun	-13226
▁thám	-13227
▁tiều	-13228
/1047.	-13229
/1479.	-13230
/1494.	-13231
/1555.	-13232
/1705.	-13233
/1947.	-13234
/1990.	-13235
/2742.	-13236
/2850.	-13237
/2946.	-13238
/2984.	-13239
/3112.	-13240
/3244.	-13241
/3270.	-13242
/3450.	-13243
/3459.	-13244
/3552.	-13245
/3769.	-13246
/3842.	-13247
/3930.	-13248
/4050.	-13249
/4194.	-13250
/4237.	-13251
/4283.	-13252
/4434.	-13253
/4461.	-13254
/4840.	-13255
/5151.	-13256
/5215.	-13257
/5254.	-13258
/5483.	-13259
/5561.	-13260
/5716.	-13261
/5744.	-13262
/5754.	-13263
/5801.	-13264
/5854.	-13265
/5984.	-13266
/6211.	-13267
/6324.	-13268
/6499.	-13269
/6666.	-13270
/6671.	-13271
/6764.	-13272
/7007.	-13273
/7027.	-13274
/7029.	-13275
/7162.	-13276
/7187.	-13277
/7203.	-13278
/7432.	-13279
19375,	-13280
▁3.28,	-13281
169375,	-13282
469375,	-13283
▁thưởng	-13284
▁2.1815,	-13285
▁3.1795,	-13286
▁3.9025,	-13287
▁2.79325,	-13288
▁2.411125,	-13289
▁2.420625,	-13290
▁2.436875,	-13291
▁2.441625,	-13292
▁2.456125,	-13293
▁2.459625,	-13294
▁2.460625,	-13295
▁2.461375,	-13296
▁2.476125,	-13297
▁2.480125,	-13298
▁2.490875,	-13299
lan	-13300
▁ôi	-13301
▁gầy	-13302
/164.	-13303
/187.	-13304
/221.	-13305
/225.	-13306
/260.	-13307
/262.	-13308
/263.	-13309
/264.	-13310
/265.	-13311
/266.	-13312
/269.	-13313
/282.	-13314
/283.	-13315
/287.	-13316
/288.	-13317
/289.	-13318
/323.	-13319
/324.	-13320
/325.	-13321
/327.	-13322
/328.	-13323
/360.	-13324
/363.	-13325
/364.	-13326
/367.	-13327
/380.	-13328
/381.	-13329
/382.	-13330
/384.	-13331
/385.	-13332
/387.	-13333
/427.	-13334
/429.	-13335
/460.	-13336
/462.	-13337
/465.	-13338
/479.	-13339
/769.	-13340
/858.	-13341
▁rạng	-13342
▁then	-13343
/1052.	-13344
/1166.	-13345
/1187.	-13346
/1425.	-13347
/1525.	-13348
/1572.	-13349
/1578.	-13350
/1737.	-13351
/2227.	-13352
/2388.	-13353
/2420.	-13354
/2435.	-13355
/2644.	-13356
/2653.	-13357
/2774.	-13358
/2799.	-13359
/3133.	-13360
/3254.	-13361
/3542.	-13362
/3690.	-13363
/3699.	-13364
/3735.	-13365
/3976.	-13366
/4169.	-13367
/4552.	-13368
/4643.	-13369
/4862.	-13370
/4910.	-13371
/5022.	-13372
/5242.	-13373
/5555.	-13374
/5844.	-13375
/5942.	-13376
/5950.	-13377
/6082.	-13378
/6158.	-13379
/6172.	-13380
/6417.	-13381
/6565.	-13382
/7050.	-13383
/7159.	-13384
/7184.	-13385
/7263.	-13386
/7396.	-13387
/7454.	-13388
▁2.5005,	-13389
▁2.64225,	-13390
▁2.099875,	-13391
▁2.500625,	-13392
▁2.520125,	-13393
▁2.536625,	-13394
▁2.538875,	-13395
▁2.540875,	-13396
▁2.541125,	-13397
▁2.552875,	-13398
▁2.553875,	-13399
/54.	-13400
▁kén	-13401
▁mói	-13402
▁mởn	-13403
/100.	-13404
/103.	-13405
/104.	-13406
/105.	-13407
/183.	-13408
/483.	-13409
/484.	-13410
/485.	-13411
/486.	-13412
/488.	-13413
/489.	-13414
/505.	-13415
/510.	-13416
/522.	-13417
/523.	-13418
/524.	-13419
/526.	-13420
/527.	-13421
/528.	-13422
/551.	-13423
/563.	-13424
/565.	-13425
/566.	-13426
/568.	-13427
/569.	-13428
/580.	-13429
/584.	-13430
/586.	-13431
/587.	-13432
/589.	-13433
/621.	-13434
/624.	-13435
/661.	-13436
/663.	-13437
/666.	-13438
/667.	-13439
/671.	-13440
/684.	-13441
/688.	-13442
/721.	-13443
/726.	-13444
/727.	-13445
/728.	-13446
▁chạp	-13447
▁mỏng	-13448
▁ngạt	-13449
▁ngấm	-13450
/1883.	-13451
/2563.	-13452
/2846.	-13453
/2917.	-13454
/2924.	-13455
/3118.	-13456
/3170.	-13457
/3202.	-13458
/3255.	-13459
/3259.	-13460
/3314.	-13461
/3369.	-13462
/3650.	-13463
/3662.	-13464
/4065.	-13465
/4151.	-13466
/4256.	-13467
/4505.	-13468
/4542.	-13469
/4697.	-13470
/4768.	-13471
/4832.	-13472
/4956.	-13473
/5184.	-13474
/5260.	-13475
/5299.	-13476
/5445.	-13477
/5479.	-13478
/6065.	-13479
/6090.	-13480
/6335.	-13481
/6644.	-13482
/6789.	-13483
/6797.	-13484
/6941.	-13485
/7272.	-13486
▁cuồng	-13487
▁1.59425,	-13488
▁2.53325,	-13489
▁2.554875,	-13490
▁2.572625,	-13491
▁2.581625,	-13492
▁2.599875,	-13493
▁2.607625,	-13494
▁2.609375,	-13495
▁2.619375,	-13496
▁2.633875,	-13497
▁2.634125,	-13498
▁2.639875,	-13499
xảy	-13500
đảm	-13501
/79.	-13502
chút	-13503
tiệc	-13504
▁cội	-13505
▁hít	-13506
/109.	-13507
/196.	-13508
/201.	-13509
/204.	-13510
/205.	-13511
/206.	-13512
/207.	-13513
/208.	-13514
/209.	-13515
/296.	-13516
/307.	-13517
/308.	-13518
/309.	-13519
/405.	-13520
/406.	-13521
/407.	-13522
/409.	-13523
/492.	-13524
/503.	-13525
/601.	-13526
/603.	-13527
/604.	-13528
/606.	-13529
/609.	-13530
/701.	-13531
/704.	-13532
/705.	-13533
/707.	-13534
/709.	-13535
/949.	-13536
/977.	-13537
▁khóe	-13538
▁ngác	-13539
/1032.	-13540
/1213.	-13541
/1317.	-13542
/1339.	-13543
/1447.	-13544
/1470.	-13545
/1521.	-13546
/1640.	-13547
/2033.	-13548
/2129.	-13549
/2328.	-13550
/2348.	-13551
/2500.	-13552
/2658.	-13553
/2769.	-13554
/2867.	-13555
/3092.	-13556
/3150.	-13557
/3537.	-13558
/3571.	-13559
/3586.	-13560
/3629.	-13561
/3681.	-13562
/3940.	-13563
/4263.	-13564
/4617.	-13565
/4807.	-13566
/4947.	-13567
/4952.	-13568
/5145.	-13569
/5160.	-13570
/5166.	-13571
/5268.	-13572
/5374.	-13573
/5380.	-13574
/5649.	-13575
/5734.	-13576
/5809.	-13577
/5815.	-13578
/5873.	-13579
/5896.	-13580
/6146.	-13581
/6361.	-13582
/6393.	-13583
/6752.	-13584
/6766.	-13585
/6796.	-13586
/6969.	-13587
/7275.	-13588
▁1.648	-13589
▁2.93,	-13590
▁3.04,	-13591
▁3.64,	-13592
▁3.321,	-13593
▁3.34225,	-13594
▁4.16275,	-13595
▁1.648875,	-13596
▁2.640375,	-13597
▁2.651875,	-13598
▁2.658375,	-13599
no	-13600
dọc	-13601
máu	-13602
lịch	-13603
niệm	-13604
▁cau	-13605
/241.	-13606
/341.	-13607
/443.	-13608
/640.	-13609
nhiêu	-13610
thủng	-13611
▁mách	-13612
▁trọc	-13613
/1140.	-13614
/1146.	-13615
/1240.	-13616
/1340.	-13617
/1341.	-13618
/1358.	-13619
/1541.	-13620
/1641.	-13621
/1643.	-13622
/1740.	-13623
/1940.	-13624
/1959.	-13625
/2060.	-13626
/2140.	-13627
/2240.	-13628
/2241.	-13629
/2340.	-13630
/2341.	-13631
/2349.	-13632
/2432.	-13633
/2543.	-13634
/2640.	-13635
/2709.	-13636
/2964.	-13637
/2989.	-13638
/3041.	-13639
/3157.	-13640
/3240.	-13641
/3241.	-13642
/3340.	-13643
/3341.	-13644
/3462.	-13645
/3561.	-13646
/3640.	-13647
/3785.	-13648
/3787.	-13649
/3840.	-13650
/3855.	-13651
/4040.	-13652
/4240.	-13653
/4267.	-13654
/4268.	-13655
/4362.	-13656
/4593.	-13657
/4640.	-13658
/4673.	-13659
/4745.	-13660
/5060.	-13661
/5067.	-13662
/5243.	-13663
/5267.	-13664
/5340.	-13665
/5538.	-13666
/5540.	-13667
/5940.	-13668
/5964.	-13669
/6040.	-13670
/6193.	-13671
/6340.	-13672
/6406.	-13673
/6613.	-13674
/6650.	-13675
/6676.	-13676
/6880.	-13677
/6910.	-13678
/6928.	-13679
/7106.	-13680
/7140.	-13681
/7143.	-13682
/7240.	-13683
/7287.	-13684
/7340.	-13685
/7443.	-13686
▁loanh	-13687
▁vượng	-13688
▁1.419,	-13689
▁2.694,	-13690
▁trượng	-13691
▁1.189375,	-13692
▁2.611875,	-13693
▁2.659875,	-13694
▁2.660125,	-13695
▁2.679375,	-13696
▁2.690875,	-13697
▁2.697875,	-13698
▁2.699875,	-13699
/57.	-13700
/91.	-13701
/442.	-13702
/502.	-13703
/542.	-13704
/543.	-13705
/641.	-13706
/841.	-13707
/941.	-13708
▁khẩm	-13709
/1143.	-13710
/1398.	-13711
/1542.	-13712
/1551.	-13713
/1667.	-13714
/1742.	-13715
/1842.	-13716
/1843.	-13717
/1923.	-13718
/1943.	-13719
/1946.	-13720
/1989.	-13721
/2142.	-13722
/2243.	-13723
/2408.	-13724
/2542.	-13725
/2592.	-13726
/2743.	-13727
/2843.	-13728
/3043.	-13729
/3381.	-13730
/3541.	-13731
/3543.	-13732
/3641.	-13733
/3642.	-13734
/3643.	-13735
/3741.	-13736
/3743.	-13737
/3956.	-13738
/4041.	-13739
/4042.	-13740
/4043.	-13741
/4159.	-13742
/4241.	-13743
/4242.	-13744
/4243.	-13745
/4258.	-13746
/4543.	-13747
/4741.	-13748
/4742.	-13749
/4743.	-13750
/4842.	-13751
/4941.	-13752
/4942.	-13753
/4943.	-13754
/5042.	-13755
/5142.	-13756
/5241.	-13757
/5341.	-13758
/5454.	-13759
/5542.	-13760
/5543.	-13761
/5623.	-13762
/5641.	-13763
/5642.	-13764
/5643.	-13765
/5660.	-13766
/5685.	-13767
/5737.	-13768
/5741.	-13769
/5742.	-13770
/5766.	-13771
/5841.	-13772
/5842.	-13773
/5843.	-13774
/5902.	-13775
/6042.	-13776
/6043.	-13777
/6141.	-13778
/6143.	-13779
/6152.	-13780
/6275.	-13781
/6341.	-13782
/6546.	-13783
/6641.	-13784
/6913.	-13785
/6942.	-13786
/6967.	-13787
/7142.	-13788
/7163.	-13789
/7241.	-13790
▁cương	-13791
▁2.261,	-13792
▁khuyến	-13793
▁1.6215,	-13794
▁2.08225,	-13795
▁3.44125,	-13796
▁4.00125,	-13797
▁2.713125,	-13798
▁2.717125,	-13799
▁dắt	-13800
/144.	-13801
/145.	-13802
/244.	-13803
/320.	-13804
/444.	-13805
/474.	-13806
/544.	-13807
/562.	-13808
/643.	-13809
/644.	-13810
/745.	-13811
/843.	-13812
/926.	-13813
khiếm	-13814
/1044.	-13815
/1144.	-13816
/1145.	-13817
/1170.	-13818
/1244.	-13819
/1245.	-13820
/1256.	-13821
/1285.	-13822
/1345.	-13823
/1591.	-13824
/1668.	-13825
/1744.	-13826
/1844.	-13827
/1944.	-13828
/1945.	-13829
/2145.	-13830
/2244.	-13831
/2255.	-13832
/2344.	-13833
/2345.	-13834
/2545.	-13835
/2603.	-13836
/2663.	-13837
/2844.	-13838
/2852.	-13839
/3044.	-13840
/3145.	-13841
/3867.	-13842
/3944.	-13843
/4109.	-13844
/4245.	-13845
/4246.	-13846
/4311.	-13847
/4344.	-13848
/4345.	-13849
/4357.	-13850
/4365.	-13851
/4475.	-13852
/4544.	-13853
/4644.	-13854
/4645.	-13855
/4820.	-13856
/4841.	-13857
/4892.	-13858
/4944.	-13859
/5044.	-13860
/5144.	-13861
/5245.	-13862
/5344.	-13863
/5544.	-13864
/5644.	-13865
/5731.	-13866
/5745.	-13867
/5945.	-13868
/5946.	-13869
/6045.	-13870
/6047.	-13871
/6144.	-13872
/6160.	-13873
/6244.	-13874
/6338.	-13875
/6344.	-13876
/6408.	-13877
/6545.	-13878
/6648.	-13879
/6701.	-13880
/6844.	-13881
/6943.	-13882
/6956.	-13883
/7043.	-13884
/7045.	-13885
/7144.	-13886
/7219.	-13887
/7243.	-13888
/7245.	-13889
/7343.	-13890
/7344.	-13891
/7345.	-13892
▁nghẽo	-13893
▁2.30025,	-13894
▁2.174625,	-13895
▁2.719625,	-13896
▁2.722875,	-13897
▁2.730625,	-13898
▁2.736125,	-13899
mét	-13900
ngó	-13901
rơi	-13902
/45.	-13903
▁lạm	-13904
▁rúc	-13905
/111.	-13906
/247.	-13907
/333.	-13908
/346.	-13909
/347.	-13910
/447.	-13911
/547.	-13912
/781.	-13913
▁rụng	-13914
/1046.	-13915
/1069.	-13916
/1129.	-13917
/1147.	-13918
/1246.	-13919
/1346.	-13920
/1347.	-13921
/1546.	-13922
/1547.	-13923
/1646.	-13924
/1647.	-13925
/1747.	-13926
/1847.	-13927
/2053.	-13928
/2147.	-13929
/2246.	-13930
/2247.	-13931
/2347.	-13932
/2546.	-13933
/2547.	-13934
/2667.	-13935
/2747.	-13936
/2847.	-13937
/2862.	-13938
/2918.	-13939
/2947.	-13940
/3146.	-13941
/3147.	-13942
/3246.	-13943
/3265.	-13944
/3346.	-13945
/3402.	-13946
/3547.	-13947
/3647.	-13948
/3715.	-13949
/3846.	-13950
/3847.	-13951
/3947.	-13952
/3951.	-13953
/4046.	-13954
/4047.	-13955
/4147.	-13956
/4185.	-13957
/4247.	-13958
/4331.	-13959
/4347.	-13960
/4371.	-13961
/4547.	-13962
/4646.	-13963
/4710.	-13964
/4746.	-13965
/4802.	-13966
/4868.	-13967
/5146.	-13968
/5147.	-13969
/5199.	-13970
/5247.	-13971
/5253.	-13972
/5269.	-13973
/5346.	-13974
/5364.	-13975
/5546.	-13976
/5693.	-13977
/5795.	-13978
/6044.	-13979
/6046.	-13980
/6646.	-13981
/6669.	-13982
/6747.	-13983
/6765.	-13984
/6946.	-13985
/6947.	-13986
/7047.	-13987
/7146.	-13988
/7230.	-13989
/7246.	-13990
/7416.	-13991
▁2.379,	-13992
▁1.798875,	-13993
▁2.736875,	-13994
▁2.738375,	-13995
▁2.754375,	-13996
▁2.759875,	-13997
▁2.762125,	-13998
▁2.773875,	-13999
hạn	-14000
▁hí	-14001
/68.	-14002
khắc	-14003
/148.	-14004
/149.	-14005
/222.	-14006
/301.	-14007
/349.	-14008
/426.	-14009
/482.	-14010
/548.	-14011
/549.	-14012
/648.	-14013
/747.	-14014
/748.	-14015
/847.	-14016
/895.	-14017
/1038.	-14018
/1048.	-14019
/1148.	-14020
/1248.	-14021
/1271.	-14022
/1287.	-14023
/1367.	-14024
/1648.	-14025
/1749.	-14026
/1848.	-14027
/2048.	-14028
/2049.	-14029
/2108.	-14030
/2119.	-14031
/2148.	-14032
/2153.	-14033
/2249.	-14034
/2538.	-14035
/2549.	-14036
/2570.	-14037
/2648.	-14038
/2749.	-14039
/2765.	-14040
/2807.	-14041
/2848.	-14042
/3048.	-14043
/3056.	-14044
/3148.	-14045
/3207.	-14046
/3249.	-14047
/3419.	-14048
/3513.	-14049
/3548.	-14050
/3649.	-14051
/3749.	-14052
/3848.	-14053
/3849.	-14054
/3933.	-14055
/3948.	-14056
/3949.	-14057
/3982.	-14058
/4063.	-14059
/4066.	-14060
/4148.	-14061
/4149.	-14062
/4179.	-14063
/4248.	-14064
/4249.	-14065
/4348.	-14066
/4349.	-14067
/4456.	-14068
/4533.	-14069
/4548.	-14070
/4549.	-14071
/4848.	-14072
/4948.	-14073
/4949.	-14074
/5031.	-14075
/5148.	-14076
/5169.	-14077
/5248.	-14078
/5549.	-14079
/5648.	-14080
/5748.	-14081
/5786.	-14082
/5848.	-14083
/5948.	-14084
/6048.	-14085
/6403.	-14086
/6457.	-14087
/6578.	-14088
/6596.	-14089
/6748.	-14090
/7053.	-14091
/7248.	-14092
/7348.	-14093
▁2.1985,	-14094
▁3.7005,	-14095
▁1.438625,	-14096
▁2.774875,	-14097
▁2.779875,	-14098
▁2.790875,	-14099
hầm	-14100
hứa	-14101
nấu	-14102
tim	-14103
đứa	-14104
lang	-14105
ngứa	-14106
quấn	-14107
tháp	-14108
▁bạt	-14109
▁bấu	-14110
▁gấu	-14111
▁kẻo	-14112
▁mấp	-14113
▁mấu	-14114
▁táp	-14115
▁vịt	-14116
▁vợi	-14117
/281.	-14118
/303.	-14119
/649.	-14120
/749.	-14121
/788.	-14122
/797.	-14123
/849.	-14124
/886.	-14125
▁kháu	-14126
/1163.	-14127
/1182.	-14128
/1268.	-14129
/1338.	-14130
/1970.	-14131
/2064.	-14132
/2159.	-14133
/2263.	-14134
/2422.	-14135
/2537.	-14136
/2763.	-14137
/2970.	-14138
/3352.	-14139
/3364.	-14140
/3468.	-14141
/3573.	-14142
/3756.	-14143
/3866.	-14144
/3942.	-14145
/4196.	-14146
/4309.	-14147
/4368.	-14148
/4895.	-14149
/4936.	-14150
/4953.	-14151
/5063.	-14152
/5113.	-14153
/5126.	-14154
/5395.	-14155
/5647.	-14156
/5749.	-14157
/5788.	-14158
/5849.	-14159
/5949.	-14160
/6149.	-14161
/6154.	-14162
/6250.	-14163
/6374.	-14164
/6437.	-14165
/6483.	-14166
/6526.	-14167
/6549.	-14168
/6719.	-14169
/6849.	-14170
/6949.	-14171
/7049.	-14172
/7249.	-14173
▁khoai	-14174
▁khoán	-14175
▁1.741,	-14176
▁2.141,	-14177
▁2.521,	-14178
▁2.941,	-14179
▁3.121,	-14180
▁3.341,	-14181
▁khoáng	-14182
▁2.2415,	-14183
▁2.3135,	-14184
▁2.4105,	-14185
▁2.37825,	-14186
▁1.841375,	-14187
▁1.900875,	-14188
▁2.061375,	-14189
▁2.791125,	-14190
▁2.798375,	-14191
▁2.799875,	-14192
▁2.800125,	-14193
▁2.800625,	-14194
▁2.801375,	-14195
▁2.838625,	-14196
▁2.840375,	-14197
▁2.840875,	-14198
▁2.841125,	-14199
rãi	-14200
giây	-14201
luộc	-14202
▁bén	-14203
▁cáp	-14204
▁phũ	-14205
▁rãi	-14206
/366.	-14207
/374.	-14208
/775.	-14209
/844.	-14210
/850.	-14211
/898.	-14212
/947.	-14213
/950.	-14214
/970.	-14215
▁cưỡi	-14216
▁tiệt	-14217
/1050.	-14218
/1093.	-14219
/1161.	-14220
/1250.	-14221
/1251.	-14222
/1350.	-14223
/1650.	-14224
/1750.	-14225
/1793.	-14226
/1850.	-14227
/1951.	-14228
/2071.	-14229
/2150.	-14230
/2151.	-14231
/2250.	-14232
/2351.	-14233
/2494.	-14234
/2550.	-14235
/2651.	-14236
/2684.	-14237
/2751.	-14238
/2883.	-14239
/3050.	-14240
/3051.	-14241
/3069.	-14242
/3151.	-14243
/3242.	-14244
/3342.	-14245
/3351.	-14246
/3353.	-14247
/3404.	-14248
/3528.	-14249
/3535.	-14250
/3550.	-14251
/3651.	-14252
/3733.	-14253
/3751.	-14254
/3850.	-14255
/3971.	-14256
/4144.	-14257
/4150.	-14258
/4250.	-14259
/4350.	-14260
/4420.	-14261
/4651.	-14262
/4961.	-14263
/5050.	-14264
/5133.	-14265
/5143.	-14266
/5315.	-14267
/5650.	-14268
/5918.	-14269
/5952.	-14270
/6050.	-14271
/6255.	-14272
/6359.	-14273
/6504.	-14274
/6519.	-14275
/6541.	-14276
/6550.	-14277
/6689.	-14278
/6850.	-14279
/6872.	-14280
/6950.	-14281
/7150.	-14282
/7191.	-14283
/7250.	-14284
/7323.	-14285
/7350.	-14286
▁2.361,	-14287
▁2.761,	-14288
▁3.061,	-14289
▁2.0365,	-14290
▁2.1585,	-14291
▁1.713625,	-14292
▁1.861625,	-14293
▁2.294375,	-14294
▁2.742875,	-14295
▁2.842625,	-14296
▁2.842875,	-14297
▁2.851375,	-14298
▁2.860875,	-14299
trụ	-14300
/88.	-14301
▁lũy	-14302
/760.	-14303
/840.	-14304
/953.	-14305
chuỗi	-14306
/1053.	-14307
/1098.	-14308
/1154.	-14309
/1252.	-14310
/1472.	-14311
/1520.	-14312
/1552.	-14313
/1553.	-14314
/1554.	-14315
/1752.	-14316
/1753.	-14317
/1754.	-14318
/1756.	-14319
/1813.	-14320
/1852.	-14321
/1853.	-14322
/1854.	-14323
/2043.	-14324
/2052.	-14325
/2054.	-14326
/2154.	-14327
/2335.	-14328
/2353.	-14329
/2554.	-14330
/2567.	-14331
/2652.	-14332
/2804.	-14333
/2853.	-14334
/2863.	-14335
/2933.	-14336
/2953.	-14337
/2954.	-14338
/3054.	-14339
/3152.	-14340
/3252.	-14341
/3454.	-14342
/3482.	-14343
/3652.	-14344
/3653.	-14345
/3856.	-14346
/3952.	-14347
/3958.	-14348
/3964.	-14349
/4052.	-14350
/4054.	-14351
/4152.	-14352
/4252.	-14353
/4253.	-14354
/4255.	-14355
/4366.	-14356
/4427.	-14357
/4570.	-14358
/4653.	-14359
/4752.	-14360
/4753.	-14361
/4771.	-14362
/4846.	-14363
/4873.	-14364
/4951.	-14365
/4995.	-14366
/5153.	-14367
/5158.	-14368
/5351.	-14369
/5352.	-14370
/5353.	-14371
/5551.	-14372
/5553.	-14373
/5651.	-14374
/5653.	-14375
/5762.	-14376
/5853.	-14377
/5857.	-14378
/6053.	-14379
/6151.	-14380
/6252.	-14381
/6352.	-14382
/6353.	-14383
/6553.	-14384
/6753.	-14385
/6853.	-14386
/6919.	-14387
/6952.	-14388
/6959.	-14389
/7052.	-14390
/7253.	-14391
/7351.	-14392
/7353.	-14393
▁chuốt	-14394
▁2.441,	-14395
▁2.42275,	-14396
▁4.00175,	-14397
▁0.972625,	-14398
▁2.861375,	-14399
/9.	-14400
nhẹ	-14401
▁hự	-14402
/128.	-14403
/422.	-14404
/461.	-14405
/494.	-14406
/612.	-14407
/725.	-14408
/754.	-14409
/755.	-14410
/854.	-14411
/909.	-14412
▁vãng	-14413
/1156.	-14414
/1255.	-14415
/1355.	-14416
/1370.	-14417
/1655.	-14418
/1674.	-14419
/1855.	-14420
/1856.	-14421
/1955.	-14422
/1956.	-14423
/2055.	-14424
/2056.	-14425
/2117.	-14426
/2155.	-14427
/2156.	-14428
/2356.	-14429
/2556.	-14430
/2654.	-14431
/2655.	-14432
/2755.	-14433
/2782.	-14434
/2849.	-14435
/2955.	-14436
/2956.	-14437
/3055.	-14438
/3057.	-14439
/3355.	-14440
/3554.	-14441
/3555.	-14442
/3654.	-14443
/3656.	-14444
/3687.	-14445
/3755.	-14446
/3795.	-14447
/3851.	-14448
/3854.	-14449
/4056.	-14450
/4154.	-14451
/4155.	-14452
/4254.	-14453
/4554.	-14454
/4555.	-14455
/4655.	-14456
/4754.	-14457
/4872.	-14458
/4888.	-14459
/4954.	-14460
/5054.	-14461
/5155.	-14462
/5255.	-14463
/5354.	-14464
/5554.	-14465
/5613.	-14466
/5654.	-14467
/5655.	-14468
/5755.	-14469
/5790.	-14470
/5827.	-14471
/5956.	-14472
/5963.	-14473
/5969.	-14474
/6054.	-14475
/6055.	-14476
/6068.	-14477
/6254.	-14478
/6354.	-14479
/6554.	-14480
/6555.	-14481
/6954.	-14482
/7054.	-14483
/7125.	-14484
/7155.	-14485
/7218.	-14486
/7255.	-14487
/7307.	-14488
/7354.	-14489
/7355.	-14490
/7418.	-14491
▁khiển	-14492
▁nhăng	-14493
▁4.222,	-14494
▁2.4405,	-14495
▁3.70075,	-14496
▁2.862625,	-14497
▁2.862875,	-14498
▁2.876875,	-14499
võ	-14500
khám	-14501
trạm	-14502
▁hất	-14503
▁nảy	-14504
/186.	-14505
/421.	-14506
/521.	-14507
/638.	-14508
/757.	-14509
/857.	-14510
/957.	-14511
/1018.	-14512
/1057.	-14513
/1258.	-14514
/1557.	-14515
/1657.	-14516
/1658.	-14517
/1758.	-14518
/1801.	-14519
/1857.	-14520
/1858.	-14521
/2057.	-14522
/2098.	-14523
/2158.	-14524
/2316.	-14525
/2358.	-14526
/2402.	-14527
/2557.	-14528
/2558.	-14529
/2602.	-14530
/2657.	-14531
/2675.	-14532
/2757.	-14533
/2758.	-14534
/2786.	-14535
/2857.	-14536
/2858.	-14537
/2958.	-14538
/3058.	-14539
/3257.	-14540
/3258.	-14541
/3408.	-14542
/3581.	-14543
/3658.	-14544
/3758.	-14545
/3770.	-14546
/3957.	-14547
/4058.	-14548
/4094.	-14549
/4156.	-14550
/4158.	-14551
/4356.	-14552
/4358.	-14553
/4557.	-14554
/4558.	-14555
/4632.	-14556
/4657.	-14557
/4658.	-14558
/4737.	-14559
/4856.	-14560
/4857.	-14561
/5056.	-14562
/5058.	-14563
/5156.	-14564
/5257.	-14565
/5258.	-14566
/5356.	-14567
/5357.	-14568
/5358.	-14569
/5521.	-14570
/5657.	-14571
/5659.	-14572
/5702.	-14573
/5756.	-14574
/5757.	-14575
/5814.	-14576
/6156.	-14577
/6157.	-14578
/6256.	-14579
/6257.	-14580
/6556.	-14581
/6657.	-14582
/6757.	-14583
/6856.	-14584
/6957.	-14585
/7057.	-14586
/7086.	-14587
/7090.	-14588
/7156.	-14589
/7256.	-14590
/7356.	-14591
/7357.	-14592
▁3.88,	-14593
▁2.4955,	-14594
▁2.35875,	-14595
▁2.389625,	-14596
▁2.880625,	-14597
▁2.901125,	-14598
▁2.915375,	-14599
kế	-14600
đam	-14601
▁áng	-14602
/750.	-14603
/758.	-14604
/759.	-14605
/784.	-14606
/859.	-14607
▁rước	-14608
/1003.	-14609
/1059.	-14610
/1061.	-14611
/1259.	-14612
/1260.	-14613
/1261.	-14614
/1360.	-14615
/1361.	-14616
/1527.	-14617
/1559.	-14618
/1560.	-14619
/1561.	-14620
/1571.	-14621
/1659.	-14622
/1759.	-14623
/1859.	-14624
/2059.	-14625
/2061.	-14626
/2260.	-14627
/2359.	-14628
/2659.	-14629
/2859.	-14630
/2861.	-14631
/2959.	-14632
/3059.	-14633
/3161.	-14634
/3261.	-14635
/3559.	-14636
/3659.	-14637
/3660.	-14638
/3661.	-14639
/3759.	-14640
/3761.	-14641
/3859.	-14642
/3959.	-14643
/3961.	-14644
/4060.	-14645
/4061.	-14646
/4260.	-14647
/4296.	-14648
/4359.	-14649
/4500.	-14650
/4642.	-14651
/4659.	-14652
/4859.	-14653
/4959.	-14654
/4960.	-14655
/5159.	-14656
/5259.	-14657
/5359.	-14658
/5360.	-14659
/5490.	-14660
/5559.	-14661
/5560.	-14662
/5759.	-14663
/5760.	-14664
/5959.	-14665
/5960.	-14666
/6056.	-14667
/6058.	-14668
/6059.	-14669
/6159.	-14670
/6259.	-14671
/6260.	-14672
/6317.	-14673
/6358.	-14674
/6366.	-14675
/6559.	-14676
/6614.	-14677
/6759.	-14678
/6760.	-14679
/6768.	-14680
/6859.	-14681
/6860.	-14682
/7059.	-14683
/7127.	-14684
/7260.	-14685
/7316.	-14686
/7359.	-14687
▁5.159,	-14688
▁1.474125,	-14689
▁2.919875,	-14690
▁2.922625,	-14691
▁2.922875,	-14692
▁2.931375,	-14693
▁2.938375,	-14694
▁2.942125,	-14695
▁2.970625,	-14696
▁2.977125,	-14697
▁2.982125,	-14698
▁2.990375,	-14699
▁gục	-14700
/134.	-14701
/223.	-14702
/274.	-14703
/536.	-14704
/762.	-14705
/861.	-14706
/862.	-14707
/863.	-14708
/963.	-14709
▁bệch	-14710
/1064.	-14711
/1162.	-14712
/1172.	-14713
/1314.	-14714
/1362.	-14715
/1562.	-14716
/1664.	-14717
/1762.	-14718
/1763.	-14719
/1769.	-14720
/1806.	-14721
/1832.	-14722
/1863.	-14723
/2162.	-14724
/2163.	-14725
/2188.	-14726
/2256.	-14727
/2362.	-14728
/2562.	-14729
/2579.	-14730
/2662.	-14731
/2731.	-14732
/2800.	-14733
/2836.	-14734
/2962.	-14735
/3062.	-14736
/3063.	-14737
/3111.	-14738
/3162.	-14739
/3193.	-14740
/3224.	-14741
/3324.	-14742
/3363.	-14743
/3562.	-14744
/3663.	-14745
/3763.	-14746
/3862.	-14747
/3914.	-14748
/4062.	-14749
/4161.	-14750
/4163.	-14751
/4262.	-14752
/4562.	-14753
/4661.	-14754
/4662.	-14755
/4663.	-14756
/4762.	-14757
/4763.	-14758
/4858.	-14759
/4861.	-14760
/4863.	-14761
/4962.	-14762
/4963.	-14763
/5162.	-14764
/5263.	-14765
/5363.	-14766
/5371.	-14767
/5373.	-14768
/5471.	-14769
/5662.	-14770
/5740.	-14771
/5861.	-14772
/5962.	-14773
/6061.	-14774
/6134.	-14775
/6162.	-14776
/6163.	-14777
/6261.	-14778
/6262.	-14779
/6362.	-14780
/6363.	-14781
/6562.	-14782
/6660.	-14783
/6661.	-14784
/6662.	-14785
/6663.	-14786
/6761.	-14787
/6862.	-14788
/6961.	-14789
/7061.	-14790
/7062.	-14791
/7160.	-14792
/7200.	-14793
/7362.	-14794
/7363.	-14795
/7442.	-14796
▁4.782,	-14797
▁1.173375,	-14798
▁2.995875,	-14799
hút	-14800
lỗi	-14801
đức	-14802
/36.	-14803
/50.	-14804
/80.	-14805
sách	-14806
điếu	-14807
/623.	-14808
/764.	-14809
/864.	-14810
/965.	-14811
/966.	-14812
/993.	-14813
▁3.4,	-14814
/1065.	-14815
/1066.	-14816
/1067.	-14817
/1165.	-14818
/1266.	-14819
/1442.	-14820
/1565.	-14821
/1567.	-14822
/1767.	-14823
/1770.	-14824
/1776.	-14825
/1784.	-14826
/1866.	-14827
/1965.	-14828
/2065.	-14829
/2066.	-14830
/2067.	-14831
/2165.	-14832
/2167.	-14833
/2265.	-14834
/2266.	-14835
/2565.	-14836
/2566.	-14837
/2665.	-14838
/2666.	-14839
/2764.	-14840
/2766.	-14841
/2839.	-14842
/2864.	-14843
/2865.	-14844
/2866.	-14845
/2965.	-14846
/3164.	-14847
/3165.	-14848
/3264.	-14849
/3287.	-14850
/3358.	-14851
/3366.	-14852
/3487.	-14853
/3565.	-14854
/3764.	-14855
/3765.	-14856
/3865.	-14857
/3966.	-14858
/4164.	-14859
/4264.	-14860
/4353.	-14861
/4437.	-14862
/4565.	-14863
/4765.	-14864
/4766.	-14865
/4865.	-14866
/4965.	-14867
/4997.	-14868
/5066.	-14869
/5165.	-14870
/5295.	-14871
/5564.	-14872
/5566.	-14873
/5666.	-14874
/5764.	-14875
/5846.	-14876
/5865.	-14877
/5866.	-14878
/5965.	-14879
/6069.	-14880
/6164.	-14881
/6165.	-14882
/6264.	-14883
/6266.	-14884
/6356.	-14885
/6566.	-14886
/6664.	-14887
/6966.	-14888
/7164.	-14889
/7166.	-14890
/7264.	-14891
/7268.	-14892
/7289.	-14893
/7365.	-14894
/7378.	-14895
▁khùng	-14896
▁3.86175,	-14897
▁2.997125,	-14898
▁3.000125,	-14899
/28.	-14900
giận	-14901
▁tủy	-14902
/525.	-14903
/743.	-14904
/810.	-14905
/867.	-14906
/901.	-14907
/967.	-14908
ngược	-14909
/1009.	-14910
/1068.	-14911
/1169.	-14912
/1293.	-14913
/1368.	-14914
/1369.	-14915
/1569.	-14916
/1570.	-14917
/1623.	-14918
/1670.	-14919
/1768.	-14920
/1851.	-14921
/1868.	-14922
/1869.	-14923
/1969.	-14924
/2068.	-14925
/2069.	-14926
/2070.	-14927
/2168.	-14928
/2169.	-14929
/2170.	-14930
/2268.	-14931
/2270.	-14932
/2273.	-14933
/2310.	-14934
/2367.	-14935
/2369.	-14936
/2370.	-14937
/2464.	-14938
/2478.	-14939
/2569.	-14940
/2668.	-14941
/2669.	-14942
/2770.	-14943
/2994.	-14944
/3046.	-14945
/3068.	-14946
/3101.	-14947
/3167.	-14948
/3367.	-14949
/3567.	-14950
/3569.	-14951
/3570.	-14952
/3767.	-14953
/3868.	-14954
/3967.	-14955
/4167.	-14956
/4168.	-14957
/4265.	-14958
/4269.	-14959
/4333.	-14960
/4367.	-14961
/4448.	-14962
/4669.	-14963
/4867.	-14964
/4923.	-14965
/4968.	-14966
/4970.	-14967
/5068.	-14968
/5069.	-14969
/5167.	-14970
/5171.	-14971
/5409.	-14972
/5567.	-14973
/5568.	-14974
/5569.	-14975
/5767.	-14976
/5769.	-14977
/5868.	-14978
/5967.	-14979
/5968.	-14980
/6169.	-14981
/6267.	-14982
/6368.	-14983
/6369.	-14984
/6567.	-14985
/6668.	-14986
/6769.	-14987
/6869.	-14988
/7000.	-14989
/7069.	-14990
/7119.	-14991
/7167.	-14992
/7257.	-14993
/7267.	-14994
/7367.	-14995
/7375.	-14996
▁3.00075,	-14997
▁3.000625,	-14998
▁3.022125,	-14999
đắm	-15000
▁vé	-15001
/14.	-15002
/184.	-15003
/770.	-15004
duyên	-15005
/1171.	-15006
/1263.	-15007
/1371.	-15008
/1476.	-15009
/2171.	-15010
/2271.	-15011
/2474.	-15012
/2571.	-15013
/2671.	-15014
/2741.	-15015
/2771.	-15016
/2871.	-15017
/3071.	-15018
/3085.	-15019
/3670.	-15020
/3970.	-15021
/4068.	-15022
/4070.	-15023
/4071.	-15024
/4171.	-15025
/4270.	-15026
/4370.	-15027
/4671.	-15028
/4870.	-15029
/4871.	-15030
/5170.	-15031
/5271.	-15032
/5412.	-15033
/5570.	-15034
/5970.	-15035
/5971.	-15036
/6070.	-15037
/6071.	-15038
/6171.	-15039
/6270.	-15040
/6484.	-15041
/6770.	-15042
/7011.	-15043
/7170.	-15044
/7370.	-15045
▁4.119,	-15046
▁1.9685,	-15047
▁2.831125,	-15048
▁3.038375,	-15049
▁3.039625,	-15050
▁3.040875,	-15051
▁3.058875,	-15052
▁3.061875,	-15053
▁3.078375,	-15054
▁3.079875,	-15055
▁3.100875,	-15056
▁3.119375,	-15057
▁3.119625,	-15058
▁3.120875,	-15059
▁3.160125,	-15060
▁3.171375,	-15061
▁3.180125,	-15062
▁3.188625,	-15063
▁3.199875,	-15064
▁3.240125,	-15065
▁3.260375,	-15066
▁3.260875,	-15067
▁3.274875,	-15068
▁3.281375,	-15069
▁3.300875,	-15070
▁3.315625,	-15071
▁3.318875,	-15072
▁3.320375,	-15073
▁3.321625,	-15074
▁3.322125,	-15075
▁3.342375,	-15076
▁3.358375,	-15077
▁3.380375,	-15078
▁3.381875,	-15079
▁3.382875,	-15080
▁3.396625,	-15081
▁3.399875,	-15082
▁3.401125,	-15083
▁3.402375,	-15084
▁3.421125,	-15085
▁3.421875,	-15086
▁3.429375,	-15087
▁3.440375,	-15088
▁3.441375,	-15089
▁3.442875,	-15090
▁3.460125,	-15091
▁3.462625,	-15092
▁3.482875,	-15093
▁3.502625,	-15094
▁3.502875,	-15095
▁3.512125,	-15096
▁3.536625,	-15097
▁3.540625,	-15098
▁3.542125,	-15099
▁3.551125,	-15100
▁3.561375,	-15101
▁3.575625,	-15102
▁3.577875,	-15103
▁3.598625,	-15104
▁3.599625,	-15105
▁3.599875,	-15106
▁3.600625,	-15107
▁3.620625,	-15108
▁3.621375,	-15109
▁3.622875,	-15110
▁3.640875,	-15111
▁3.642375,	-15112
▁3.660375,	-15113
▁3.660625,	-15114
▁3.660875,	-15115
▁3.682875,	-15116
▁3.701125,	-15117
▁3.702375,	-15118
▁3.720875,	-15119
▁3.742375,	-15120
▁3.780875,	-15121
▁3.781375,	-15122
▁3.781625,	-15123
▁3.802375,	-15124
▁3.820625,	-15125
▁3.841625,	-15126
▁3.880875,	-15127
▁3.881875,	-15128
▁3.901375,	-15129
▁3.901875,	-15130
▁3.960625,	-15131
▁3.980125,	-15132
▁4.020625,	-15133
▁4.022625,	-15134
▁4.042375,	-15135
▁4.060625,	-15136
▁4.061625,	-15137
▁4.081875,	-15138
▁4.142875,	-15139
▁4.161125,	-15140
▁4.162375,	-15141
▁4.181875,	-15142
▁4.230875,	-15143
▁4.242625,	-15144
▁4.340375,	-15145
▁4.461875,	-15146
▁4.462125,	-15147
▁4.475375,	-15148
▁4.481375,	-15149
▁4.482375,	-15150
▁4.511125,	-15151
▁4.521875,	-15152
▁4.540625,	-15153
▁4.541375,	-15154
▁4.541875,	-15155
▁4.581625,	-15156
▁4.640875,	-15157
▁4.701625,	-15158
▁4.702625,	-15159
▁4.702875,	-15160
▁4.721875,	-15161
▁4.781125,	-15162
▁4.800875,	-15163
▁4.822875,	-15164
▁4.882625,	-15165
▁4.901875,	-15166
▁4.940875,	-15167
▁4.980875,	-15168
▁5.100875,	-15169
▁5.101625,	-15170
▁5.381625,	-15171
▁5.581625,	-15172
▁0.9136875,	-15173
▁0.9301875,	-15174
▁1.0088125,	-15175
▁1.0306875,	-15176
▁1.0725625,	-15177
▁1.1084375,	-15178
▁1.1294375,	-15179
▁1.1468125,	-15180
▁1.1508125,	-15181
▁1.1704375,	-15182
▁1.1729375,	-15183
▁1.1735625,	-15184
▁1.1915625,	-15185
▁1.2121875,	-15186
▁1.2133125,	-15187
▁1.2135625,	-15188
▁1.2170625,	-15189
▁1.2349375,	-15190
▁1.2496875,	-15191
▁1.2520625,	-15192
▁1.2551875,	-15193
▁1.2656875,	-15194
▁1.2698125,	-15195
▁1.2699375,	-15196
▁1.2714375,	-15197
▁1.2735625,	-15198
▁1.2745625,	-15199
▁1.2758125,	-15200
▁1.2934375,	-15201
▁1.2944375,	-15202
▁1.3075625,	-15203
▁1.3125625,	-15204
▁1.3185625,	-15205
▁1.3273125,	-15206
▁1.3338125,	-15207
▁1.3469375,	-15208
▁1.3576875,	-15209
▁1.3700625,	-15210
▁1.3735625,	-15211
▁1.3751875,	-15212
▁1.3870625,	-15213
▁1.4110625,	-15214
▁1.4123125,	-15215
▁1.4139375,	-15216
▁1.4146875,	-15217
▁1.4278125,	-15218
▁1.4301875,	-15219
▁1.4333125,	-15220
▁1.4350625,	-15221
▁1.4354375,	-15222
▁1.4358125,	-15223
▁1.4525625,	-15224
▁1.4545625,	-15225
▁1.4580625,	-15226
▁1.4585625,	-15227
▁1.4680625,	-15228
▁1.4689375,	-15229
▁1.4706875,	-15230
▁1.4735625,	-15231
▁1.4750625,	-15232
▁1.4949375,	-15233
▁1.5116875,	-15234
▁1.5121875,	-15235
▁1.5128125,	-15236
▁1.5154375,	-15237
▁1.5200625,	-15238
▁1.5306875,	-15239
▁1.5319375,	-15240
▁1.5366875,	-15241
▁1.5384375,	-15242
▁1.5503125,	-15243
▁1.5518125,	-15244
▁1.5600625,	-15245
▁1.5611875,	-15246
▁1.5676875,	-15247
▁1.5709375,	-15248
▁1.5756875,	-15249
▁1.5759375,	-15250
▁1.5771875,	-15251
▁1.5790625,	-15252
▁1.5965625,	-15253
▁1.5969375,	-15254
▁1.5995625,	-15255
▁1.5999375,	-15256
▁1.6024375,	-15257
▁1.6138125,	-15258
▁1.6148125,	-15259
▁1.6153125,	-15260
▁1.6176875,	-15261
▁1.6183125,	-15262
▁1.6208125,	-15263
▁1.6280625,	-15264
▁1.6326875,	-15265
▁1.6330625,	-15266
▁1.6339375,	-15267
▁1.6361875,	-15268
▁1.6390625,	-15269
▁1.6403125,	-15270
▁1.6410625,	-15271
▁1.6541875,	-15272
▁1.6563125,	-15273
▁1.6566875,	-15274
▁1.6593125,	-15275
▁1.6704375,	-15276
▁1.6743125,	-15277
▁1.6744375,	-15278
▁1.6758125,	-15279
▁1.6768125,	-15280
▁1.6773125,	-15281
▁1.6795625,	-15282
▁1.6799375,	-15283
▁1.6886875,	-15284
▁1.6891875,	-15285
▁1.6905625,	-15286
▁1.6968125,	-15287
▁1.6980625,	-15288
▁1.6986875,	-15289
▁1.6991875,	-15290
▁1.6995625,	-15291
▁1.7146875,	-15292
▁1.7159375,	-15293
▁1.7178125,	-15294
▁1.7185625,	-15295
▁1.7321875,	-15296
▁1.7340625,	-15297
▁1.7346875,	-15298
▁1.7353125,	-15299
▁1.7364375,	-15300
▁1.7374375,	-15301
▁1.7375625,	-15302
▁1.7378125,	-15303
▁1.7390625,	-15304
▁1.7409375,	-15305
▁1.7413125,	-15306
▁1.7503125,	-15307
▁1.7530625,	-15308
▁1.7545625,	-15309
▁1.7589375,	-15310
▁1.7594375,	-15311
▁1.7735625,	-15312
▁1.7740625,	-15313
▁1.7748125,	-15314
▁1.7780625,	-15315
▁1.7895625,	-15316
▁1.7903125,	-15317
▁1.7968125,	-15318
▁1.7971875,	-15319
▁1.7978125,	-15320
▁1.8005625,	-15321
▁1.8073125,	-15322
▁1.8100625,	-15323
▁1.8116875,	-15324
▁1.8140625,	-15325
▁1.8154375,	-15326
▁1.8159375,	-15327
▁1.8173125,	-15328
▁1.8196875,	-15329
▁1.8291875,	-15330
▁1.8340625,	-15331
▁1.8344375,	-15332
▁1.8364375,	-15333
▁1.8411875,	-15334
▁1.8413125,	-15335
▁1.8465625,	-15336
▁1.8496875,	-15337
▁1.8514375,	-15338
▁1.8541875,	-15339
▁1.8545625,	-15340
▁1.8558125,	-15341
▁1.8563125,	-15342
▁1.8566875,	-15343
▁1.8570625,	-15344
▁1.8573125,	-15345
▁1.8576875,	-15346
[...]
