"
##":
##ud
##ng
##00
##on
##500
##at
##av
##wav
c
t
##ho
##uy
##li
##con
##en
##nguy
##du
##va
##le
##ie
##ve
##",
##AI
##ex
##fi
##io
##me
##pd
##rt
##{"
##AIb
##Bud
##Vie
##ath
##ati
##aud
##dur
##ext
##lep
##lid
"/
{"
##500/
##500_
##Viet
##home
##text
##vert
##wavs
##AIbud
##ation
##audio
##filep
##valid
##nguyen
##convert
##duration
##filepath
##pdnguyen
##VietAIbud
##"}
##5,
##nh
đ
##2.
2.
m
l
th
v
##25,
##75,
nh
b
k
n
ch
h
##3.
##1.
kh
s
##ông
ng
g
là
tr
3.
##125,
##625,
1.
##375,
##875,
r
##ời
##ph
##/4
##/6
##/1
##/2
##/3
##/5
##ên
##ình
##ôi
ph
không
có
cá
##anh
d
gi
##4.
##ch
##ới
##ột
##qu
##ủa
##21
##iế
##41
và
##5.
##ười
##6.
##7.
##8.
##9.
##61
##ất
qu
##ại
##iệ
mà
của
x
##0.
##ượ
##ấy
một
##01
##81
như
nó
tôi
anh
nà
##em
người
##/7
mình
##ững
##ược
##ũng
##ay
cái
##5625,
##iề
thì
2.3
2.4
##ai
##ải
##th
được
##8125,
2.2
##4375,
##ong
những
cũng
em
cả
##3125,
##ân
cho
##ồi
##6875,
đó
##uố
đi
con
2.1
2.5
2.7
##0625,
2.6
lại
##ao
ngh
đã
với
2.8
##ây
##ần
cô
##iều
này
##ạn
##ướ
##úng
ta
ra
##âu
##kh
##ác
##au
2.9
làm
##ến
nói
##80
phải
##ang
để
##9375,
##iết
##60
về
##an
1.9
##òn
##20
##ước
2.0
trong
thể
khi
sẽ
1.8
rồi
##40
##ươ
##42
bạn
gì
##ái
họ
ở
##ành
đến
##ương
##1875,
nhưng
##ận
##82
##ật
##iên
##ết
##àng
3.1
##iện
còn
thế
##62
##úc
1.7
##ơn
3.0
##iể
##tr
##ậy
chị
##22
biết
##ằng
##ườ
nào
ông
##ưa
##inh
mẹ
các
##ầu
##ài
##ăn
##àn
##ường
##ọi
nhà
##ống
việ
##êu
thấy
##ùng
##uyệ
từ
vì
##ồng
##02
##ức
##ính
chúng
##ày
##iến
chỉ
##ản
##ực
##uốn
##ữa
sự
##ắt
##không
##uyện
ho
nên
nhiều
##ơi
##ẫn
##ỏi
##ộc
vào
y
đây
việc
1.6
rất
vậy
ấy
3.2
cảm
giờ
3.3
##ôn
##òng
sao
##ối
##ội
hai
##ìn
##ếu
##át
4.
muốn
##in
chuyện
##ắc
mới
##59
##âm
##ặt
##ăm
##uộc
##iểu
##áng
đang
bà
đầu
cứ
##39
##ổi
##như
công
##ỗi
##ung
lên
nghĩ
##ích
nữa
vẫn
nhìn
##ắm
bị
nhất
1.5
3.4
3.5
##iền
hơn
sau
đề
lúc
hay
tiế
##99
##êm
##ảo
##uống
##ập
ăn
quá
sống
##79
ai
qua
đâu
##ậu
##ừa
ngày
##tôi
thành
##ăng
mọi
cùng
##ánh
##ứng
##ẳng
##ộng
đị
thời
##ạnh
##ừng
cách
nhận
##là
##ôm
khác
##ốt
##ọng
lu
thôi
tình
##ục
thân
đấy
trước
##/11
##/21
##/31
##/41
##/51
##/61
##/71
##thì
nhau
##am
##ách
nếu
tâm
tới
yêu
nghe
##án
##có
##eo
thứ
##nhưng
chưa
cuộc
nước
##ìm
##ấn
##21875,
##ào
##ặc
li
học
nay
##/9
##ắn
##/13
##/17
##/19
##/23
##/27
##/29
##/33
##/37
##/39
##/43
##/47
##/49
##/53
##/57
##/59
##/63
##/67
##/69
##/73
tự
##mình
##người
điều
##áo
##ửa
##/15
##/25
##/35
##/45
##/55
##/65
trên
định
hiện
quan
##ia
##ốc
rằng
bên
##ớn
gia
mặt
tay
##ầm
##ởi
thật
ý
##một
##oài
câu
##2,
lời
thu
##những
##út
##ưở
##ưởng
gian
chính
##ặp
cần
vừa
##49
##6,
##ạo
lý
lần
##trong
nhân
##quy
do
##cũng
bao
mắt
năm
đồng
##815625,
tại
##8,
##gi
to
hỏi
tìm
theo
tiền
nhiên
##/8
##47
##nó
##ám
##/12
##/16
##/18
##/22
##/26
##/28
##/32
##/36
##/38
##/42
##/46
##/48
##/52
##/56
##/58
##/62
##/66
##/68
##/72
tu
3.6
cậu
hết
##và
##ền
##ắng
đúng
##/10
##/20
##/30
##/40
##/50
##/60
##/70
##của
bác
bản
gái
xuống
##214375,
##43
##cái
khó
hiểu
luôn
##4,
##45
##48
##ọc
cơ
hôm
quy
tin
đều
động
##46
##áu
##ạt
lo
lớn
##iêu
##015,
bây
bảo
##ọn
##40.
##41.
##42.
##43.
##44.
##45.
##46.
##47.
##48.
##49.
tốt
##01875,
##611875,
thương
##814375,
##ấp
##ấu
bằng
sinh
##ui
ba
kho
##615,
lắm
trở
2.241
vợ
bắt
đời
hàng
##im
##áp
##iệm
sợ
thực
chồng
##21,
ngồi
vị
##ứa
gọi
##01375,
##41375,
##41,
##61,
##ảnh
vô
3.00
##61625,
chẳng
tiếng
##ồn
##được
gặp
bình
ngoài
##cô
##ãi
##iệt
bé
bố
bởi
đối
phòng
##50.
##51.
##52.
##53.
##54.
##55.
##56.
##57.
##58.
##59.
##60.
##61.
##62.
##63.
##64.
##65.
##66.
##67.
##68.
##69.
##70.
##71.
##72.
##73.
##74.
##75.
##76.
##77.
##78.
##79.
##80.
##81.
##82.
##83.
##84.
##85.
##86.
##87.
##88.
##89.
##cho
lấy
hành
2.421
##ãy
##00.
##30.
##31.
##32.
##33.
##34.
##35.
##36.
##37.
##38.
##39.
##uất
##ụng
3.7
mất
vui
lòng
##61375,
đường
##khi
##ượng
mỗi
hình
thường
##ạc
##ạy
chứ
tiếp
##mà
##để
đo
##chúng
quân
trọng
##ễn
lẽ
tho
nguy
sáng
##ua
##ướng
3.8
chú
tất
##00625,
##úp
nhỏ
xem
##ằm
##ảng
##ịch
##415,
nam
đưa
cháu
2.381
thích
##rồi
bộ
xin
##2175,
khỏi
minh
phát
thay
trai
##ảm
##ảy
##ợi
bu
kỳ
số
##215,
mấy
ngủ
đất
##6175,
đình
##81375,
##215625,
##01,
##ngh
đủ
trả
thêm
xong
đứng
2.961
trường
##ầy
##uối
xe
bất
phí
đại
năng
toàn
khiến
thông
##ợp
##thế
vẻ
xa
##uyên
chí
cửa
tên
đàn
đứa
##0125,
trình
##414375,
##ấm
##ẩn
##óng
##ệnh
bỏ
tư
3.9
nơi
2.00
##iệp
##này
gần
hội
lâu
điể
##4175,
sang
##41125,
##80625,
2.701
##416875,
##óc
##ẹp
##iễn
##với
mở
##phải
phụ
đổi
ảnh
giới
##oi
##iệu
dù
sĩ
hãy
nhớ
##4125,
giúp
tính
viên
##21375,
##40625,
chiến
##413125,
##ét
##iển
##ạch
tập
chắc
chịu
quay
trời
2.301
##613125,
##810625,
##ạm
##iểm
##nói
##ặng
hoa
hợp
kia
quốc
điện
##21125,
##81875,
3.001
##ắp
à
ạ
giá
trẻ
đêm
chơi
phần
##809375,
##làm
##ạng
dự
nữ
cao
nằm
tài
càng
mạnh
tiên
quyết
ơn
sức
##6125,
chết
giải
kiểu
ngay
từng
điểm
trung
##âng
##ưới
hệ
vật
xuất
đừng
tưởng
##ít
##óa
##ếp
##lại
##ĩnh
cố
tế
đồ
ơi
kết
đau
đẹp
cười
cảnh
thức
2.741
##ậm
##ửi
##các
##iếu
lã
rõ
cầu
mua
sản
chân
##616875,
##đó
##ẩm
##90.
##91.
##92.
##93.
##94.
##95.
##96.
##97.
##98.
##99.
##ưng
an
kể
1.3
chủ
coi
quả
thị
tuy
##2125,
##nhiều
dụng
kinh
việt
##21625,
hoàng
##418125,
##áy
##ển
##ốn
hà
độ
chu
chỗ
lập
lỗi
nội
vấn
biến
chạy
##20625,
##61875,
##éo
##đi
##01.
##02.
##03.
##04.
##05.
##06.
##07.
##08.
##09.
##10.
##11.
##12.
##13.
##14.
##15.
##16.
##17.
##18.
##19.
##20.
##21.
##22.
##23.
##24.
##25.
##26.
##27.
##28.
##29.
##chị
dễ
tổ
4.1
dài
giả
thủ
trị
tạo
tức
##8175,
bước
bệnh
chút
chọn
tuổi
uống
thanh
2.2415625,
##về
##ón
##ệt
##ộn
##uôi
du
lực
nhẹ
trí
đôi
giác
đánh
##016875,
##605625,
##614375,
##816875,
nghiệp
phương
2.2410625,
##19
##iếm
##rất
##sau
vụ
xử
ngờ
sai
đội
chuy
hoàn
hạnh
liên
mang
pháp
##81625,
2.320
khách
nghĩa
##iê
##òa
##óm
##79,
gh
ít
##405,
##iêng
cha
dân
mai
mặc
quý
đơn
dành
phía
quên
tiêu
trải
##60875,
##82375,
hương
##008125,
##025625,
##216875,
##mẹ
##ép
##đã
##chỉ
##iếc
##iệc
##uốc
cổ
va
##hong
cây
cứu
khu
suy
vài
yếu
##0075,
##6075,
biệt
thần
##41625,
##213125,
##218125,
##ùa
##bạn
##iềm
##sao
vũ
##805,
cầm
huy
mãi
ánh
##phong
chào
chất
hoặc
quen
vọng
đáng
##60625,
2.500
thoại
thằng
##005625,
##011875,
##608125,
##808125,
2.401,
2.9215,
##62,
##còn
##nếu
##uốt
##ỉnh
mơ
##825,
##nhìn
dậy
hóa
tác
xúc
chia
cuối
tham
trái
##80375,
giống
thiên
##411875,
##415625,
##424375,
##803125,
##811875,
2.4211875,
##úi
##81,
##nên
lạ
so
sử
##225,
##nhau
bay
ngo
sâu
tối
tục
yên
đặc
##0175,
##trước
linh
thiết
##018125,
nghiệm
2.2814375,
2.3611875,
2.3813125,
##sự
##ẩy
##82,
##tại
##vậy
##đến
tỏ
báo
chi
duy
già
gửi
mày
văn
chức
diễn
dùng
thái
##40375,
chiếc
hướng
nhanh
##205625,
##624375,
2.121,
nguyên
2.48125,
2.1810625,
2.2214375,
##bà
##ớm
##cảm
##tiế
##ượt
cụ
dụ
mỹ
sẻ
##việc
cấp
hơi
hồi
may
thư
đặt
giáo
kiếm
nhật
nuôi
phúc
tĩnh
đông
##40875,
chứng
thẳng
##206875,
##423125,
##610625,
chuyển
2.4615,
2.441375,
##sẽ
##ựa
##59,
##lúc
hồ
##thực
4.0
nỗi
trò
xảy
##6025,
##chính
cạnh
kiến
mong
##chuyện
nhiệm
thuốc
triển
##604375,
2.1815625,
##ra
##ưu
##ệu
##ỏe
kẻ
kế
kỹ
ru
ty
áo
ôm
##425,
##điều
1.2
4.3
bàn
dám
hải
kéo
máy
mệt
sát
sắc
sớm
đạo
đẩy
đọc
chăm
khóc
tuấn
##22625,
##81125,
phong
##003125,
##606875,
##818125,
2.72175,
##ịp
##hai
##nào
##biết
bán
dục
giữ
hôn
vội
##8075,
buồn
buổi
dịch
loại
ngại
suốt
tiến
tích
##01625,
##62375,
chuẩn
quyền
thuộc
tháng
tương
##006875,
##406875,
1.98125,
2.301125,
2.421625,
##51
##22,
##39,
##xin
đá
##cuộc
##nhất
##thấy
4.2
chờ
căn
cực
khí
lão
màu
mức
nha
phố
tận
đợi
##2025,
diện
khăn
kiểm
liệu
thậm
tinh
đoàn
##20875,
2.362
doanh
nhiêu
quanh
tranh
##023125,
##419375,
2.061,
2.20125,
2.26175,
2.9618125,
##36
##cả
##từ
##ót
##15,
##mọi
##mới
##đây
hả
tụ
ví
đỏ
##công
bài
món
thở
thử
đạt
đầy
cánh
khỏe
lắng
lịch
nghỉ
ngon
phẩm
ràng
vàng
##41875,
##42125,
##82625,
2.22,
2.540
##010625,
##204375,
2.341,
2.8015,
2.26125,
2.501375,
2.561375,
2.641125,
2.901375,
##37
##57
##58
##ta
##ói
##ẹn
##ọt
ổ
##42,
##ỏng
##ủng
hộ
mu
tử
ấm
##nghe
##nghĩ
##ngày
##theo
##uyệt
##đang
bận
cơm
hòa
lai
sắp
tao
vai
vân
đảo
##8225,
##ngoài
bụng
chấp
danh
giữa
kiện
thầy
đoạn
##22125,
2.000
chung
riêng
trang
##015625,
##425625,
##619375,
##806875,
1.841,
trưởng
2.0615,
2.32175,
2.54125,
2.841375,
2.6613125,
2.6814375,
##33
##35
##56
##bị
##vì
##ẫu
##ặn
##99,
##cậu
##thể
##tất
##uổi
vệ
##205,
##815,
##cùng
##iệng
##muốn
ban
dẫn
hắn
khá
khổ
xưa
độc
ứng
##thành
2.17
cưới
dũng
giản
hiệu
liền
nghi
ngọc
nhắc
phép
phản
sách
tiết
tuần
vâng
vượt
xung
đóng
##00375,
##22375,
##42625,
##60125,
##61125,
##80125,
2.52,
miệng
thống
trách
##013125,
##019375,
##021875,
##203125,
##221875,
##821875,
khoảng
2.021125,
2.781375,
2.1411875,
2.2809375,
2.3208125,
##30
##38
##97
##họ
##ùi
##ẳn
##ẵn
##ớt
##ợt
##bây
##câu
##giờ
##uôn
##đầu
5.
sở
xã
##bình
##ngay
##thôi
##thời
##trên
##uyền
##đúng
chế
hẳn
nửa
sân
sóc
tầm
vực
##2225,
##chẳng
##chồng
chắn
cuốn
dựng
giao
giám
long
lặng
phận
phục
ruột
soát
thất
viện
##01125,
##80875,
lượng
thiện
##400625,
##420625,
##603125,
##618125,
##805625,
2.4015,
2.160875,
2.161375,
2.301625,
1.8011875,
2.3414375,
2.9416875,
3.0214375,
##17
##54
##55
##75
##èo
##òi
##õi
##gọi
##hay
##hỏi
##nhà
##ênh
##ượu
##ỳnh
im
tù
áp
ổn
##chưa
##khác
dâu
dạy
hậu
lợi
mưa
mến
nhờ
nắm
nổi
phủ
quà
sơn
đốc
##2625,
##4025,
##4225,
1.81
2.21
bóng
dung
giận
khoa
kích
lành
ngạc
nhắn
quán
rượu
thăm
thừa
##00875,
##25625,
##60375,
hưởng
thiếu
thuật
trạng
tượng
##020625,
##219375,
##408125,
##409375,
2.7415,
2.60125,
2.282375,
1.8611875,
2.0413125,
2.0811875,
2.4423125,
2.5815625,
2.6214375,
2.7011875,
2.7015625,
2.7611875,
##34
##do
##ém
##ưỡ
##bác
##bên
##bởi
##hôm
##khó
##tho
##tới
##vẫn
hu
hạ
sư
tú
ái
án
đỡ
##quan
##sống
##tiếp
##uyết
##vâng
dần
hạn
khả
kim
kêu
lạc
mật
mục
núi
rời
sẵn
thú
thơ
tim
tội
tụi
xây
xấu
đám
địa
đột
đức
##4275,
##khiến
1.59
3.20
gắng
hùng
khán
muộn
nhóm
nhập
phân
phút
tỉnh
2.802
hoạch
##209375,
##401875,
##421875,
##615625,
##623125,
##826875,
2.0015,
2.14175,
1.741125,
1.821375,
2.320375,
2.581125,
2.741875,
2.3606875,
3.0013125,
##76
##77
##9,
##95
##96
##cứ
##ãn
##èm
##ía
##ốm
##ớp
##đâu
hề
lễ
##chắc
##cách
##tiền
bạc
bật
bếp
bữa
ghi
hãi
hút
mối
nhu
nấu
phá
rơi
tra
tây
tồn
xác
đón
đấu
##4075,
##8025,
1.61
biển
bánh
chặt
dừng
giảm
giỏi
hiểm
hoạt
khám
luận
mạng
nhảy
tiện
trốn
tăng
##00125,
##42375,
2.04,
3.000
chiều
chàng
dương
giọng
khoản
##001875,
##014375,
##026875,
##211875,
##600625,
2.621,
2.82125,
2.84175,
2.361625,
1.7809375,
1.9010625,
2.3213125,
2.3818125,
2.4816875,
2.5004375,
##18
##50
##dù
##ằn
##ủi
##ữu
##bản
##hơn
##lắm
##qua
##tâm
##yêu
##đấy
##ườn
##ựng
cũ
lệ
mi
tố
âm
##005,
##bằng
##hàng
##luôn
##sinh
##sáng
##tính
4.5
cáo
dõi
lớp
mùa
mắc
mời
nền
phi
trợ
ích
đòi
##thích
2.01
2.5,
chúc
cộng
dòng
giai
giàu
khắc
luật
nghề
ngân
ngôi
niềm
nắng
phạm
quản
trăm
trần
tổng
viết
vùng
đoán
##thương
1.74,
1.86,
1.98,
2.782
ngược
nhàng
##220625,
##404375,
2.579,
3.1415,
2.20075,
1.841625,
2.101375,
2.621875,
2.861125,
1.6608125,
1.7013125,
1.8814375,
2.3020625,
2.5018125,
2.5215625,
2.5416875,
2.7410625,
2.9815625,
3.0613125,
##10
##53
##69
##đị
##ũi
##ỏa
##/14
##/24
##/34
##/44
##/54
##/64
##/74
##uồn
##ỗng
cà
lộ
lỡ
sơ
tí
vi
##/500
##605,
##rằng
##thay
##thật
##từng
##đồng
##đừng
##ưỡng
bọn
cải
hẹn
hữu
kịp
lựa
mát
máu
môi
nga
nhi
thi
xét
xóm
##2075,
2.41
3.40
biểu
chim
cung
hồng
lãnh
lạnh
nghệ
nghị
ngắn
rộng
sàng
trực
đích
##20125,
1.92,
2.28,
2.34,
2.46,
lương
phóng
quỳnh
thuận
tuyệt
xuyên
##426875,
##609375,
##625625,
##628125,
##813125,
##820625,
2.242,
chương
giường
2.2805,
1.64125,
2.20175,
2.88125,
1.720875,
1.940875,
1.961625,
2.801125,
2.821625,
2.881625,
3.221625,
1.8808125,
1.9414375,
2.0220625,
2.3025625,
2.4418125,
2.4610625,
2.4821875,
2.5023125,
2.6614375,
2.7213125,
2.9614375,
3.0014375,
##78
##91
##98
##gì
##àu
##èn
##đề
##ấc
##ụp
##/81
##/82
##/99
##bất
##cha
##lên
##mắt
##nữa
##xem
##đôi
bè
kỷ
mê
vã
đổ
##/100
##/101
##/102
##/121
##/122
##/139
##/141
##/142
##/143
##/145
##/146
##/147
##/148
##/149
##/159
##/161
##/162
##/179
##/181
##/182
##/199
##/200
##/201
##/202
##/221
##/222
##/239
##/241
##/242
##/243
##/245
##/246
##/247
##/248
##/249
##/259
##/261
##/262
##/279
##/281
##/282
##/299
##/300
##/301
##/302
##/321
##/322
##/339
##/341
##/342
##/343
##/345
##/346
##/347
##/348
##/349
##/359
##/361
##/362
##/379
##/381
##/382
##/399
##/400
##/401
##/402
##/421
##/422
##/439
##/441
##/442
##/443
##/445
##/446
##/447
##/448
##/449
##/459
##/461
##/462
##/479
##/481
##/482
##/499
##/501
##/502
##/521
##/522
##/539
##/541
##/542
##/543
##/545
##/546
##/547
##/548
##/549
##/559
##/561
##/562
##/579
##/581
##/582
##/599
##/600
##/601
##/602
##/621
##/622
##/639
##/641
##/642
##/643
##/645
##/646
##/647
##/648
##/649
##/659
##/661
##/662
##/679
##/681
##/682
##/699
##/700
##/701
##/702
##/721
##/722
##/739
##/741
##/742
##/743
##/745
##/746
##/747
##/748
##/749
##cuối
##lòng
##phía
##thân
##tình
chữ
cơn
gây
gòn
hài
hại
hứa
lửa
mỏi
phê
quê
rút
sếp
tấm
tết
vận
xót
đáp
##0025,
##2875,
##tiếng
##trung
1.71
1.8,
3.22
canh
chạm
căng
khôn
kiên
kiệt
làng
lưng
nặng
quần
siêu
thận
tiểu
xanh
đựng
##24375,
##82125,
##phương
1.56,
1.68,
2.16,
2.58,
ngoại
##208125,
##598125,
##804375,
1.621,
2.561,
nguyễn
2.3405,
3.2015,
2.08025,
2.38225,
2.42025,
2.78175,
2.541375,
2.761625,
2.861625,
2.921125,
3.121375,
1.7215625,
1.9610625,
2.1008125,
2.1215625,
2.3400625,
2.3620625,
2.4005625,
2.5205625,
2.6016875,
3.0016875,
3.0415625,
3.0616875,
##90
##bố
##tự
##ão
á
##/80
##02,
##19,
##chứ
##gia
##gặp
##hãy
##lần
##mỗi
##năm
##thu
##tuy
dạ
hỗ
ký
má
nọ
tệ
##/120
##/140
##/160
##/180
##/220
##/240
##/260
##/280
##/320
##/340
##/360
##/380
##/420
##/440
##/460
##/480
##/520
##/540
##/560
##/580
##/620
##/640
##/660
##/680
##/720
##/740
##025,
##càng
##hiện
##hoặc
##hành
##quen
##trời
1.4
4.4
bắc
bắn
cặp
dọn
gật
gợi
hào
hát
khô
lầm
mái
nhỉ
rửa
tàu
tôn
túi
vời
xếp
đen
đào
đảm
đớn
##6225,
##riêng
##tưởng
1.37
1.41
1.47
2.31
4.00
biên
cổng
dưới
giây
giấc
giật
hiền
loài
mừng
nàng
phim
rừng
thai
thuê
thúc
toán
trao
tặng
vòng
##20375,
##35625,
##62625,
2.64,
2.702
gương
ngang
ngoan
sướng
thoát
trông
tướng
##210625,
##399375,
##621875,
##626875,
##799375,
##801875,
##825625,
khuyên
thuyết
truyền
2.4415,
2.8415,
2.9015,
2.04225,
2.020625,
2.100375,
2.380375,
2.422125,
2.440375,
2.521125,
2.600875,
2.881375,
3.201875,
1.6008125,
1.7815625,
2.1406875,
2.1426875,
2.1604375,
2.2209375,
2.2603125,
2.2608125,
2.4011875,
2.4611875,
2.5820625,
2.6415625,
2.6810625,
##89
##94
##ba
##dạ
##ẩu
##ện
##bao
##bắt
##chú
##cần
##iếp
##lấy
##lời
##mấy
##mặt
##nay
##oàn
##thứ
##tạo
##tốt
##vừa
##ãng
##đêm
##đại
##đối
##ươi
bí
bù
da
nợ
nụ
rỡ
sổ
đa
đà
##bước
##hiểu
##nhận
##nước
##xong
1.1
4.7
bầu
bức
bực
cất
cẩn
cắt
dặn
dựa
ghế
gió
hòn
họp
kém
lan
lát
lưu
lẫn
lắc
môn
mùi
mắn
rộn
sài
tái
tùy
tạm
tắc
vốn
đáo
ủng
##2375,
##4875,
##8275,
##chứng
##hoàng
##thằng
##tương
1.51
2.0,
2.29
chìm
dính
giấu
khai
khát
khảo
miền
ngập
nhắm
niên
niệm
nóng
phẫu
suất
thua
thảo
##thường
2.822
2.88,
khủng
ngành
thính
tránh
trắng
##201875,
##599375,
##819375,
##824375,
##828125,
##999375,
1.859,
2.182,
nghiêm
nghiên
1.6615,
2.8615,
3.2615,
1.76075,
1.98075,
2.14025,
2.32225,
2.36025,
2.76175,
1.780625,
2.022625,
2.142125,
2.222375,
2.281875,
2.482625,
2.561875,
3.181375,
1.7006875,
1.9221875,
1.9803125,
2.0009375,
2.0408125,
2.0816875,
2.3625625,
2.4624375,
2.5009375,
2.6003125,
2.6413125,
2.7013125,
2.7613125,
2.8605625,
2.9018125,
2.9413125,
2.9619375,
2.9811875,
3.0814375,
3.0815625,
##07
##71
##cố
##tu
##ềm
##ộm
##ứt
##35,
##lâu
##mai
##nhớ
##nỗi
##trở
bổ
di
dè
gã
gỗ
hy
ma
mẽ
đô
đẻ
ốm
ủi
##dưới
##giúp
##kinh
##kiểm
##liên
##mang
##nhân
##phần
##thưa
##thậm
##thức
##xuất
bát
chó
chợ
cốc
cởi
hạt
hầu
lui
lái
mau
mãn
nhá
nhị
nãy
nạn
phù
rực
tha
thù
thờ
trì
tân
tắm
đem
đập
##5975,
##9875,
##chiều
##khách
1.43
1.45
1.49
1.67
2.1,
2.35
3.62
buộc
bỗng
chảy
chối
chục
chụp
chửi
giấy
hỏng
khẩu
kính
lính
ngàn
ngón
ngắm
ngọt
nhạc
nông
phấn
phật
răng
sung
sông
sạch
thao
thấu
thầm
thỏa
thủy
trân
tròn
trôi
tươi
vinh
vườn
điển
##39875,
##59875,
##62125,
##98125,
##99875,
1.62,
2.402
2.82,
hoảng
khang
khoái
khích
nguồn
quang
quãng
quảng
thiệu
thăng
trống
##009375,
##224375,
##403125,
##410625,
##823125,
1.561,
1.902,
2.381,
2.399,
2.462,
2.522,
chuyến
nguyện
2.6805,
3.1215,
1.92125,
2.60075,
2.66075,
2.66175,
2.72225,
3.34175,
1.640625,
1.761375,
1.882375,
2.460125,
2.481375,
2.562375,
2.622375,
2.702125,
3.161375,
1.5211875,
1.5414375,
1.7401875,
1.7420625,
1.8204375,
1.8803125,
1.9399375,
2.0600625,
2.1023125,
2.2003125,
2.3001875,
2.3424375,
2.4024375,
2.4806875,
2.5403125,
2.5418125,
2.6021875,
2.7214375,
2.7424375,
2.8005625,
2.8024375,
2.9418125,
3.0215625,
3.0614375,
3.1015625,
3.1025625,
3.4616875,
##16
##29
##lo
##ĩa
##ạp
##ẫy
##ợn
ừ
##hóa
##kia
##lớn
##món
##mục
##nhỏ
##nơi
##quả
##tin
##tối
##vui
##vào
##vấn
0.
ca
dị
gà
la
lá
lê
lũ
vả
xí
ân
óc
út
##500.
##chia
##cháu
##chạy
##chịu
##hoàn
##hình
##iếng
##long
##quay
##quân
##tham
##trai
##định
##động
4.6
4.9
bại
bấy
bọc
bớt
cay
chả
cấm
dồn
góc
gũi
họa
hồn
lao
lối
lừa
màn
mẫu
mềm
ngã
nét
nối
phú
quỹ
sốt
sửa
thả
trà
trụ
tán
tòa
tấn
tắt
tốc
tổn
tộc
đùa
đợt
ước
ống
##chàng
##giọng
##phòng
##thiên
##thông
##trọng
##tuyệt
##đường
1.21
1.48
1.53
1.69
1.97
2.4,
2.7,
3.60
chán
chốt
chữa
cứng
dạng
giọt
hiệp
hưng
khởi
kiềm
lĩnh
miễn
mông
ngăn
ngơi
nhẫn
nhằm
nâng
phạt
thèm
thưa
thấp
tràn
trúc
trưa
trấn
trầm
trận
trộm
xinh
xứng
đuổi
đành
##02375,
##42875,
##79375,
##96875,
1.72,
2.74,
2.76,
2.94,
3.12,
chóng
chống
cường
dường
dưỡng
hoang
khung
khuất
khánh
nghèo
phiền
thánh
thắng
tuyết
##200625,
##398125,
##405625,
##620625,
##996875,
1.739,
1.861,
2.161,
2.841,
3.041,
chuyên
thoáng
thượng
2.0005,
2.3815,
2.5015,
2.7815,
3.3215,
1.86025,
2.44275,
2.70175,
2.92125,
3.36175,
1.480625,
1.840625,
1.860625,
1.900125,
1.960125,
2.001875,
2.082125,
2.300625,
2.542625,
2.580625,
2.640625,
2.741625,
2.760625,
2.781875,
2.801625,
2.801875,
2.821375,
2.940375,
3.141125,
3.161625,
3.201625,
3.221375,
3.241375,
3.301875,
1.6810625,
1.8419375,
1.9206875,
2.0605625,
2.2021875,
2.2401875,
2.3419375,
2.4605625,
2.4803125,
2.4818125,
2.5421875,
2.5628125,
2.6815625,
2.7809375,
2.8203125,
2.9414375,
2.9610625,
2.9816875,
3.0018125,
3.0411875,
3.0818125,
3.1218125,
3.3614375,
3.4016875,
3.5015625,
##3,
##bỏ
##kể
##lý
##om
##rõ
##ví
##én
##ậc
##ủy
e
u
ô
##bọn
##chu
##hải
##học
##kho
##mất
##mối
##ngo
##nổi
##quá
##suy
##trả
##trẻ
##tên
##tìm
##tức
##ãnh
##đơn
##đầy
##đều
##địa
6.
bề
bồ
cử
dã
dỗ
dữ
hổ
mô
rủ
su
tá
tờ
tứ
vĩ
xô
xứ
ác
ám
ẩn
ớt
##biển
##buổi
##chăm
##chết
##dành
##dùng
##giải
##giới
##giữa
##hoài
##hạnh
##khỏi
##kiến
##phục
##thêm
##toàn
##uyển
##đánh
5.1
bày
bãi
bậc
cam
can
cản
cập
cắn
dại
dạo
dọc
dối
gấp
hàm
hấp
hối
khẽ
lâm
lặp
lục
mắm
mực
nhé
phổ
rào
say
săn
tai
thụ
tải
tỏa
tốn
tựa
ung
vua
đua
đài
đèn
##1125,
##2275,
##3825,
##6275,
##6625,
##chung
##dương
##thoát
##thoại
##trách
##tượng
1.19
1.77
1.80
1.91
2.71
3.41
3.42
biện
buôn
băng
bạch
châu
chùa
chúa
chậm
chợt
dàng
dáng
ghét
hiến
hiếu
hứng
khen
khôi
kênh
loan
loạn
lệnh
mệnh
ngào
ngọn
nhạt
nhịn
nhịp
sóng
thuế
thịt
vững
điệu
địch
##23125,
##26875,
##28125,
##35125,
##59625,
##79875,
##nguyên
1.500
1.78,
2.195
2.299
2.319
2.739
3.500
chiếu
giang
khiêm
khuôn
khẳng
luyện
phiên
phiếu
thang
thạch
triệu
trồng
trừng
tuyến
đương
##223125,
##226875,
##349375,
##800625,
1.682,
1.962,
1.981,
2.159,
2.339,
2.901,
3.022,
3.322,
phượng
thoảng
truyện
1.6015,
1.8805,
1.9005,
2.1225,
2.7405,
3.3015,
1.54075,
1.58125,
1.98225,
2.54075,
2.70025,
2.86125,
3.24175,
1.781875,
1.862125,
1.962625,
2.040375,
2.180125,
2.259875,
2.380875,
2.601875,
2.660875,
2.680125,
2.720375,
2.742125,
2.780375,
2.802875,
3.040625,
3.080625,
3.141625,
3.181875,
3.261875,
3.281625,
3.461375,
3.521375,
3.621625,
1.5603125,
1.5805625,
1.5814375,
1.6421875,
1.8799375,
1.9006875,
2.0024375,
2.0201875,
2.0216875,
2.0624375,
2.0826875,
2.1205625,
2.2621875,
2.3214375,
2.4213125,
2.5604375,
2.5801875,
2.6626875,
2.6828125,
2.7411875,
2.7808125,
2.7823125,
2.8025625,
2.8221875,
2.8225625,
2.8404375,
2.8423125,
2.9008125,
2.9203125,
2.9216875,
2.9219375,
2.9819375,
3.0218125,
3.1019375,
3.1619375,
3.3413125,
3.4215625,
3.5218125,
##09
##bé
##cơ
##nữ
##so
##số
##sợ
##tổ
##vô
##vị
##xe
##õm
##đủ
##ẫm
##ẻo
##ễm
##ụa
##ụi
##ụt
##65,
##95,
##bàn
##bảo
##cẩm
##giá
##gần
##hòa
##hắn
##hợp
##leo
##mày
##nam
##ngủ
##nhờ
##phụ
##thư
##thị
##tác
##vội
##yên
##õng
##đưa
##đặt
##đội
##đời
##ướt
bã
bế
bờ
cú
cư
cỏ
dì
dò
dư
ly
lò
my
mì
mẻ
mỉ
mổ
nè
rể
tô
tơ
vỗ
vỡ
xu
xì
âu
đế
ưu
ấn
ấp
ẩm
ốc
ức
##175,
##275,
##365,
##475,
##525,
##595,
##795,
##bệnh
##chào
##chúc
##diễn
##giáo
##hiệu
##hưng
##làng
##minh
##ngọc
##ngồi
##nhắc
##năng
##phát
##phạm
##phản
##quốc
##suốt
##thuê
##thói
##thăm
##tiên
##trái
##trân
##tuấn
##tuổi
##tỉnh
##việt
##điện
##đáng
##đứng
4.8
bão
bút
bạo
bảy
bắp
che
cán
cân
cãi
cận
cột
dây
dấu
dằn
gắn
huệ
hàn
hán
hét
hầm
hỗn
khứ
lam
leo
lãi
lôi
lùi
lợn
lụa
mũi
mại
ngơ
ngữ
nhã
nhở
nạt
rèn
sáu
sót
sạn
thí
thổ
thợ
tri
trù
tàn
tóc
váy
vất
vặt
yến
đam
đàm
đãi
đĩa
đạn
đắn
đền
đốm
##3625,
##3875,
##8625,
##9625,
##hương
##khánh
##ngành
##nhanh
##nhiên
##quyết
##thiết
##thuốc
##tháng
##xuống
1.17
1.39
1.5,
1.87
1.99
2.11
2.37
2.61
2.77
3.0,
3.59
3.80
bông
chép
chăn
cống
diệu
giết
gánh
gừng
khan
khao
khóa
khúc
khắp
khốn
kiêu
kiếp
kiệm
lang
lược
muối
mắng
mộng
ngốc
ngựa
nhõm
nhựa
rung
tháp
thốt
tiềm
tiễn
tiệc
trêu
túng
tịch
vạch
vắng
xông
đuối
đàng
đống
##13125,
##29375,
##36875,
##40125,
##45625,
##46875,
##50625,
##54375,
##55375,
##56875,
##58625,
##70625,
##76875,
##89375,
##90875,
##chuyên
##chuyển
##chương
##khuyên
##nghiệp
1.333
1.639
1.875
2.439
2.56,
duyên
giành
huyền
huống
kháng
miếng
ngừng
phỏng
thiền
thoải
thách
vương
##375625,
##376875,
##428125,
##513125,
##594375,
##601875,
##629375,
##765625,
##829375,
##968125,
2.039,
2.221,
2.461,
2.519,
2.682,
3.222,
3.282,
chuông
khuyết
1.7405,
1.9405,
2.0215,
2.1825,
2.5225,
2.6425,
3.3225,
3.6015,
3.6415,
1.85975,
2.18125,
2.24175,
2.32275,
2.38275,
2.66225,
2.80075,
2.80125,
2.84275,
2.88175,
3.06225,
3.16125,
3.16175,
3.18175,
3.28175,
3.30175,
3.42175,
3.68175,
3.80175,
1.620125,
1.760375,
1.761625,
1.780375,
1.802125,
1.942375,
2.080625,
2.201375,
2.240625,
2.280625,
2.422625,
2.440875,
2.620625,
2.621125,
2.660375,
2.661875,
2.680625,
2.841875,
2.880875,
2.882625,
2.942375,
2.962375,
2.982625,
3.000375,
3.002625,
3.062375,
3.140625,
3.241875,
3.261625,
3.322625,
3.381625,
3.601625,
3.681625,
1.6016875,
1.7414375,
1.8208125,
1.8400625,
1.8425625,
1.9025625,
1.9605625,
2.0004375,
2.0206875,
2.0416875,
2.0999375,
2.1599375,
2.2026875,
2.2218125,
2.3199375,
2.3406875,
2.3808125,
2.4198125,
2.4206875,
2.4218125,
2.4409375,
2.4616875,
2.4808125,
2.5408125,
2.5615625,
2.6026875,
2.6215625,
2.7224375,
2.7425625,
2.8624375,
2.9019375,
2.9615625,
3.0413125,
3.0416875,
3.1016875,
3.1418125,
3.1424375,
3.1425625,
3.1804375,
3.2020625,
3.2204375,
3.2806875,
3.2813125,
3.2825625,
3.3014375,
3.3205625,
3.4014375,
3.4415625,
3.4815625,
3.4818125,
3.5616875,
3.6025625,
3.8214375,
3.9216875,
##27
##68
##7,
##93
##bộ
##gh
##gã
##hạ
##hả
##hồ
##kỳ
##tú
##xa
##xu
##xã
##óp
##úa
##ún
##đo
##ũa
##ơm
##ẹt
##ọa
##ồm
##ộp
##ụn
ư
##45,
##91,
##ban
##bữa
##cao
##chờ
##cây
##duy
##dám
##dẫn
##dọn
##giữ
##gái
##hoa
##hội
##iêm
##khu
##kết
##lạc
##lựa
##mặc
##mệt
##mời
##nha
##oay
##phó
##quà
##thú
##tài
##tập
##tồn
##vài
##xúc
##đàn
##đất
##đặc
##ướp
##ưỡi
##ượn
##ẩng
##ờng
##ửng
bó
bơ
bạ
cờ
củ
gõ
gỡ
ha
hè
hê
kê
lì
lờ
mồ
no
nề
nỗ
ro
rẻ
tả
vẽ
vở
##395,
##945,
##955,
##965,
##985,
##995,
##biệt
##bóng
##chân
##chợt
##cuốn
##cánh
##cưới
##cảnh
##danh
##diện
##dòng
##gian
##giao
##khỏe
##kiếm
##kiểu
##loại
##mạnh
##ngân
##nhật
##niềm
##nàng
##nóng
##nặng
##phim
##quần
##răng
##thèm
##thảo
##thầy
##tiêu
##tích
##uyến
##vườn
##đoàn
1.0
bia
bin
bom
bóc
băn
bơi
bền
bốc
bối
bồi
bộc
bụi
cai
chà
chê
cát
cóc
cúi
cút
cấu
cặn
cục
dầu
dẹp
dịp
dứt
gan
gói
góp
gạo
gạt
gọn
gối
gồm
hoe
huế
hảo
hận
hệt
hộp
hủy
kèm
kìm
lau
lãm
lúa
lẫy
lọt
lộn
mạn
mỉm
mọc
mụn
ngu
ngũ
nắp
nếp
nết
pha
phó
quỳ
rối
rủi
sum
sàn
sôi
sỏi
thà
thề
thọ
táo
tín
tóm
tấp
tần
tật
voi
vạn
vẹn
vết
xào
xâm
xíu
xóa
úng
đai
đâm
đầm
đậu
đắp
ướt
##3375,
##4625,
##5375,
##5475,
##6375,
##7975,
##cường
##doanh
##hướng
##khang
##khuôn
##lương
##lượng
##nghĩa
##ngoại
##nhiệm
##phiền
##phóng
##thiếu
##thẳng
##trang
##trình
##xuyên
1.27
1.63
1.73
1.75
1.85
1.89
1.93
2.2,
2.45
2.51
2.91
3.01
3.11
3.6,
3.82
binh
bỏng
chai
chua
cháy
chém
chén
chứa
cúng
cướp
dưng
gạch
hoài
hung
hãnh
hăng
khoe
khéo
khơi
khải
khấu
khối
kiều
loạt
lách
lánh
lông
lùng
lũng
lượt
lỏng
lồng
manh
mênh
mười
ngói
ngôn
ngạo
ngầm
ngắt
ngột
ngục
nhấn
nhầm
nhằn
nhọc
nhốt
nòng
phào
phán
phơi
phức
quát
soạn
súng
thâm
thét
thói
thúy
thơm
thảm
thản
thẩm
thắc
thắn
thụy
tiếc
trào
trán
trọn
trộn
tảng
uyên
vang
viễn
xuôi
điên
điềm
đuôi
đăng
đắng
đằng
đẳng
đặng
đỉnh
##15625,
##31875,
##36375,
##38375,
##39625,
##43125,
##58375,
##59375,
##62875,
##78125,
##82875,
##84375,
##85625,
##truyền
##trường
##trưởng
1.269
1.530
1.599
1.797
1.857
1.957
1.978
2.137
2.238
2.26,
2.457
2.459
2.717
2.830
2.851
3.06,
3.34,
buông
chỉnh
giảng
huyết
huỳnh
khoác
nghẹn
ngùng
ngước
nhiệt
nương
ruộng
thiệt
thuần
thước
thịnh
trích
trưng
tuyển
vướng
##004375,
##028125,
##178125,
##189375,
##195625,
##228125,
##364375,
##365625,
##429375,
##503125,
##563125,
##565625,
##566875,
##588125,
##796875,
1.679,
1.681,
1.801,
1.921,
1.979,
2.279,
2.459,
2.641,
2.681,
2.699,
2.759,
2.881,
3.179,
3.202,
3.401,
3.402,
3.462,
3.581,
khoảnh
nhường
2.5825,
2.9625,
2.9825,
3.0005,
3.0205,
3.0225,
3.0425,
3.0605,
3.0805,
3.1815,
3.4605,
3.5815,
3.7215,
1.52025,
1.88175,
2.08075,
2.26275,
2.46075,
2.52125,
2.58125,
2.78275,
2.82175,
2.94225,
3.00225,
3.02025,
3.10125,
3.12075,
3.18075,
3.22125,
3.48275,
3.50075,
3.56075,
3.62225,
3.74175,
3.76175,
1.522125,
1.561875,
1.680125,
1.681375,
1.819875,
1.959625,
2.016625,
2.039875,
2.061875,
2.160375,
2.220125,
2.341125,
2.341625,
2.400125,
2.420875,
2.501875,
2.681875,
2.682125,
2.721875,
2.980375,
3.020125,
3.020625,
3.042125,
3.060875,
3.082375,
3.100375,
3.140875,
3.280375,
3.302375,
3.321875,
3.801375,
3.842625,
4.000625,
1.5009375,
1.5409375,
1.5821875,
1.6624375,
1.7015625,
1.7598125,
1.7623125,
1.7996875,
1.8223125,
1.9614375,
2.1200625,
2.1398125,
2.1623125,
2.2016875,
2.2609375,
2.2614375,
2.2765625,
2.2800625,
2.3013125,
2.3598125,
2.4006875,
2.4019375,
2.4216875,
2.4410625,
2.4804375,
2.5201875,
2.5216875,
2.5600625,
2.5806875,
2.5826875,
2.6014375,
2.6416875,
2.6420625,
2.6619375,
2.7008125,
2.7009375,
2.7025625,
2.7625625,
2.7805625,
2.8405625,
2.8424375,
2.8806875,
2.9206875,
2.9221875,
2.9409375,
2.9609375,
2.9813125,
3.0009375,
3.0219375,
3.0829375,
3.1003125,
3.1026875,
3.1216875,
3.1604375,
3.1621875,
3.1625625,
3.1823125,
3.2826875,
3.3005625,
3.3213125,
3.3406875,
3.3414375,
3.3608125,
3.4013125,
3.4214375,
3.4416875,
3.4618125,
3.4824375,
3.5016875,
3.5216875,
3.5424375,
3.5615625,
3.5625625,
3.6619375,
4.1818125,
##1,
##88
##cử
##dự
##hy
##hà
##hệ
##lu
##lá
##lẽ
##mu
##mơ
##mở
##sử
##to
##tù
##tư
##tỏ
##vợ
##íu
##đồ
##ẽo
##ếc
##ốp
##ụm
a
ế
##05,
##55,
##57,
##bày
##bán
##báo
##bắc
##bớt
##chi
##chế
##chỗ
##chủ
##cầm
##cẩn
##cắm
##cứu
##cửa
##cực
##dân
##dần
##ghi
##gió
##gây
##gửi
##hào
##hát
##hơi
##hầu
##hết
##hồi
##khá
##lão
##lưu
##lập
##lợi
##lực
##may
##màn
##mãi
##mưa
##mức
##nga
##nhi
##nhu
##nằm
##phố
##quý
##rửa
##rực
##sài
##sản
##sắm
##sắp
##sẵn
##sức
##tay
##thi
##thở
##trị
##trợ
##tôn
##tận
##văn
##vất
##vật
##xác
##xét
##đau
##đem
##đám
##đạo
##đậu
##đẹp
##đổi
##độc
##đợi
##nụ
##bài
##coi
##cấp
##cấu
##kéo
##thù
##tây
##đạt
##đọc
##ướm
##ầng
"}
bi
bo
bò
bú
bệ
co
cu
cỡ
cự
dở
gả
hô
hờ
hở
in
kẽ
kệ
lù
lẻ
lỗ
lữ
mã
mè
mò
mó
mù
mỏ
mộ
mợ
na
nỉ
nổ
nở
rũ
rẽ
sa
tò
tẻ
tủ
uy
vu
võ
vỏ
vờ
xạ
át
ép
êm
đu
đẽ
ảo
ập
ỏi
##219,
##325,
##535,
##545,
##565,
##585,
##675,
##biến
##biểu
##buồn
##buộc
##chui
##châu
##chìm
##chôn
##chạm
##chấp
##chậm
##chặt
##chọn
##cung
##cười
##dính
##dịch
##dừng
##giác
##giám
##giấy
##giết
##giỏi
##gắng
##hoan
##hoạt
##hỏng
##khóc
##kiện
##kịch
##liệt
##liệu
##lĩnh
##lắng
##miễn
##muộn
##mạch
##ngôi
##nhóm
##nhạt
##nhằm
##pháp
##phân
##phép
##phúc
##phấn
##phẫu
##quên
##siêu
##thâm
##thất
##thắp
##thịt
##tinh
##tiếc
##tiểu
##tiện
##trao
##trận
##tĩnh
##tổng
##vinh
##viên
##vòng
##vùng
##vượt
##xuân
##điểm
##đoạn
##đuổi
##đành
##đông
##đằng
##đỉnh
5.4
5.6
bôn
bấm
bẫy
bậy
bới
côi
cõi
cấy
cắm
cỏi
cốt
cụm
củi
dày
dấy
dầm
dặt
dịu
dọa
dốc
dồi
dụi
gom
gào
gác
gãi
gìn
gầm
gốc
hen
hun
hâm
hôi
hưu
hỏa
hốt
hụt
kem
khe
két
lán
láo
lìm
lấp
lầu
lầy
lẫm
lật
lắp
lặn
lặt
lẻo
lọc
lộc
lội
men
mây
mèo
mía
móc
mưu
mạo
mận
mẹo
mếu
mốt
mồi
nai
ngô
ngõ
ngả
ngỡ
nhì
nhí
nhỡ
nhủ
non
não
ném
năn
nản
nấm
nấy
nốt
nồi
phà
phế
phở
rau
răn
rơm
rốt
rỗi
soi
súc
sưu
sắt
sọc
sốc
sợi
sụp
sụt
sữa
tam
thê
thự
tia
trú
trễ
trổ
trừ
trữ
tuệ
tát
tạp
tồi
tột
tụt
tựu
vay
vải
xua
xài
xít
xôi
xắn
đeo
đáy
đói
đùi
đúc
đũa
đạp
đấm
đậm
đậy
đắc
đắm
đắt
đồi
đồn
đứt
ưng
ổng
ửng
##0275,
##1075,
##1375,
##1625,
##1675,
##3575,
##3675,
##4975,
##5175,
##5325,
##5675,
##5775,
##7375,
##7625,
##7675,
##7875,
##7925,
##9825,
##9925,
##chiếc
##chiến
##chuẩn
##giang
##giống
##gương
##hưởng
##ngang
##nghèo
##ngoan
##nguồn
##ngừng
##quanh
##quyền
##thanh
##thung
##thuận
##thắng
##thống
##triều
##triệu
##tránh
##trông
##trạng
##trắng
##tướng
##vướng
0.91
1.07
1.31
1.40
1.46
1.57
1.60
1.65
1.79
2.05
2.09
2.15
2.16
2.30
2.33
2.53
2.57
2.63
2.65
2.69
2.73
2.81
2.85
3.09
4.22
bang
bách
bướm
chui
chày
châm
chôn
chằm
chọc
chốc
chừa
cưng
diều
diệp
diệt
dông
dược
giáp
giãn
giặc
giặt
hiển
hoan
hoại
hằng
kham
khuy
khái
khói
khẩn
kịch
liêm
liếc
liệt
lãng
lình
lõng
lưới
lười
lượn
lệch
lộng
lừng
miên
miêu
miệt
muội
màng
mãnh
mảnh
ngây
ngất
ngần
ngợi
ngụm
ngủi
ngừa
ngửa
ngửi
ngực
nhan
nhòa
nhún
nhăn
nhạy
nhộn
nhờn
ninh
nồng
pháo
phất
phối
phớt
quái
quét
quýt
quại
quạt
quấn
quẩn
rình
rảnh
rỗng
suối
sành
sòng
sườn
sưởi
tang
than
thoa
thon
thơi
thạc
thấm
thắp
thổi
tiếu
tiệm
toan
toái
trau
trùm
trại
tuân
tông
tùng
tống
tụng
vách
váng
vĩnh
xoay
xách
xăng
đảng
đụng
ương
##02625,
##02875,
##04375,
##07625,
##09375,
##10625,
##16875,
##18875,
##19625,
##22875,
##33125,
##35875,
##36625,
##37125,
##38125,
##39375,
##48125,
##50375,
##54875,
##55875,
##58875,
##63125,
##65625,
##68125,
##73125,
##95875,
##98875,
##khoảng
##khoảnh
##nghiêm
##nghiên
##phường
##thoáng
1.575
1.579
1.633
1.653
1.675
1.699
1.737
1.899
1.950
1.96,
1.976
1.979
2.035
2.051
2.054
2.097
2.109
2.117
2.129
2.178
2.197
2.334
2.339
2.377
2.38,
2.44,
2.469
2.519
2.539
2.633
2.66,
2.677
2.68,
2.697
2.777
2.838
2.86,
2.919
2.92,
2.933
2.978
2.979
2.98,
3.038
3.18,
3.24,
3.42,
3.54,
3.58,
3.72,
chinh
chiếm
chuột
chăng
cưỡng
huynh
khinh
khoan
khoăn
khựng
luyến
lường
ngoái
ngoãn
ngẩng
nhang
nhiếp
nhung
phước
phẳng
phịch
quyến
thiêu
thình
thảnh
thỉnh
thủng
triết
triều
trùng
trúng
trăng
trượt
tường
xưởng
##000625,
##183125,
##185625,
##191875,
##225625,
##304375,
##335625,
##340625,
##353125,
##358125,
##384375,
##494375,
##496875,
##508125,
##516875,
##544375,
##545625,
##548125,
##554375,
##558125,
##576875,
##593125,
##596875,
##699375,
##710625,
##751875,
##755625,
##779375,
##915625,
##963125,
##966875,
##976875,
##983125,
##998125,
1.333,
1.536,
1.559,
1.799,
2.041,
2.099,
2.219,
2.281,
2.639,
2.701,
2.802,
2.861,
3.161,
3.181,
3.219,
3.221,
3.262,
3.342,
3.419,
3.541,
3.582,
3.861,
3.901,
4.141,
nghiễm
nghiệt
nghênh
ngượng
nhượng
thuyền
trương
1.4935,
1.5205,
1.6195,
1.8395,
1.8755,
2.1205,
2.1625,
2.3995,
2.6005,
2.6205,
2.9025,
3.3405,
3.3625,
3.4005,
3.6615,
3.9415,
nghiêng
1.34975,
1.37425,
1.50025,
1.66025,
1.71175,
1.80025,
1.94125,
2.07975,
2.10175,
2.17475,
2.28125,
2.29975,
2.30175,
2.35775,
2.53825,
2.64025,
2.64075,
2.70225,
2.73975,
2.76025,
2.82275,
2.98225,
3.04025,
3.04075,
3.10075,
3.16075,
3.22075,
3.26025,
3.32025,
3.40175,
3.48125,
3.56125,
3.58075,
3.64075,
3.70175,
3.82175,
4.20075,
1.355375,
1.375625,
1.440125,
1.460375,
1.521375,
1.532625,
1.541625,
1.599875,
1.620375,
1.635125,
1.695625,
1.855625,
1.901625,
1.921625,
1.957375,
1.981625,
2.141375,
2.181375,
2.196875,
2.220625,
2.258625,
2.262375,
2.302375,
2.318125,
2.322375,
2.359375,
2.401375,
2.479375,
2.479875,
2.500375,
2.500875,
2.522625,
2.560875,
2.561125,
2.620875,
2.662375,
2.680875,
2.682375,
2.700375,
2.755875,
2.782875,
2.798125,
2.820875,
2.900125,
2.980625,
3.042625,
3.062625,
3.080875,
3.081125,
3.100625,
3.101375,
3.139875,
3.160625,
3.181125,
3.201125,
3.282375,
3.341125,
3.341625,
3.342625,
3.361125,
3.361875,
3.382625,
3.400375,
3.402625,
3.420625,
3.422375,
3.440625,
3.441875,
3.442625,
3.480625,
3.481125,
3.481875,
3.501375,
3.501875,
3.522625,
3.542875,
3.560625,
3.562875,
3.581375,
3.641375,
3.661625,
3.680375,
3.721625,
3.741625,
3.802625,
3.941875,
3.961375,
3.961875,
4.021625,
4.261625,
1.4613125,
1.5018125,
1.5195625,
1.5398125,
1.6163125,
1.6219375,
1.6396875,
1.6599375,
1.6605625,
1.7205625,
1.7218125,
1.8150625,
1.8216875,
1.8404375,
1.9203125,
1.9375625,
1.9418125,
1.9763125,
1.9783125,
1.9920625,
2.0013125,
2.0168125,
2.0196875,
2.0376875,
2.0601875,
2.0801875,
2.1211875,
2.1615625,
2.1618125,
2.1803125,
2.1805625,
2.1955625,
2.1971875,
2.2204375,
2.2385625,
2.2403125,
2.2425625,
2.2565625,
2.2616875,
2.2993125,
2.3006875,
2.3394375,
2.3413125,
2.4561875,
2.4698125,
2.5010625,
2.5206875,
2.5399375,
2.5409375,
2.5821875,
2.6618125,
2.6999375,
2.7016875,
2.7205625,
2.7209375,
2.7393125,
2.7623125,
2.7626875,
2.7824375,
2.8001875,
2.8204375,
2.8408125,
2.8409375,
2.8609375,
2.8616875,
2.8823125,
2.9009375,
2.9404375,
2.9789375,
3.0008125,
3.0210625,
3.0389375,
3.0419375,
3.0618125,
3.0825625,
3.1219375,
3.1224375,
3.1226875,
3.1428125,
3.1623125,
3.1828125,
3.2005625,
3.2021875,
3.2025625,
3.2203125,
3.2221875,
3.2226875,
3.2404375,
3.2411875,
3.2423125,
3.2424375,
3.2606875,
3.2611875,
3.2624375,
3.2628125,
3.2804375,
3.3004375,
3.3008125,
3.3010625,
3.3011875,
3.3228125,
3.3609375,
3.3805625,
3.3813125,
3.3815625,
3.4001875,
3.4220625,
3.4604375,
3.4614375,
3.4814375,
3.5009375,
3.5223125,
3.5403125,
3.5418125,
3.5425625,
3.5623125,
3.5816875,
3.6005625,
3.6024375,
3.6216875,
3.6605625,
3.6624375,
3.6628125,
3.7218125,
3.7419375,
3.7618125,
3.7620625,
3.8428125,
3.8606875,
3.8611875,
3.8811875,
3.8815625,
3.9015625,
3.9016875,
3.9019375,
3.9613125,
3.9616875,
3.9619375,
4.0020625,
4.1218125,
4.1406875,
4.1416875,
4.1616875,
4.2214375,
4.2218125,
4.2415625,
4.3226875,
4.4018125,
##mềm
##não
##túy
##đũa
ốp
ủy
##685,
##luận
##soát
##trộm
##xoay
##đoán
0.9
bún
cựu
lòe
lốp
níu
nạp
nộp
ríu
rẫy
rợn
tọa
tợn
vởn
xẻo
đếm
##/801.
##/802.
##/804.
##/806.
##/809.
##0975,
##7025,
##7325,
##khoản
##tuyến
0.97
6.07
6.80
chàm
##ghé
##898,
bùn
##9475,
##trịnh
hửng
lướt
nhẽo
tầng
võng
xuân
##/1207.
##/1401.
##/1402.
##/1403.
##/1404.
##/1407.
##/1408.
##/1602.
##/1604.
##/1605.
##/1608.
##/1609.
##/1805.
##/1807.
##/2202.
##/2203.
##/2204.
##/2206.
##/2403.
##/2404.
##/2405.
##/2407.
##/2409.
##/2604.
##/2605.
##/2607.
##/2801.
##/2806.
##/2809.
##/3201.
##/3206.
##/3208.
##/3405.
##/3406.
##/3409.
##/3500.
##/3601.
##/3602.
##/3603.
##/3604.
##/3605.
##/3607.
##/3801.
##/3803.
##/3805.
##/3806.
##/3808.
##/3809.
##/3997.
##/3998.
##/3999.
##/4000.
##/4003.
##/4008.
##/4010.
##/4011.
##/4012.
##/4013.
##/4014.
##/4015.
##/4016.
##/4019.
##/4020.
##/4022.
##/4023.
##/4025.
##/4028.
##/4029.
##/4203.
##/4211.
##/4212.
##/4213.
##/4216.
##/4217.
##/4218.
##/4219.
##/4222.
##/4223.
##/4224.
##/4226.
##/4227.
##/4390.
##/4393.
##/4396.
##/4399.
##/4401.
##/4405.
##/4406.
##/4408.
##/3213.
##/3216.
##/3217.
##/3220.
##/3221.
##/3225.
##/3226.
##/3227.
##/3390.
##/3392.
##/3393.
##/3394.
##/3395.
##/3396.
##/3397.
##/3398.
##/3412.
##/3415.
##/3416.
##/3418.
##/3421.
##/3422.
##/3423.
##/3424.
##/3425.
##/3426.
##/3427.
##/3429.
##/3430.
##/3431.
##/3433.
##/3437.
##/3438.
##/3439.
##/3452.
##/3455.
##/3456.
##/3457.
##/3463.
##/3464.
##/3465.
##/3469.
##/3470.
##/3472.
##/3473.
##/3477.
##/3478.
##/3479.
##/3480.
##/3485.
##/3486.
##/3488.
##/3489.
##/3490.
##/3495.
##/3497.
##/3590.
##/3591.
##/3592.
##/3595.
##/3597.
##/3610.
##/3611.
##/3615.
##/3616.
##/3619.
##/3620.
##/3621.
##/3623.
##/3625.
##/3626.
##/3627.
##/3790.
##/3796.
##/3797.
##/3798.
##/3811.
##/3812.
##/3813.
##/3814.
##/3815.
##/3816.
##/3819.
##/3822.
##/3825.
##/3829.
##/3990.
##/3992.
##/3994.
##/3996.
##/4409.
##/4410.
##/4411.
##/4412.
##/4413.
##/4414.
##/4416.
##/4417.
##/4418.
##/4419.
6.0
##/2212.
##/2213.
##/2214.
##/2216.
##/2218.
##/2219.
##/2220.
##/2221.
##/2225.
##/2226.
##/2228.
##/2229.
##/2392.
##/2393.
##/2395.
##/2410.
##/2412.
##/2416.
##/2417.
##/2423.
##/2426.
##/2433.
##/2436.
##/2438.
##/2450.
##/2451.
##/2454.
##/2455.
##/2457.
##/2462.
##/2466.
##/2468.
##/2470.
##/2471.
##/2475.
##/2476.
##/2480.
##/2482.
##/2483.
##/2484.
##/2485.
##/2487.
##/2489.
##/2490.
##/2491.
##/2493.
##/2495.
##/2496.
##/2499.
##/2591.
##/2594.
##/2595.
##/2596.
##/2598.
##/2599.
##/2613.
##/2615.
##/2618.
##/2619.
##/2620.
##/2621.
##/2623.
##/2625.
##/2626.
##/2629.
##/2792.
##/2796.
##/2813.
##/2814.
##/2815.
##/2817.
##/2819.
##/2820.
##/2823.
##/2992.
##/2995.
##/2997.
##/3000.
##/3001.
##/3002.
##/3004.
##/3008.
##/3009.
##/3011.
##/3013.
##/3015.
##/3016.
##/3017.
##/3019.
##/3020.
##/3021.
##/3022.
##/3024.
##/3027.
##/3029.
##/4421.
##/4422.
##/4430.
##/4431.
dẫm
hiếp
##/1422.
##/1424.
##/1427.
##/1429.
##/1431.
##/1432.
##/1435.
##/1436.
##/1437.
##/1438.
##/1439.
##/1457.
##/1461.
##/1465.
##/1466.
##/1467.
##/1468.
##/1473.
##/1475.
##/1477.
##/1480.
##/1481.
##/1482.
##/1486.
##/1489.
##/1491.
##/1495.
##/1496.
##/1497.
##/1590.
##/1593.
##/1595.
##/1596.
##/1597.
##/1599.
##/1610.
##/1611.
##/1612.
##/1613.
##/1614.
##/1615.
##/1617.
##/1618.
##/1619.
##/1620.
##/1622.
##/1624.
##/1625.
##/1628.
##/1629.
##/1791.
##/1794.
##/1795.
##/1799.
##/1810.
##/1812.
##/1816.
##/1819.
##/1820.
##/1822.
##/1824.
##/1825.
##/1826.
##/1828.
##/1829.
##/1992.
##/1994.
##/1995.
##/1997.
##/1999.
##/2001.
##/2003.
##/2004.
##/2005.
##/2007.
##/2011.
##/2013.
##/2017.
##/2018.
##/2022.
##/2023.
##/2025.
##/2026.
##/2211.
##/3609.
##/4432.
##/4433.
##/4435.
##/4436.
##/4438.
##/4451.
##/4452.
##/4453.
##/4457.
##/4458.
##/4463.
##/4464.
##/4465.
##hèn
##bỗng
cúm
tím
##/500.
##/811.
##/812.
##/816.
##/817.
##/819.
##/820.
##/825.
##/827.
##/829.
##/991.
##/992.
##/994.
##/995.
##/996.
##/998.
##/999.
##9175,
##/1001.
##/1004.
##/1005.
##/1016.
##/1020.
##/1021.
##/1022.
##/1023.
##/1024.
##/1028.
##/1212.
##/1214.
##/1215.
##/1219.
##/1220.
##/1221.
##/1224.
##/1225.
##/1228.
##/1390.
##/1395.
##/1396.
##/1397.
##/1406.
##/1410.
##/1411.
##/1414.
##/1416.
##/1417.
##/1418.
##/1421.
##/1464.
##/1483.
##/3484.
##/3492.
##/4466.
##/4468.
##/4469.
##/4470.
##/4472.
##/4474.
##/4476.
##/4478.
##/4480.
##/4482.
##/4484.
##/4487.
##/4488.
##/4489.
##/4491.
##/4492.
##/4493.
##/4494.
##/4496.
##/4497.
##/4590.
##/4592.
##/4599.
##/4602.
##/4603.
##/4604.
##/4605.
##/4607.
##/4608.
##/4609.
##/4612.
##/4613.
##/4614.
##/4620.
##/4622.
##/4625.
##/4626.
##/4628.
##/4629.
##/4790.
##/4791.
##/4792.
##/4793.
##690
##mãn
##mũi
##tuệ
##105,
##185,
##khỏa
hớp
##1025,
##9525,
4.96
diễm
hoãn
khỏa
thía
##/1400.
##/1441.
##/1443.
##/1446.
##/1448.
##/1449.
##/1463.
##/1598.
##/1818.
##/2440.
##/2442.
##/2443.
##/2447.
##/3212.
##/3440.
##/3441.
##/3442.
##/3444.
##/3446.
##/3447.
##/3448.
##/3449.
##/3594.
##/3608.
##/4005.
##/4400.
##/4423.
##/4441.
##/4442.
##/4445.
##/4446.
##/4447.
##/4795.
##/4796.
##/4799.
##/4804.
##/4805.
##/4808.
##/4810.
##/4813.
##/4814.
##/4816.
##/4818.
##/4821.
##/4822.
##/4824.
##/4825.
##/4826.
##/4827.
##/4828.
##/4990.
##/4992.
##/4993.
##/4996.
##/5000.
##/5001.
##/5002.
##/5006.
##/5007.
##/5010.
##/5011.
##/5012.
##/5013.
##/5014.
##/5017.
##/5018.
##/5020.
##/5021.
##/5024.
##/5026.
##/5027.
##/5029.
##/5201.
##/5204.
##/5205.
##/5214.
##/5217.
##/5220.
##/5221.
##/5223.
##/5225.
##/5226.
##/5229.
##/5391.
##/5392.
##tèo
nẻo
túy
##/990.
##3475,
##5575,
##thoải
bênh
chèo
ngòi
thòi
trèo
##/1391.
##/1823.
##/2406.
##/2419.
##/2497.
##/3807.
##/4018.
##/5390.
##/5394.
##/5397.
##/5399.
##/5400.
##/5402.
##/5403.
##/5404.
##/5405.
##/5406.
##/5407.
##/5408.
##/5410.
##/5411.
##/5416.
##/5417.
##/5418.
##/5419.
##/5422.
##/5424.
##/5428.
##/5431.
##/5435.
##/5436.
##/5437.
##/5438.
##/5443.
##/5444.
##/5446.
##/5450.
##/5451.
##/5455.
##/5457.
##/5458.
##/5461.
##/5462.
##/5463.
##/5464.
##/5465.
##/5467.
##/5468.
##/5470.
##/5472.
##/5475.
##/5478.
##/5481.
##/5485.
##/5486.
##/5488.
##/5492.
##/5493.
##/5494.
##/5496.
##/5497.
##/5498.
##/5499.
##/5592.
##/5593.
##/5594.
##/5598.
##/5599.
##/5603.
##/5604.
##/5607.
##/5608.
##/5609.
##/5611.
##/5615.
##/5616.
##/5617.
##/5619.
##/5620.
##/5621.
##/5628.
##/5629.
##/5791.
##/5794.
##/5796.
##/5797.
##/5799.
##/5803.
##dặn
##305,
5.0
5.2
5.7
bùi
cợt
sộp
vùi
##3025,
##tuyền
chặn
##/1027.
##/1217.
##/1450.
##/1462.
##/1500.
##/1809.
##/2002.
##/2394.
##/3203.
##/3483.
##/4392.
##/4424.
##/5212.
##/5441.
##/5484.
##/5804.
##/5805.
##/5807.
##/5810.
##/5811.
##/5813.
##/5818.
##/5819.
##/5821.
##/5822.
##/5824.
##/5826.
##/5829.
##/5990.
##/5991.
##/5993.
##/5995.
##/5996.
##/5997.
##/6002.
##/6003.
##/6006.
##/6010.
##/6014.
##/6015.
##/6017.
##/6018.
##/6020.
##/6022.
##/6025.
##/6027.
##/6029.
##/6201.
##/6202.
##/6204.
##/6205.
##/6206.
##/6207.
##/6208.
##/6209.
##/6210.
##/6212.
##/6214.
##/6215.
##/6217.
##/6220.
##/6224.
##/6228.
##/6229.
##/6390.
##/6392.
##/6394.
##/6395.
##/6396.
##/6397.
##/6399.
##/6402.
##/6407.
##/6409.
##/6410.
##/6412.
##/6413.
##/6415.
##/6416.
##/6418.
##/6420.
##/6421.
##/6422.
##/6423.
##/6424.
##/6427.
##/6431.
##/6432.
##bra
##kịp
##sót
##braz
##mỏng
##nhói
##nhịp
cưu
gót
run
sói
đọt
##3725,
##brazi
1.25
1.29
4.51
chót
ngót
nhói
trói
trót
##/1827.
##/2390.
##/2616.
##/2824.
##/3432.
##/4462.
##/4471.
##/4499.
##/4615.
##/4623.
##/5440.
##/6004.
##/6438.
##/6439.
##/6441.
##/6442.
##/6443.
##/6446.
##/6447.
##/6450.
##/6451.
##/6452.
##/6453.
##/6454.
##/6455.
##/6456.
##/6458.
##/6459.
##/6460.
##/6461.
##/6462.
##/6463.
##/6466.
##/6467.
##/6468.
##/6469.
##/6470.
##/6472.
##/6473.
##/6474.
##/6475.
##/6476.
##/6477.
##/6478.
##/6479.
##/6480.
##/6481.
##/6482.
##/6485.
##/6487.
##/6489.
##/6491.
##/6492.
##/6497.
##/6591.
##/6595.
##/6597.
##/6598.
##/6601.
##/6602.
##/6603.
##/6605.
##/6609.
##/6610.
##/6611.
##/6612.
##/6615.
##/6616.
##/6619.
##/6622.
##/6623.
##/6624.
##/6628.
##/6629.
##/6790.
##/6791.
##/6798.
##/6802.
##dựa
##385,
##chùa
##khẩy
bùa
gớm
lùa
lạp
nép
rẩy
tép
van
4.03
cuốc
khuế
thép
vuốt
đuốc
##/1413.
##/1458.
##/1621.
##/2424.
##/2624.
##/2993.
##/3006.
##/5433.
##/5601.
##/6804.
##/6805.
##/6808.
##/6814.
##/6815.
##/6817.
##/6820.
##/6822.
##/6823.
##/6825.
##/6826.
##/6827.
##/6828.
##/6829.
##/6991.
##/6992.
##/6993.
##/6995.
##/6997.
##/7002.
##/7004.
##/7008.
##/7009.
##/7012.
##/7013.
##/7015.
##/7016.
##/7017.
##/7018.
##/7022.
##/7023.
##/7025.
##/7026.
##/7201.
##/7202.
##/7205.
##/7206.
##/7208.
##/7210.
##/7211.
##/7214.
##/7216.
##/7217.
##/7220.
##/7221.
##/7222.
##/7223.
##/7225.
##/7226.
##/7227.
##/7228.
##/7229.
##/7391.
##/7392.
##/7393.
##/7395.
##/7402.
##/7404.
##/7406.
##/7407.
##/7408.
##/7411.
##/7412.
##/7414.
##/7417.
##/7420.
##/7423.
##/7424.
##/7426.
##/7430.
##/7431.
##/7433.
##/7435.
##nuôi
##quệt
ghê
vỏn
##/928.
cõng
nhẹn
##/1329.
##/1419.
##/1426.
##/1528.
##/1529.
##/1727.
##/1729.
##/1927.
##/1929.
##/2128.
##/2441.
##/2527.
##/2528.
##/2529.
##/2727.
##/2729.
##/2829.
##/2927.
##/2929.
##/3127.
##/3128.
##/3129.
##/3727.
##/3728.
##/4128.
##/4395.
##/4528.
##/4529.
##/4727.
##/4728.
##/4729.
##/4928.
##/4929.
##/5128.
##/5219.
##/5224.
##/5495.
##/5727.
##/5728.
##/5927.
##/5928.
##/6005.
##/6328.
##/6329.
##/6527.
##/6528.
##/6727.
##/6729.
##/6929.
##/7326.
##/7327.
##/7329.
##/7436.
##/7437.
##/7438.
##/7439.
##/7441.
##/7444.
##/7445.
##/7446.
##/7447.
##/7449.
##/7450.
##/7451.
##/7452.
##/7453.
##/7457.
##/7459.
##/7462.
##/7463.
##/7465.
##/7466.
##/7467.
##/7468.
##/7471.
##/7472.
##/7473.
##/7476.
##/7477.
##/7478.
##/7479.
##/7482.
##/7483.
##/7484.
##/7486.
##/7487.
##/7488.
##/7490.
##/7492.
##/7495.
##/7497.
##/7498.
##/7499.
##/925.
##/1122.
##/1123.
##/1124.
##/1125.
##/1126.
##/1201.
##/1323.
##/1324.
##/1325.
##/1326.
##/1522.
##/1524.
##/1723.
##/1725.
##/1924.
##/1926.
##/2125.
##/2126.
##/2322.
##/2323.
##/2324.
##/2325.
##/2326.
##/2524.
##/2526.
##/2612.
##/2923.
##/2926.
##/3122.
##/3123.
##/3124.
##/3125.
##/3126.
##/3211.
##/3326.
##/3524.
##/3725.
##/3922.
##/3924.
##/3925.
##/4122.
##/4124.
##/4125.
##/4323.
##/4324.
##/4325.
##/4326.
##/4522.
##/4523.
##/4524.
##/4525.
##/4526.
##/4722.
##/4723.
##/4724.
##/4726.
##/4921.
##/4922.
##/4924.
##/4925.
##/4926.
##/5122.
##/5125.
##/5325.
##/5425.
##/5522.
##/5523.
##/5524.
##/5525.
##/5723.
##/5725.
##/5726.
##/5922.
##/5925.
##/6012.
##/6122.
##/6123.
##/6124.
##/6323.
##/6325.
##/6404.
##/6522.
##/6523.
##/6525.
##/6722.
##/6726.
##/6792.
##/6923.
##/6924.
##/6925.
##/7121.
##/7122.
##/7124.
##/7321.
##10875,
##16625,
##27625,
##31125,
##33375,
##/916.
##/918.
##/1116.
##/1119.
##/1121.
##/1318.
##/1320.
##/1321.
##/1517.
##/1518.
##/1519.
##/1603.
##/1717.
##/1718.
##/1721.
##/1917.
##/1920.
##/1921.
##/2116.
##/2118.
##/2120.
##/2121.
##/2123.
##/2201.
##/2318.
##/2518.
##/2519.
##/2716.
##/2718.
##/2719.
##/2720.
##/2916.
##/2919.
##/2920.
##/2921.
##/3116.
##/3117.
##/3204.
##/3317.
##/3319.
##/3518.
##/3718.
##/3719.
##/3720.
##/3721.
##/3917.
##/3918.
##/3921.
##/4117.
##/4118.
##/4119.
##/4121.
##/4317.
##/4319.
##/4426.
##/4517.
##/4520.
##/4716.
##/4719.
##/4720.
##/4721.
##/4919.
##/4920.
##/5116.
##/5120.
##/5316.
##/5320.
##/5516.
##/5520.
##/5719.
##/5720.
##/5920.
##/6117.
##/6119.
##/6120.
##/6318.
##/6320.
##/6517.
##/6625.
##/6717.
##/6718.
##/7116.
##/7117.
##/7118.
##/7120.
##/7317.
##/7318.
##/7319.
##/7320.
##10375,
##38875,
##52375,
##53875,
##56375,
##66375,
##71375,
##74875,
##76625,
##77125,
##77875,
##/911.
##/1112.
##/1113.
##/1114.
##/1115.
##/1311.
##/1313.
##/1511.
##/1512.
##/1711.
##/1713.
##/1714.
##/1911.
##/1913.
##/1914.
##/2114.
##/2115.
##/2311.
##/2312.
##/2313.
##/2512.
##/2514.
##/2515.
##/2711.
##/2713.
##/2714.
##/2715.
##/2913.
##/2914.
##/3023.
##/3113.
##/3114.
##/3315.
##/3493.
##/3511.
##/3512.
##/3515.
##/3713.
##/4112.
##/4113.
##/4114.
##/4312.
##/4313.
##/4394.
##/4407.
##/4454.
##/4515.
##/4711.
##/4712.
##/4713.
##/4714.
##/4911.
##/4913.
##/4914.
##/4915.
##/4917.
##/5111.
##/5112.
##/5311.
##/5312.
##/5313.
##/5511.
##/5512.
##/5515.
##/5712.
##/5714.
##/5913.
##/5914.
##/6111.
##/6113.
##/6114.
##/6115.
##/6313.
##/6315.
##/6316.
##/6511.
##/6512.
##/6513.
##/6514.
##/6515.
##/6713.
##/6714.
##/6715.
##/6911.
##/6912.
##/6914.
##/7111.
##/7112.
##/7115.
##/7311.
##/7312.
##/7313.
##/7314.
##78875,
##88625,
##89875,
##97125,
##brazil
##chuông
##thuyết
cằn
##/906.
##/908.
##9325,
##/1107.
##/1109.
##/1128.
##/1307.
##/1308.
##/1310.
##/1487.
##/1498.
##/1507.
##/1510.
##/1707.
##/1708.
##/1710.
##/1907.
##/1909.
##/1910.
##/1919.
##/2109.
##/2110.
##/2307.
##/2309.
##/2507.
##/2508.
##/2509.
##/2523.
##/2707.
##/2710.
##/2717.
##/2907.
##/3106.
##/3110.
##/3306.
##/3307.
##/3471.
##/3508.
##/3509.
##/3510.
##/3707.
##/3708.
##/3709.
##/3799.
##/3906.
##/3907.
##/3908.
##/3910.
##/4107.
##/4110.
##/4306.
##/4307.
##/4308.
##/4506.
##/4507.
##/4707.
##/4708.
##/4906.
##/4908.
##/5106.
##/5107.
##/5108.
##/5307.
##/5308.
##/5310.
##/5322.
##/5506.
##/5507.
##/5508.
##/5510.
##/5706.
##/5707.
##/5907.
##/5908.
##/5909.
##/6021.
##/6106.
##/6108.
##/6112.
##/6309.
##/6310.
##/6312.
##/6507.
##/6508.
##/6509.
##/6516.
##/6706.
##/6707.
##/6708.
##/6709.
##/6710.
##/7109.
##/7308.
##/7309.
##/7310.
0.949
1.129
1.146
1.155
##/822.
##/902.
##/904.
##/905.
##/997.
##/1103.
##/1104.
##/1106.
##/1302.
##/1303.
##/1305.
##/1503.
##/1506.
##/1702.
##/1703.
##/1704.
##/1706.
##/1720.
##/1903.
##/1905.
##/2102.
##/2103.
##/2105.
##/2303.
##/2304.
##/2421.
##/2444.
##/2502.
##/2503.
##/2504.
##/2506.
##/2525.
##/2703.
##/2802.
##/2904.
##/2905.
##/2906.
##/3104.
##/3210.
##/3222.
##/3302.
##/3303.
##/3502.
##/3702.
##/3703.
##/3704.
##/3705.
##/3905.
##/4009.
##/4102.
##/4103.
##/4104.
##/4303.
##/4305.
##/4503.
##/4518.
##/4704.
##/4705.
##/4905.
##/5103.
##/5104.
##/5105.
##/5304.
##/5305.
##/5447.
##/5502.
##/5503.
##/5504.
##/5505.
##/5618.
##/5703.
##/5704.
##/5705.
##/5812.
##/5904.
##/5905.
##/6103.
##/6104.
##/6105.
##/6109.
##/6302.
##/6305.
##/6502.
##/6703.
##/6704.
##/6705.
##/6902.
##/6903.
##/6904.
##/6905.
##/7102.
##/7104.
##/7105.
##/7301.
##/7302.
##/7304.
1.255
1.293
1.307
1.327
##léo
##máy
##tốn
##véo
##bưng
dĩa
gáy
léo
méo
##/899.
##/923.
##ngưng
1.35
chéo
chốn
ngáy
nhốn
sưng
##/1111.
##/1199.
##/1203.
##/1299.
##/1444.
##/1451.
##/1501.
##/2199.
##/2301.
##/2418.
##/2459.
##/2701.
##/2901.
##/3099.
##/3407.
##/3420.
##/3501.
##/3520.
##/3901.
##/3919.
##/3920.
##/4198.
##/4301.
##/4398.
##/4501.
##/4597.
##/4698.
##/4701.
##/4898.
##/4899.
##/4901.
##/4907.
##/5098.
##/5099.
##/5101.
##/5198.
##/5207.
##/5298.
##/5301.
##/5448.
##/5453.
##/5456.
##/5605.
##/5627.
##/5698.
##/5898.
##/5899.
##/5901.
##/6098.
##/6099.
##/6199.
##/6299.
##/6433.
##/6436.
##/6486.
##/6699.
##/6901.
##/7098.
##/7199.
##/7298.
##/7299.
##/7481.
1.35,
1.39,
1.447
1.470
1.577
1.596
1.615
1.676
1.677
1.688
1.689
1.753
1.757
1.758
1.837
1.917
1.990
1.995
1.997
2.030
##/794.
##/795.
##/897.
##/1095.
##/1097.
##/1195.
##/1206.
##/1297.
##/1695.
##/1696.
##/1697.
##/1698.
##/1896.
##/2095.
##/2096.
##/2195.
##/2197.
##/2198.
##/2295.
##/2296.
##/2297.
##/2298.
##/2696.
##/2698.
##/2712.
##/2895.
##/2896.
##/2897.
##/2898.
##/3095.
##/3096.
##/3097.
##/3098.
##/3196.
##/3295.
##/3297.
##/3695.
##/3696.
##/3698.
##/3895.
##/3897.
##/4095.
##/4096.
##/4097.
##/4099.
##/4197.
##/4295.
##/4297.
##/4696.
##/4896.
##/5095.
##/5097.
##/5194.
##/5195.
##/5196.
##/5197.
##/5294.
##/5296.
##/5297.
##/5622.
##/5696.
##/5697.
##/5894.
##/6095.
##/6096.
##/6126.
##/6194.
##/6195.
##/6196.
##/6197.
##/6294.
##/6295.
##/6296.
##/6297.
##/6307.
##/6326.
##/6505.
##/6627.
##/6694.
##/6696.
##/6697.
##/6896.
##/7094.
##/7095.
##/7194.
##/7195.
##/7196.
##/7294.
##/7295.
##/7296.
##30375,
1.551
2.053
2.076
2.094
2.110
2.118
2.134
2.157
2.169
đẹn
##/792.
##/793.
##/890.
##/892.
##/893.
##/1091.
##/1193.
##/1290.
##/1292.
##/1294.
##/1690.
##/1693.
##/1892.
##/1893.
##/1894.
##/2090.
##/2092.
##/2093.
##/2094.
##/2190.
##/2193.
##/2194.
##/2290.
##/2291.
##/2294.
##/2477.
##/2691.
##/2694.
##/2890.
##/2891.
##/2893.
##/2894.
##/3014.
##/3093.
##/3094.
##/3190.
##/3194.
##/3198.
##/3290.
##/3291.
##/3527.
##/3691.
##/3692.
##/3693.
##/3891.
##/3892.
##/3893.
##/3894.
##/4090.
##/4092.
##/4093.
##/4190.
##/4192.
##/4291.
##/4292.
##/4293.
##/4691.
##/4692.
##/4693.
##/4694.
##/4894.
##/5090.
##/5091.
##/5092.
##/5093.
##/5094.
##/5192.
##/5290.
##/5291.
##/5292.
##/5293.
##/5429.
##/5690.
##/5691.
##/5890.
##/6091.
##/6093.
##/6190.
##/6290.
##/6291.
##/6440.
##/6690.
##/6691.
##/6803.
##/6890.
##/6893.
##/7091.
##/7092.
##/7093.
##/7290.
##/7293.
##/7427.
2.194
2.269
2.317
2.350
2.378
2.395
2.397
##bóc
##bếp
##tít
##tạm
##chụp
##dạng
##mạng
##nhét
##thít
cắp
hóc
hạm
kẹp
lét
mét
roi
rét
rít
róc
vạm
đét
##/891.
##/907.
cạch
dâng
miếu
mạch
ngoi
nhóc
quằn
trẻo
điếu
##/1090.
##/1209.
##/1296.
##/1798.
##/2437.
##/2622.
##/2805.
##/2915.
##/3102.
##/3229.
##/3417.
##/3503.
##/3717.
##/3927.
##/4221.
##/4455.
##/4508.
##/4904.
##/5121.
##/5487.
##/5517.
##/6807.
##/6818.
##/6898.
##/6994.
##/7019.
##/7419.
##56125,
1.536
2.435
2.510
2.515
2.533
2.568
2.578
2.655
2.656
2.694
2.733
2.751
2.768
2.809
2.951
2.990
3.013
3.034
3.056
3.058
3.078
3.156
3.22,
3.316
3.551
3.558
3.575
3.898
4.043
4.06,
4.230
4.24,
4.36,
6.057
chuỗi
chưng
huyệt
khiếp
khuya
khuấy
##bấm
##tấm
##chảy
##chấm
##giảm
##mảng
##nghi
##suối
##sóng
búp
hợi
mảy
nén
súp
##/921.
##phảng
chín
chấm
khép
lảng
ngợp
phím
sảng
tiệp
##/1010.
##/1428.
##/1594.
##/1694.
##/1904.
##/2427.
##/2520.
##/3298.
##/3453.
##/3522.
##/3909.
##/4024.
##/4304.
##/4610.
##/4624.
##/5028.
##/5119.
##/5314.
##/5595.
##/5602.
##/5729.
##/5823.
##/6809.
##/6819.
##/7213.
##/7448.
##nghiễm
1.533
2.01,
2.455
2.551
3.922
3.96,
khỉnh
nghét
nghẹt
ngoèo
ngoằn
nguôi
nguội
ngóng
phảng
quyển
trịnh
tuyền
vuông
điếng
##078125,
##080625,
##109375,
##189625,
##306875,
##324375,
##339375,
##346875,
##348125,
##363125,
##378125,
##381625,
##383125,
##504375,
##514375,
##531875,
##581625,
##584375,
##656875,
##676875,
##678125,
##679375,
##696875,
##711875,
##714375,
##720625,
##725625,
##753125,
##766875,
##mua
##đua
##bụng
##dụng
mạc
đạc
##/896.
##3075,
##5825,
##khiêm
đoan
##/1039.
##/1239.
##/1639.
##/1739.
##/1817.
##/1891.
##/1939.
##/2139.
##/2239.
##/2539.
##/2639.
##/2939.
##/3139.
##/3218.
##/3239.
##/3339.
##/3639.
##/3697.
##/3791.
##/3810.
##/3823.
##/3839.
##/4039.
##/4139.
##/4239.
##/4339.
##/4739.
##/4839.
##/5039.
##/5139.
##/5339.
##/5912.
##/6039.
##/6227.
##/6238.
##/6239.
##/6339.
##/6539.
##/6639.
##/6712.
##/6739.
##/6839.
##/6916.
##/6938.
##/6939.
##/7024.
##/7038.
##/7138.
##/7139.
##/7238.
##/7239.
##/7338.
##/7339.
##nguyễn
##trượng
3.78,
3.84,
4.14,
dượng
gượng
##769375,
##774375,
##781875,
##822875,
##870625,
##899375,
##905625,
##906875,
##960625,
##961875,
##979375,
##981875,
1.072,
1.311,
1.319,
1.407,
1.413,
1.454,
1.494,
1.576,
1.599,
1.601,
1.611,
1.618,
1.619,
1.795,
1.876,
1.919,
2.079,
ghé
##/836.
##/837.
##/936.
lênh
nhuệ
##/1137.
##/1138.
##/1237.
##/1238.
##/1508.
##/1538.
##/1607.
##/1738.
##/1838.
##/2010.
##/2037.
##/2038.
##/2137.
##/2337.
##/2338.
##/2638.
##/2737.
##/2738.
##/2937.
##/2938.
##/3038.
##/3137.
##/3138.
##/3337.
##/3637.
##/3638.
##/3737.
##/3738.
##/3837.
##/3838.
##/4138.
##/4238.
##/4337.
##/4338.
##/4538.
##/4637.
##/4638.
##/4736.
##/4738.
##/4836.
##/4837.
##/4838.
##/4937.
##/4938.
##/5038.
##/5136.
##/5137.
##/5236.
##/5237.
##/5327.
##/5337.
##/5338.
##/5536.
##/5636.
##/5637.
##/5736.
##/5836.
##/5837.
##/5838.
##/5903.
##/5937.
##/5938.
##/5998.
##/6036.
##/6037.
##/6136.
##/6137.
##/6337.
##/6536.
##/6637.
##/6736.
##/6737.
##/6936.
##/7036.
##/7136.
##/7236.
##/7337.
##245625,
1.696,
2.081,
2.139,
2.169,
2.173,
2.178,
2.216,
2.296,
2.299,
2.412,
2.417,
2.581,
2.601,
2.633,
2.679,
2.691,
##/796.
##/834.
##/934.
##/935.
##miếng
##/1035.
##/1136.
##/1235.
##/1236.
##/1319.
##/1336.
##/1735.
##/1736.
##/1835.
##/1935.
##/2036.
##/2136.
##/2236.
##/2327.
##/2336.
##/2505.
##/2536.
##/2635.
##/2636.
##/2735.
##/2736.
##/2826.
##/2935.
##/2936.
##/3035.
##/3036.
##/3135.
##/3215.
##/3235.
##/3321.
##/3334.
##/3336.
##/3434.
##/3521.
##/3534.
##/3536.
##/3634.
##/3635.
##/3636.
##/3734.
##/3736.
##/3834.
##/3835.
##/3836.
##/3934.
##/3935.
##/3936.
##/4034.
##/4035.
##/4036.
##/4134.
##/4136.
##/4225.
##/4236.
##/4534.
##/4635.
##/4835.
##/4935.
##/5034.
##/5035.
##/5309.
##/5401.
##/5534.
##/5535.
##/5825.
##/5835.
##/5935.
##/6135.
##/6234.
##/6334.
##/6400.
##/6488.
##/6534.
##/6634.
##/6635.
##/6735.
##/6816.
##/6834.
##/6835.
##/6892.
##/6934.
##/7034.
##/7035.
##/7134.
##/7135.
##/7234.
##/7235.
##/7334.
##/7410.
##87875,
2.692,
2.856,
2.857,
2.919,
2.942,
##785,
##khóa
##muôn
##/798.
##/832.
##/833.
##2925,
##/1117.
##/1134.
##/1191.
##/1233.
##/1234.
##/1333.
##/1334.
##/1534.
##/1633.
##/1733.
##/1734.
##/1833.
##/1834.
##/1933.
##/2134.
##/2191.
##/2233.
##/2234.
##/2334.
##/2396.
##/2533.
##/2534.
##/2634.
##/2734.
##/2834.
##/2934.
##/3033.
##/3134.
##/3233.
##/3234.
##/3333.
##/3505.
##/3533.
##/3539.
##/3633.
##/3732.
##/4032.
##/4033.
##/4132.
##/4133.
##/4232.
##/4233.
##/4332.
##/4513.
##/4532.
##/4618.
##/4633.
##/4732.
##/4833.
##/4932.
##/4994.
##/5032.
##/5036.
##/5132.
##/5218.
##/5232.
##/5233.
##/5332.
##/5632.
##/5633.
##/5732.
##/5733.
##/5832.
##/5923.
##/5932.
##/5933.
##/6032.
##/6033.
##/6132.
##/6133.
##/6221.
##/6232.
##/6233.
##/6332.
##/6532.
##/6626.
##/6632.
##/6732.
##/6733.
##/6833.
##/6933.
##/7032.
##/7033.
##/7132.
##/7133.
##/7232.
##/7332.
##/7333.
2.957,
2.979,
2.982,
3.059,
3.101,
##khốn
##/824.
##/830.
##/831.
##/930.
##/931.
##2825,
##/1031.
##/1131.
##/1132.
##/1231.
##/1331.
##/1332.
##/1531.
##/1532.
##/1631.
##/1731.
##/1796.
##/1895.
##/1916.
##/2000.
##/2131.
##/2132.
##/2205.
##/2231.
##/2401.
##/2531.
##/2632.
##/2832.
##/2932.
##/3032.
##/3132.
##/3230.
##/3231.
##/3332.
##/3491.
##/3530.
##/3531.
##/3532.
##/3730.
##/3731.
##/3931.
##/4030.
##/4130.
##/4131.
##/4230.
##/4231.
##/4330.
##/4415.
##/4449.
##/4459.
##/4486.
##/4530.
##/4531.
##/4630.
##/4631.
##/4830.
##/4930.
##/4931.
##/5030.
##/5130.
##/5131.
##/5230.
##/5231.
##/5239.
##/5331.
##/5530.
##/5531.
##/5630.
##/5830.
##/5930.
##/5931.
##/6030.
##/6128.
##/6130.
##/6321.
##/6330.
##/6331.
##/6444.
##/6530.
##/6531.
##/6630.
##/6831.
##/6930.
##/7030.
##/7031.
##/7130.
##/7131.
##/7328.
##/7330.
##/7496.
suông
3.208,
3.239,
3.302,
3.399,
3.481,
3.502,
3.522,
3.562,
vòi
##/700.
##/789.
##/889.
##/900.
##/989.
##/1100.
##/1300.
##/1330.
##/1523.
##/1530.
##/1589.
##/1630.
##/1689.
##/1700.
##/1728.
##/1730.
##/1789.
##/1800.
##/1830.
##/1930.
##/2030.
##/2089.
##/2100.
##/2200.
##/2230.
##/2289.
##/2300.
##/2389.
##/2589.
##/2630.
##/2700.
##/2730.
##/2811.
##/2889.
##/2900.
##/2996.
##/3089.
##/3130.
##/3189.
##/3200.
##/3289.
##/3300.
##/3389.
##/3411.
##/3460.
##/3589.
##/3600.
##/3606.
##/3689.
##/3700.
##/3789.
##/3800.
##/3889.
##/3900.
##/4001.
##/4031.
##/4100.
##/4289.
##/4300.
##/4689.
##/4700.
##/4789.
##/4800.
##/4900.
##/4989.
##/5089.
##/5213.
##/5300.
##/5389.
##/5589.
##/5600.
##/5689.
##/5789.
##/5800.
##/5889.
##/5900.
##/6089.
##/6100.
##/6189.
##/6198.
##/6200.
##/6300.
##/6589.
##/6600.
##/6889.
##/6989.
##/7100.
##/7189.
##/7212.
##/7300.
##/7389.
1.597
2.219
##758125,
3.642,
3.719,
3.802,
4.121,
4.301,
##đón
##/787.
##/987.
##/988.
##3425,
khía
##/1026.
##/1088.
##/1288.
##/1289.
##/1387.
##/1388.
##/1389.
##/1587.
##/1687.
##/1887.
##/1988.
##/2087.
##/2088.
##/2187.
##/2209.
##/2217.
##/2287.
##/2587.
##/2588.
##/2687.
##/2688.
##/2787.
##/2788.
##/2888.
##/2987.
##/2988.
##/3039.
##/3087.
##/3100.
##/3188.
##/3237.
##/3288.
##/3387.
##/3388.
##/3435.
##/3587.
##/3688.
##/3887.
##/3888.
##/3987.
##/3988.
##/4087.
##/4088.
##/4187.
##/4188.
##/4287.
##/4388.
##/4587.
##/4687.
##/4688.
##/4788.
##/4803.
##/4887.
##/4988.
##/5087.
##/5187.
##/5188.
##/5191.
##/5235.
##/5287.
##/5288.
##/5388.
##/5415.
##/5587.
##/5588.
##/5887.
##/5987.
##/5988.
##/6087.
##/6088.
##/6187.
##/6188.
##/6287.
##/6288.
##/6387.
##/6388.
##/6607.
##/6787.
##/6788.
##/6887.
##/6888.
##/6987.
##/6988.
##/7087.
##/7088.
##/7188.
##/7288.
##/7387.
##89625,
1.916
4.321,
4.898,
4.922,
chuồng
##23,
ươi
##/785.
##/786.
##/807.
##/884.
##/1014.
##/1085.
##/1087.
##/1185.
##/1286.
##/1385.
##/1386.
##/1585.
##/1586.
##/1685.
##/1686.
##/1785.
##/2085.
##/2086.
##/2186.
##/2224.
##/2285.
##/2286.
##/2385.
##/2386.
##/2481.
##/2586.
##/2685.
##/2686.
##/2885.
##/2922.
##/2985.
##/2986.
##/3005.
##/3185.
##/3285.
##/3286.
##/3330.
##/3386.
##/3585.
##/3685.
##/3786.
##/3886.
##/3985.
##/3986.
##/4085.
##/4086.
##/4186.
##/4285.
##/4286.
##/4386.
##/4586.
##/4685.
##/4686.
##/4785.
##/4798.
##/4885.
##/4886.
##/4985.
##/4986.
##/5185.
##/5186.
##/5285.
##/5286.
##/5385.
##/5586.
##/5686.
##/5785.
##/5885.
##/5892.
##/5986.
##/6086.
##/6107.
##/6127.
##/6185.
##/6186.
##/6285.
##/6386.
##/6586.
##/6685.
##/6686.
##/6716.
##/6786.
##/6886.
##/6986.
##/7084.
##/7085.
##/7284.
##/7285.
##/7291.
##/7384.
##/7385.
##/7386.
3.523,
chướng
khuynh
khuyển
khuếch
ngoảnh
##/782.
##/783.
##/883.
##/888.
##/982.
##/983.
##/1025.
##/1083.
##/1084.
##/1184.
##/1188.
##/1283.
##/1384.
##/1583.
##/1584.
##/1683.
##/1684.
##/1984.
##/2083.
##/2184.
##/2283.
##/2284.
##/2383.
##/2384.
##/2463.
##/2492.
##/2583.
##/2584.
##/2683.
##/2697.
##/2725.
##/2784.
##/2983.
##/3083.
##/3115.
##/3184.
##/3283.
##/3383.
##/3384.
##/3584.
##/3683.
##/3684.
##/3783.
##/3784.
##/3883.
##/3884.
##/3932.
##/4083.
##/4084.
##/4184.
##/4502.
##/4584.
##/4683.
##/4684.
##/4783.
##/4784.
##/4884.
##/4939.
##/4983.
##/5083.
##/5084.
##/5209.
##/5283.
##/5383.
##/5384.
##/5683.
##/5783.
##/5784.
##/5883.
##/5884.
##/5983.
##/5989.
##/6083.
##/6084.
##/6184.
##/6308.
##/6383.
##/6584.
##/6608.
##/6683.
##/6698.
##/6784.
##/6799.
##/6884.
##/6909.
##/6983.
##/6984.
##/7083.
##/7183.
##/7283.
##/7383.
##/7405.
ngưỡng
trướng
##1084375,
##2729375,
##4278125,
##6280625,
##9301875,
1.1105,
##/600.
##/780.
##/880.
##/881.
##/980.
##/981.
##/1082.
##/1181.
##/1509.
##/1581.
##/1582.
##/1782.
##/1881.
##/1882.
##/1897.
##/1981.
##/1982.
##/2082.
##/2182.
##/2281.
##/2282.
##/2382.
##/2430.
##/2581.
##/2681.
##/2682.
##/2781.
##/2810.
##/2981.
##/3082.
##/3181.
##/3281.
##/3282.
##/3382.
##/3682.
##/3782.
##/4081.
##/4082.
##/4181.
##/4281.
##/4282.
##/4327.
##/4382.
##/4387.
##/4467.
##/4581.
##/4582.
##/4591.
##/4681.
##/4682.
##/4781.
##/4782.
##/4882.
##/4981.
##/4982.
##/5081.
##/5082.
##/5189.
##/5281.
##/5282.
##/5382.
##/5635.
##/5682.
##/5781.
##/5782.
##/5881.
##/5882.
##/5981.
##/6182.
##/6282.
##/6381.
##/6582.
##/6620.
##/6680.
##/6681.
##/6682.
##/6781.
##/6795.
##/6811.
##/6824.
##/6881.
##/6882.
##/6906.
##/6980.
##/6981.
##/7082.
##/7180.
##/7181.
##/7281.
##/7282.
##/7306.
##/7380.
##/7382.
nguyệt
1.1555,
1.2965,
1.3325,
1.3745,
1.3965,
1.5145,
##sớm
##/778.
##/779.
##/878.
##/879.
##/978.
##/979.
đoạt
##/1008.
##/1080.
##/1130.
##/1179.
##/1380.
##/1579.
##/1580.
##/1636.
##/1679.
##/1680.
##/1780.
##/1808.
##/1879.
##/1979.
##/1980.
##/2080.
##/2130.
##/2279.
##/2280.
##/2379.
##/2380.
##/2779.
##/2793.
##/2880.
##/2979.
##/3079.
##/3180.
##/3279.
##/3280.
##/3379.
##/3380.
##/3580.
##/3679.
##/3779.
##/3780.
##/3979.
##/4079.
##/4080.
##/4115.
##/4180.
##/4280.
##/4379.
##/4380.
##/4579.
##/4580.
##/4679.
##/4680.
##/4779.
##/4780.
##/4879.
##/4880.
##/4979.
##/5080.
##/5179.
##/5379.
##/5579.
##/5580.
##/5591.
##/5679.
##/5680.
##/5722.
##/5780.
##/5879.
##/5880.
##/6079.
##/6080.
##/6179.
##/6180.
##/6379.
##/6380.
##/6429.
##/6445.
##/6580.
##/6678.
##/6679.
##/6779.
##/6878.
##/6879.
##/6978.
##/6979.
##/6996.
##/7078.
##/7178.
##/7278.
2.891,
1.5275,
1.5595,
1.6005,
1.6365,
1.6415,
1.6755,
1.7305,
##/776.
##/777.
##/876.
##/877.
##thuật
##/1078.
##/1177.
##/1178.
##/1216.
##/1278.
##/1377.
##/1378.
##/1677.
##/1678.
##/1778.
##/1877.
##/1977.
##/1978.
##/2078.
##/2177.
##/2178.
##/2278.
##/2377.
##/2387.
##/2479.
##/2617.
##/2677.
##/2778.
##/2878.
##/2977.
##/2978.
##/3012.
##/3078.
##/3088.
##/3177.
##/3178.
##/3378.
##/3577.
##/3578.
##/3677.
##/3678.
##/3777.
##/3877.
##/3878.
##/3899.
##/3977.
##/3978.
##/4078.
##/4177.
##/4178.
##/4277.
##/4278.
##/4377.
##/4577.
##/4578.
##/4678.
##/4699.
##/4777.
##/4878.
##/4977.
##/4978.
##/5077.
##/5078.
##/5177.
##/5178.
##/5277.
##/5278.
##/5321.
##/5377.
##/5421.
##/5677.
##/5777.
##/5877.
##/5878.
##/5977.
##/5978.
##/6077.
##/6177.
##/6277.
##/6278.
##/6306.
##/6378.
##/6430.
##/6577.
##/6684.
##/6777.
##/6832.
##/6876.
##/6877.
##/7177.
##/7276.
##/7277.
##/7376.
##/7475.
4.12,
kiêng
##388125,
1.7795,
1.7945,
1.8365,
##/774.
##/875.
##/974.
##/1075.
##/1076.
##/1176.
##/1276.
##/1576.
##/1676.
##/1775.
##/1792.
##/1976.
##/2075.
##/2076.
##/2106.
##/2176.
##/2222.
##/2376.
##/2414.
##/2532.
##/2575.
##/2576.
##/2776.
##/2875.
##/2876.
##/2975.
##/2976.
##/3075.
##/3076.
##/3228.
##/3275.
##/3276.
##/3325.
##/3376.
##/3575.
##/3675.
##/3676.
##/3775.
##/3876.
##/3975.
##/4075.
##/4076.
##/4176.
##/4214.
##/4275.
##/4374.
##/4375.
##/4429.
##/4674.
##/4774.
##/4776.
##/4874.
##/4877.
##/4974.
##/4975.
##/4976.
##/5174.
##/5176.
##/5202.
##/5274.
##/5275.
##/5276.
##/5375.
##/5631.
##/5675.
##/5676.
##/5717.
##/5774.
##/5775.
##/5875.
##/5876.
##/5974.
##/5976.
##/6031.
##/6074.
##/6174.
##/6175.
##/6176.
##/6274.
##/6375.
##/6574.
##/6575.
##/6576.
##/6674.
##/6675.
##/6774.
##/6775.
##/6874.
##/6875.
##/6974.
##/7074.
##/7075.
##/7174.
##/7274.
##/7374.
##/7461.
1.8975,
1.9505,
1.9565,
1.9715,
##/772.
##/773.
##/803.
##/872.
##/973.
##thỉnh
thùy
##/1073.
##/1074.
##/1174.
##/1183.
##/1273.
##/1274.
##/1373.
##/1399.
##/1573.
##/1574.
##/1774.
##/1779.
##/1874.
##/1973.
##/1974.
##/2021.
##/2073.
##/2074.
##/2272.
##/2372.
##/2374.
##/2428.
##/2572.
##/2573.
##/2574.
##/2672.
##/2777.
##/2872.
##/3072.
##/3073.
##/3074.
##/3081.
##/3173.
##/3174.
##/3272.
##/3273.
##/3372.
##/3374.
##/3672.
##/3773.
##/3774.
##/3817.
##/3872.
##/3874.
##/3902.
##/3938.
##/3972.
##/3974.
##/4072.
##/4073.
##/4074.
##/4172.
##/4173.
##/4174.
##/4207.
##/4272.
##/4273.
##/4372.
##/4373.
##/4572.
##/4573.
##/4933.
##/4972.
##/5033.
##/5072.
##/5073.
##/5573.
##/5597.
##/5606.
##/5673.
##/5739.
##/5772.
##/5773.
##/6072.
##/6073.
##/6173.
##/6272.
##/6428.
##/6572.
##/6573.
##/6672.
##/6772.
##/7072.
##/7073.
##/7173.
##/7336.
##/7422.
4.179,
1.9805,
1.9935,
1.9985,
1.9995,
2.0355,
##vớ
##48,
##lật
##vận
##xua
##biên
##sành
cật
xao
đái
##/270.
##/456.
##/742.
##/768.
##/771.
##/871.
##/971.
##5075,
##ngẩng
cành
nhại
quẫn
đùng
##/1072.
##/1101.
##/1272.
##/1277.
##/1372.
##/1433.
##/1474.
##/1600.
##/1627.
##/1724.
##/1761.
##/1772.
##/1777.
##/1837.
##/1972.
##/1986.
##/2091.
##/2172.
##/2181.
##/2305.
##/2330.
##/2332.
##/2609.
##/2628.
##/2650.
##/2760.
##/3309.
##/3556.
##/3630.
##/3993.
##/4027.
##/4175.
##/4215.
##/4389.
##/4498.
##/4569.
##/4576.
##/4706.
##/5127.
##/5474.
##/5491.
##/5713.
##/6008.
##/6057.
##/6371.
##/6571.
##/6771.
##/6801.
##/6871.
##/6971.
##/7005.
##/7071.
##/7171.
##/7204.
##/7247.
##/7271.
##/7371.
##/7399.
##/7460.
1.702
chiên
tuyên
1.548,
2.0135,
2.0535,
2.0945,
2.1115,
2.1595,
2.1765,
2.1785,
2.2155,
2.2795,
2.3195,
2.3315,
2.3365,
2.3575,
2.3775,
##mòn
##náo
lề
##/85.
##giai
##khẩn
##tiết
mòn
##/248.
##/414.
##/597.
##/740.
##/856.
##/903.
6.19
ngầu
##/1222.
##/1504.
##/1654.
##/1709.
##/1719.
##/1967.
##/1993.
##/2173.
##/2744.
##/2860.
##/2912.
##/2931.
##/3061.
##/3091.
##/3187.
##/3361.
##/3674.
##/3714.
##/3748.
##/3833.
##/3890.
##/3926.
##/3954.
##/4007.
##/4077.
##/4116.
##/4202.
##/4560.
##/4567.
##/4595.
##/4831.
##/4918.
##/4955.
##/5005.
##/5019.
##/5345.
##/5393.
##/5482.
##/5489.
##/5518.
##/5575.
##/5610.
##/5701.
##/5802.
##/5820.
##/5833.
##/5855.
##/5895.
##/5910.
##/5953.
##/6009.
##/6062.
##/6142.
##/6298.
##/6336.
##/6343.
##/6357.
##/6585.
##/6649.
##/6868.
##/6915.
##/6973.
##/6982.
##/7010.
##/7158.
##/7480.
##49375,
1.970
khuẩn
2.4205,
2.4215,
2.4595,
2.5025,
2.5945,
2.5965,
2.6605,
2.6785,
2.6965,
2.7185,
2.7205,
2.7395,
2.7565,
2.8175,
2.8395,
##rủ
##úy
##bấy
##hất
##khổ
##mến
##râu
úy
##/65.
##mông
bái
sến
tâu
vác
##/141.
##/142.
##/305.
##/344.
##/602.
##/826.
2.8,
loay
nghẽ
quây
quầy
rách
ròng
thâu
##/1204.
##/1208.
##/1434.
##/1588.
##/1987.
##/1991.
##/2046.
##/2138.
##/2597.
##/2745.
##/2879.
##/2902.
##/2982.
##/3120.
##/3142.
##/3168.
##/3323.
##/3357.
##/3428.
##/3622.
##/3628.
##/3768.
##/3826.
##/3827.
##/3852.
##/4091.
##/4244.
##/4279.
##/4302.
##/4320.
##/4335.
##/4636.
##/4675.
##/4709.
##/4778.
##/4940.
##/4971.
##/5096.
##/5149.
##/5459.
##/5550.
##/5596.
##/6139.
##/6242.
##/6279.
##/6283.
##/6333.
##/6543.
##/6621.
##/6638.
##/6645.
##/6723.
##/6778.
##/6800.
##/6845.
##/6937.
##/7056.
##/7258.
##/7303.
##/7335.
1.674
2.65,
nghẽn
2.6500
nghiền
1.7165,
2.9115,
2.9605,
3.0405,
3.0595,
3.1605,
3.2385,
##xú
##thà
##xúm
##ẵng
vú
ẩu
##/42.
##/47.
##chứa
##giọt
##mong
##trau
ham
lây
mao
mâu
nâu
xéo
xôn
##/233.
##/369.
##/507.
##/559.
##vương
2.43
2.47
họng
nành
nẵng
##/1150.
##/1223.
##/1249.
##/2237.
##/2259.
##/2400.
##/2452.
##/2555.
##/2611.
##/2721.
##/2830.
##/2961.
##/2974.
##/3158.
##/3183.
##/3247.
##/3277.
##/3292.
##/3299.
##/3445.
##/3566.
##/3722.
##/3968.
##/4059.
##/4228.
##/4261.
##/4575.
##/4664.
##/4769.
##/4817.
##/4875.
##/5086.
##/5140.
##/5238.
##/5250.
##/5251.
##/5434.
##/5828.
##/5859.
##/5874.
##/5888.
##/5921.
##/5934.
##/6011.
##/6192.
##/6405.
##/6494.
##/6633.
##/6758.
##/6852.
##/6972.
##/7157.
##/7421.
##/7474.
##64375,
##88125,
##90625,
##94375,
##308125,
##836875,
3.081,
##0088125,
##6194375,
3.2815,
3.3025,
3.3605,
3.3825,
3.4205,
3.4825,
3.5025,
3.5205,
##tắm
cù
gù
##/30.
##/40.
##/41.
##/70.
##/71.
##/72.
##/73.
##/74.
##/76.
##/86.
##chức
##lặng
##thai
##/389.
##/514.
##/702.
##/952.
##/956.
##/968.
##trừng
3.7,
3.81
##/1108.
##/1379.
##/1575.
##/1634.
##/1645.
##/1722.
##/1888.
##/2062.
##/2077.
##/2143.
##/2207.
##/2317.
##/2361.
##/2722.
##/2952.
##/3037.
##/3108.
##/3219.
##/3260.
##/3320.
##/3494.
##/3588.
##/3673.
##/3746.
##/3772.
##/3792.
##/3923.
##/4026.
##/4235.
##/4516.
##/4677.
##/4794.
##/4806.
##/4844.
##/4984.
##/5059.
##/5079.
##/5227.
##/5265.
##/5572.
##/5684.
##/5687.
##/5708.
##/5840.
##/5939.
##/5957.
##/5975.
##/6121.
##/6166.
##/6367.
##/6376.
##/6521.
##/6542.
##/6728.
##/6734.
##/6846.
##/7066.
##/7233.
##/7388.
##/7403.
nhược
1.899,
3.621,
3.819,
3.5215,
3.5405,
3.7025,
3.7605,
3.7825,
3.8205,
3.8425,
4.0015,
4.0615,
4.1985,
4.2205,
##/8.
##ướn
rộ
xi
xế
##/10.
##/15.
##/19.
##/29.
##/38.
##/39.
##/48.
##/49.
##/59.
##/82.
##/98.
##hoại
##phẩm
##rảnh
##trội
dệt
nại
quẻ
rác
rầm
vây
vứt
đằm
##/191.
##/412.
##/598.
##quãng
mướn
tạng
##/1029.
##/1120.
##/1189.
##/1309.
##/1533.
##/1545.
##/1871.
##/1915.
##/2024.
##/2041.
##/2042.
##/2208.
##/2238.
##/2366.
##/2411.
##/2445.
##/2465.
##/2601.
##/2608.
##/2642.
##/2816.
##/3155.
##/3163.
##/3232.
##/3313.
##/3338.
##/3794.
##/3832.
##/4166.
##/4328.
##/4361.
##/4428.
##/4443.
##/4504.
##/4519.
##/4585.
##/4649.
##/4650.
##/4734.
##/4834.
##/4843.
##/5040.
##/5302.
##/5532.
##/5625.
##/5751.
##/5847.
##/6064.
##/6750.
##/6783.
##/6977.
##/6990.
##/7064.
##/7369.
##/7409.
##46625,
trạch
##291875,
3.421,
4.2615,
4.3415,
4.3815,
4.6005,
1.09525,
1.15325,
1.21475,
##dị
##hễ
##/7.
##môn
##ném
##đột
##đợt
7.
gò
hã
##/25.
##/37.
##/66.
##chĩa
##toan
##vững
gốm
hao
hãm
lậu
##/253.
##/348.
##/388.
##/617.
##/639.
##/868.
##/882.
##/929.
##/986.
4.47
7.34
phết
trội
##/1000.
##/1264.
##/1304.
##/1353.
##/1376.
##/1469.
##/1488.
##/1692.
##/1890.
##/1948.
##/1949.
##/2111.
##/2174.
##/2429.
##/2453.
##/2578.
##/2614.
##/2679.
##/2733.
##/3169.
##/3250.
##/3371.
##/3582.
##/3879.
##/3980.
##/4527.
##/4596.
##/4801.
##/4881.
##/4890.
##/5076.
##/5326.
##/5376.
##/5500.
##/5724.
##/5972.
##/6007.
##/6419.
##/6471.
##/6500.
##/6520.
##/6568.
##/6721.
##/6776.
##/7161.
##/7242.
##/7251.
##/7286.
##/7434.
##75625,
##choáng
1.535
phùng
3.242,
1.21625,
1.25475,
1.31025,
1.33325,
1.35375,
1.39375,
1.40825,
1.41425,
1.41625,
1.47525,
1.51225,
1.52625,
1.53025,
##chợ
##chữ
##tột
##tụi
nỡ
##/18.
##/24.
##/44.
##/64.
##/78.
##thừa
bẹp
dột
giã
giế
giề
gáp
liề
sặc
độn
##/110.
##/118.
##/121.
##/166.
##/193.
##/243.
##/371.
##/424.
##/451.
##/481.
##/498.
##/692.
##/767.
##/910.
##/976.
ganh
liều
mảng
vầng
##/1086.
##/1180.
##/1257.
##/1269.
##/1281.
##/1478.
##/1653.
##/2261.
##/2293.
##/2320.
##/2339.
##/2373.
##/2439.
##/2486.
##/2513.
##/2522.
##/2561.
##/3266.
##/3335.
##/3348.
##/3945.
##/3995.
##/4126.
##/4209.
##/4440.
##/4444.
##/4536.
##/4606.
##/4809.
##/4969.
##/4999.
##/5071.
##/5074.
##/5172.
##/5228.
##/5533.
##/5710.
##/5787.
##/5862.
##/6000.
##/6490.
##/6754.
##/6773.
##/6968.
##/7028.
##/7058.
##71625,
##thuyền
1.89,
giếng
giềng
##360625,
3.841,
1.5305,
1.55975,
1.57675,
1.59925,
1.65175,
1.66175,
1.67425,
1.67625,
##/4.
##83,
##môi
##đăm
##ươn
dê
dẻ
xả
##/22.
##/32.
##/35.
##/43.
##/53.
##/61.
##/63.
##ngắm
##nắng
ghe
ngó
phe
phô
đèo
##/428.
##/446.
##/546.
##/557.
##/629.
vươn
xiên
##/1149.
##/1160.
##/1232.
##/1394.
##/1454.
##/1592.
##/1682.
##/1831.
##/1918.
##/2331.
##/2590.
##/2780.
##/2808.
##/2812.
##/2851.
##/2884.
##/2887.
##/2968.
##/2969.
##/2999.
##/3205.
##/3268.
##/3349.
##/3526.
##/3631.
##/3648.
##/3729.
##/4044.
##/4057.
##/4101.
##/4290.
##/4460.
##/4946.
##/4987.
##/5334.
##/5378.
##/5763.
##/6322.
##/6348.
##/6496.
##/6518.
##/6656.
##/6749.
##/7237.
##/7262.
##/7373.
##/7425.
##289375,
2.174,
3.281,
3.408,
3.583,
1.5335,
1.5405,
2.1795,
4.3025,
1.69475,
1.70225,
1.73675,
1.75875,
1.84025,
1.85625,
1.88125,
1.89425,
1.90975,
1.91425,
1.93575,
1.93825,
1.96075,
1.97075,
2.02925,
##ẳm
##phi
##phí
##phú
rà
rớ
##dinh
lẩm
##/220.
##/292.
##/322.
##/432.
##/630.
##/633.
##/682.
##/723.
##/738.
##dường
##sương
bành
hững
ngài
nung
thẳm
trâu
##/1230.
##/1280.
##/1359.
##/1760.
##/1773.
##/1898.
##/2019.
##/2196.
##/2308.
##/2434.
##/2458.
##/2656.
##/2761.
##/2908.
##/2949.
##/3278.
##/3316.
##/3356.
##/3499.
##/3516.
##/3551.
##/3739.
##/3821.
##/3828.
##/4108.
##/4157.
##/4539.
##/4770.
##/4849.
##/4866.
##/5008.
##/5061.
##/5117.
##/5138.
##/5210.
##/5513.
##/5667.
##/5672.
##/6026.
##/6034.
##/6303.
##/6389.
##/6434.
##/6501.
##/6503.
##/6673.
##/6793.
##/6985.
##/7039.
##/7080.
##/7101.
##/7176.
##/7198.
##/7398.
##79125,
##944375,
nghiến
2.6225,
4.0405,
2.07375,
2.07675,
2.11725,
2.12025,
2.14875,
2.15325,
2.16025,
2.16825,
2.17175,
2.19925,
2.21125,
2.22125,
2.24075,
2.24125,
2.24275,
2.24875,
##tạ
##ùm
##ỉa
##71,
##bạc
##nạn
##tàu
ga
sò
sỡ
ỉa
##/27.
##/60.
##tang
##viết
bẩn
gie
kha
lột
ngà
sầu
sủa
đòn
##/169.
##/203.
##/261.
##/285.
##/294.
##/373.
##/493.
##/535.
##/588.
##/591.
##/799.
##/839.
##thoạt
gieo
giùm
khâu
##/1265.
##/1375.
##/1537.
##/1540.
##/1811.
##/1865.
##/1884.
##/1941.
##/1971.
##/2006.
##/2180.
##/2292.
##/3191.
##/3360.
##/3373.
##/3506.
##/3946.
##/4089.
##/4229.
##/4284.
##/4376.
##/4733.
##/4758.
##/4991.
##/5064.
##/5303.
##/5306.
##/5317.
##/5398.
##/5427.
##/5480.
##/5527.
##/5562.
##/5565.
##/6231.
##/6385.
##/6391.
##/6425.
##/6564.
##/6847.
##/6907.
##/7149.
##/7207.
##/7209.
##/7279.
##/7358.
##/7390.
thuẫn
3.571,
3.921,
1.46875,
1.59725,
2.25075,
2.25175,
2.27875,
2.28175,
2.29125,
2.29625,
2.30875,
2.31075,
2.31275,
##ởn
##/3.
##54,
##vôi
##đẫm
cớ
hì
hẫ
chở
lởn
xạc
##/181.
##/332.
##/436.
##/608.
##/718.
##/720.
##/823.
##/873.
##nương
4.80
hẫng
thác
tàng
##/1019.
##/1198.
##/1242.
##/1247.
##/1393.
##/1549.
##/1661.
##/1673.
##/1870.
##/1889.
##/1900.
##/1912.
##/2058.
##/2127.
##/2530.
##/2767.
##/2768.
##/2899.
##/2911.
##/3047.
##/3238.
##/3496.
##/3564.
##/3667.
##/3864.
##/3885.
##/3983.
##/4142.
##/4191.
##/4251.
##/4402.
##/4450.
##/4568.
##/5070.
##/5115.
##/5264.
##/5328.
##/5329.
##/5639.
##/5768.
##/5771.
##/6038.
##/6060.
##/6116.
##/6148.
##/6382.
##/6384.
##/6711.
##/6841.
##/6922.
##/6932.
##/7197.
##/7280.
##/7352.
##/7401.
##/7489.
3.16,
luồng
nhong
trinh
1.954,
3.828,
1.4125,
3.6805,
2.18175,
2.31425,
2.33075,
2.35475,
2.36225,
2.36275,
2.37875,
2.38025,
2.39925,
2.43725,
2.45475,
2.45725,
##bù
##sư
##xử
##dài
##hòn
##phổ
##phủ
##say
##tao
bẩm
lay
##/108.
##/115.
##/175.
##/212.
##/448.
##/605.
##/669.
##/703.
##/710.
##/924.
##/948.
##/962.
##1825,
##thiệt
diệm
đanh
##/1007.
##/1081.
##/1229.
##/1606.
##/1771.
##/1942.
##/1968.
##/2253.
##/2460.
##/2498.
##/2753.
##/2797.
##/3067.
##/3086.
##/3119.
##/3253.
##/3262.
##/3293.
##/3504.
##/3538.
##/3583.
##/3831.
##/3882.
##/3929.
##/4045.
##/4111.
##/4200.
##/4271.
##/4381.
##/4909.
##/5025.
##/5183.
##/5246.
##/5266.
##/5273.
##/5370.
##/5477.
##/5634.
##/5870.
##/6019.
##/6560.
##/6640.
##/6667.
##/6688.
##/6724.
##/6730.
##/6745.
##/6813.
##/6920.
##/6955.
##/7001.
##/7168.
##/7190.
##/7273.
3.36,
chiêm
1.7475,
1.81875,
2.45925,
2.46025,
2.47625,
2.47925,
2.48075,
2.51675,
2.51875,
2.51925,
2.51975,
2.52075,
2.53575,
2.53975,
2.54175,
2.55675,
2.58075,
##cổ
##da
##hổ
##lệ
##cơn
##vết
kí
mủ
nô
sờ
sứ
té
đệ
##/52.
##biện
##khảo
##nhàn
##xanh
kín
mài
rêu
##/140.
##/235.
##/246.
##/814.
##/865.
##/943.
##quỳnh
chay
ghen
nuối
xình
##/1051.
##/1337.
##/1423.
##/1662.
##/1715.
##/1716.
##/1765.
##/1786.
##/1846.
##/1906.
##/1932.
##/2269.
##/2610.
##/2693.
##/2775.
##/3030.
##/3042.
##/3109.
##/3156.
##/3160.
##/3327.
##/3344.
##/3354.
##/3529.
##/3574.
##/3576.
##/3613.
##/3680.
##/3753.
##/4316.
##/4404.
##/4514.
##/4903.
##/4980.
##/5181.
##/5211.
##/5280.
##/5323.
##/5413.
##/5509.
##/5583.
##/5955.
##/5992.
##/6147.
##/6263.
##/6398.
##/6414.
##/6631.
##/6742.
##/6746.
##/6870.
##/6873.
##/6975.
##/7006.
##/7040.
##/7055.
##/7182.
##/7292.
##83125,
2.2525,
1.49525,
2.63825,
2.67775,
2.68075,
2.71625,
2.71825,
2.73875,
2.74025,
##cụ
##vụ
##rầm
kè
vo
##lược
##nhầm
##thần
##vàng
côn
cúc
dưa
gao
kẹt
mầm
nôn
nọc
rền
vần
##/136.
##/231.
##/353.
##/361.
##/370.
##/501.
##/611.
##/618.
##/845.
##/937.
##6675,
##tuyên
bong
siết
##/1006.
##/1049.
##/1459.
##/1471.
##/1499.
##/1536.
##/1691.
##/1815.
##/1860.
##/1975.
##/2027.
##/2099.
##/2551.
##/2868.
##/2973.
##/3143.
##/3436.
##/3612.
##/3723.
##/3844.
##/3871.
##/3965.
##/3991.
##/4006.
##/4106.
##/4210.
##/4220.
##/4340.
##/4540.
##/4748.
##/4950.
##/5048.
##/5222.
##/5240.
##/5272.
##/5387.
##/5476.
##/5514.
##/5661.
##/5743.
##/5839.
##/6218.
##/6246.
##/6251.
##/6271.
##/6284.
##/6292.
##/6510.
##/6563.
##/6692.
##/6700.
##/7020.
##/7137.
##thuyên
##895625,
1.716,
2.8205,
2.8575,
3.1205,
1.36675,
2.74175,
2.77125,
2.82025,
2.83475,
2.84125,
2.85975,
2.88275,
##dễ
##hỗ
##tờ
##vũ
##huy
##hỗn
##khả
##tùy
##đen
ni
vơ
xo
##đọng
han
hờn
xoa
##/228.
##/272.
##/290.
##/558.
##/583.
##/613.
##/959.
##nhiệt
1.20
3.3,
lúng
##/1034.
##/1079.
##/1173.
##/1484.
##/1556.
##/1568.
##/1577.
##/1632.
##/1642.
##/1867.
##/1957.
##/2016.
##/2113.
##/2215.
##/2568.
##/2689.
##/2740.
##/2773.
##/2803.
##/2842.
##/3053.
##/3269.
##/3403.
##/3540.
##/3711.
##/3712.
##/3841.
##/3858.
##/3860.
##/3904.
##/4049.
##/4067.
##/4298.
##/4495.
##/4564.
##/4847.
##/5349.
##/5473.
##/5557.
##/5577.
##/5582.
##/5590.
##/5692.
##/5721.
##/5858.
##/6092.
##/6125.
##/6150.
##/6237.
##/6280.
##/6289.
##/6319.
##/6411.
##/6495.
##/6857.
##/6900.
##/7089.
##/7145.
##/7305.
##/7322.
1.790
1.207,
2.68025,
2.90075,
2.90275,
2.91675,
2.96025,
2.98025,
3.04175,
3.05975,
3.06075,
3.09625,
3.10025,
##ìa
##chí
##dây
##rời
##sâu
hư
đò
##/46.
##dược
##rừng
ken
trệ
##/152.
##/304.
##/306.
##/445.
##/478.
##/499.
##/511.
##/567.
##/645.
##/660.
##/753.
##/960.
##xương
chìa
gàng
lưỡi
tiêm
##/1041.
##/1186.
##/1312.
##/1315.
##/1638.
##/1751.
##/1872.
##/2107.
##/2275.
##/2302.
##/2343.
##/2448.
##/2772.
##/3103.
##/3301.
##/3308.
##/3507.
##/3519.
##/3870.
##/3896.
##/3911.
##/4051.
##/4055.
##/4165.
##/4257.
##/4749.
##/4764.
##/4916.
##/5037.
##/5051.
##/5234.
##/5284.
##/5335.
##/5442.
##/5528.
##/5612.
##/5614.
##/5793.
##/5860.
##/5973.
##/6101.
##/6183.
##/6350.
##/6599.
##/6642.
##/6665.
##/6756.
##/6780.
##/6794.
##/6861.
##/6908.
##/6940.
##/7175.
##/7428.
1.739
1.846
3.66,
chiêu
khổng
ngông
0.949,
3.13425,
3.14125,
3.15825,
3.19625,
3.20175,
3.22175,
3.26225,
3.30025,
3.34275,
3.37025,
##cá
##dụ
##vi
##/1.
##/6.
##hẹp
##mùa
dĩ
hò
lợ
##885,
##sang
dẹt
lợm
phơ
thò
##/158.
##/295.
##/425.
##/438.
##/538.
##/560.
##/581.
##/599.
##/683.
##/713.
##/919.
huân
ngải
nhàn
##/1060.
##/1440.
##/1445.
##/1544.
##/1766.
##/1804.
##/2063.
##/2079.
##/2223.
##/2346.
##/2397.
##/2469.
##/2564.
##/2678.
##/2798.
##/2833.
##/2909.
##/2967.
##/3049.
##/3105.
##/3598.
##/3599.
##/3802.
##/3873.
##/3881.
##/4037.
##/4127.
##/4299.
##/4363.
##/4439.
##/4535.
##/4574.
##/4594.
##/4853.
##/4855.
##/5004.
##/5062.
##/5289.
##/5362.
##/5681.
##/5738.
##/5792.
##/5886.
##/5919.
##/5929.
##/5947.
##/5999.
##/6293.
##/6593.
##/6604.
##/6891.
##/6895.
##/6963.
##/7041.
##/7215.
##/7341.
##/7346.
##/7469.
##31375,
##890625,
1.8885,
3.39825,
3.40225,
3.40275,
3.42125,
3.43025,
3.44175,
3.47325,
3.47975,
3.49825,
##mổ
##mỹ
##ừu
##chở
##sực
bẽ
cò
tễ
##/81.
##/83.
##/93.
##/95.
##hóng
bốn
cừu
hái
rán
rợp
uất
víu
đun
##/154.
##/268.
##/345.
##/463.
##/545.
##/699.
##/741.
##/751.
##/805.
##/917.
ngộp
tễnh
##/1096.
##/1158.
##/1196.
##/1291.
##/1637.
##/1672.
##/1741.
##/1862.
##/1908.
##/2299.
##/2643.
##/2645.
##/2972.
##/3090.
##/3214.
##/3271.
##/3312.
##/3329.
##/3804.
##/3820.
##/3913.
##/4069.
##/4266.
##/4351.
##/4473.
##/4510.
##/4511.
##/4589.
##/4611.
##/4860.
##/5336.
##/5469.
##/5501.
##/5529.
##/5563.
##/5872.
##/5897.
##/6153.
##/6548.
##/6552.
##/6569.
##/6755.
##/6830.
##/7097.
##/7148.
##/7185.
##/7381.
##/7456.
##18125,
##52875,
1.679
khiết
2.218,
2.291,
3.279,
3.9815,
3.08125,
3.50125,
3.52075,
3.54125,
3.54275,
3.70125,
3.71825,
3.72225,
3.74225,
3.76075,
3.76125,
##gà
##vệ
##độ
##quê
ủa
##/17.
##/21.
##/51.
##/67.
gai
rôm
ven
vía
##/113.
##/242.
##/255.
##/593.
##/625.
##/761.
##/766.
##/818.
##/969.
nhạo
phao
##/1056.
##/1071.
##/1133.
##/1192.
##/1374.
##/1456.
##/1616.
##/1663.
##/1748.
##/1757.
##/1788.
##/1961.
##/2044.
##/2692.
##/2748.
##/2825.
##/2855.
##/2877.
##/2881.
##/3347.
##/3385.
##/3476.
##/3563.
##/3614.
##/3666.
##/3694.
##/3861.
##/3939.
##/4120.
##/4195.
##/4310.
##/4315.
##/4321.
##/4385.
##/4566.
##/4619.
##/4735.
##/4998.
##/5203.
##/5770.
##/5961.
##/5980.
##/6028.
##/6075.
##/6203.
##/6235.
##/6347.
##/6464.
##/6493.
##/6533.
##/6864.
##/6867.
##/7081.
##/7129.
##/7347.
##/7494.
3.839
2.097,
2.101,
2.71875,
3.86125,
3.88175,
3.92175,
3.94275,
4.00225,
4.08075,
4.14075,
4.25675,
4.28075,
4.35575,
4.46175,
4.50275,
4.56075,
4.68125,
5.42175,
5.46075,
##kẻ
##khí
##ngô
##ngũ
##đảo
tở
ếm
##/87.
##dũng
##khối
##tiễn
##tuần
gắt
nhả
tấu
tởm
vạt
xui
##/249.
##/257.
##/408.
##/457.
##/577.
##/813.
##/951.
##5875,
khuê
nhện
##/1030.
##/1036.
##/1094.
##/1241.
##/1352.
##/1366.
##/1460.
##/1492.
##/1505.
##/1535.
##/1644.
##/1755.
##/1875.
##/1876.
##/2014.
##/2112.
##/2164.
##/2235.
##/2314.
##/2354.
##/2553.
##/2577.
##/2633.
##/2790.
##/2827.
##/2873.
##/2874.
##/2945.
##/3010.
##/3318.
##/3557.
##/3646.
##/3955.
##/4053.
##/4183.
##/4318.
##/4364.
##/4397.
##/4481.
##/4541.
##/4627.
##/4660.
##/4751.
##/4757.
##/4934.
##/4958.
##/5023.
##/5355.
##/5396.
##/5581.
##/5678.
##/5758.
##/5954.
##/6145.
##/6213.
##/6360.
##/6558.
##/6767.
##/6838.
##/6999.
##/7042.
##/7113.
##/7165.
##/7265.
##32375,
1.839
phàng
1.83925,
2.17925,
3.11425,
6.19425,
1.014375,
##mỡ
##sĩ
##đả
##ễu
##ọp
##son
##/31.
##giấc
##khái
##trôi
bít
bủa
cọp
thô
##/114.
##/179.
##/232.
##/321.
##/475.
##/508.
##/517.
##/555.
##/670.
##/739.
##/800.
##/866.
##/955.
0.80
bưng
liễu
luồn
truy
##/1089.
##/1157.
##/1253.
##/1516.
##/1864.
##/1928.
##/2009.
##/2342.
##/2631.
##/2670.
##/2756.
##/2886.
##/2990.
##/3031.
##/3034.
##/3080.
##/3121.
##/3192.
##/3401.
##/3645.
##/3655.
##/3668.
##/3671.
##/3706.
##/3724.
##/3776.
##/4017.
##/4038.
##/4598.
##/4656.
##/4893.
##/5102.
##/5182.
##/5200.
##/5206.
##/5539.
##/5556.
##/5665.
##/5670.
##/5718.
##/5850.
##/5985.
##/6001.
##/6129.
##/6248.
##/6743.
##/6921.
##/6962.
##/7021.
##/7070.
##/7324.
##/7397.
1.999
2.798
2.419,
0.8055,
3.4425,
1.052375,
1.145625,
1.189625,
1.192875,
1.193375,
1.194125,
1.235125,
1.255375,
1.269875,
1.292875,
1.335625,
##ca
##kệ
##õn
##đô
##bọc
##cãi
##tra
ve
##/20.
##lùng
##nghệ
bến
dẫu
hân
nõn
##/102.
##/107.
##/117.
##/298.
##/480.
##/512.
##/596.
##/628.
##/944.
trằn
##/1011.
##/1092.
##/1342.
##/1543.
##/1675.
##/1681.
##/1732.
##/1963.
##/2704.
##/2732.
##/2794.
##/2948.
##/3064.
##/3182.
##/3391.
##/3740.
##/3742.
##/3778.
##/3788.
##/3898.
##/3912.
##/4137.
##/4208.
##/4521.
##/4676.
##/4747.
##/4864.
##/4869.
##/5041.
##/5057.
##/5075.
##/5157.
##/5168.
##/5173.
##/5342.
##/5452.
##/5547.
##/5663.
##/5668.
##/5688.
##/5695.
##/5711.
##/5735.
##/5753.
##/5776.
##/5851.
##/5871.
##/5982.
##/6024.
##/6222.
##/6245.
##/6268.
##/6345.
##/6551.
##/6751.
##/6851.
##/6948.
##/6965.
##/7152.
##/7192.
##/7394.
2.329
2.2955,
1.81675,
2.12825,
3.02075,
1.352625,
1.373875,
1.374875,
1.391375,
1.391625,
1.413625,
1.446625,
1.447875,
1.454875,
##cư
##ịn
ả
##cán
##non
##nội
##phù
##thử
tể
##/12.
cua
hớn
khế
lạt
mịn
##/300.
##/393.
##/401.
##/614.
##/654.
##/687.
##/729.
##/848.
##/869.
##/870.
##/894.
nhạn
rưỡi
thắm
##/1042.
##/1127.
##/1141.
##/1167.
##/1412.
##/1550.
##/2040.
##/2157.
##/2267.
##/2276.
##/2446.
##/2511.
##/2521.
##/2540.
##/2582.
##/2840.
##/2957.
##/3171.
##/3243.
##/3304.
##/3593.
##/3596.
##/3664.
##/3716.
##/3747.
##/3754.
##/4048.
##/4182.
##/4204.
##/4274.
##/4341.
##/4509.
##/4750.
##/4775.
##/4786.
##/4811.
##/4902.
##/5372.
##/5426.
##/5646.
##/5816.
##/5852.
##/5869.
##/6066.
##/6097.
##/6219.
##/6240.
##/6281.
##/6349.
##/6373.
##/6535.
##/6583.
##/6606.
##/6677.
##/6693.
##/6840.
##/6863.
##/6951.
##96625,
2.249
2.253
2.318,
1.456875,
1.471875,
1.473875,
1.476625,
1.494625,
1.495625,
1.510375,
1.511875,
1.513125,
o
##/5.
##dạy
##tấn
bá
bẻ
##/56.
##/90.
##thơm
##đảng
cạm
mải
nhũ
rải
tan
đần
##/319.
##/326.
##/359.
##/365.
##/464.
##/574.
##/594.
##/689.
##/756.
##/846.
##/922.
##/954.
##/964.
6.17
oanh
##/1040.
##/1211.
##/1322.
##/1356.
##/1558.
##/1564.
##/1671.
##/1814.
##/1937.
##/1985.
##/2242.
##/2251.
##/2357.
##/2368.
##/2449.
##/2552.
##/2664.
##/2822.
##/2998.
##/3236.
##/3267.
##/3296.
##/3305.
##/3359.
##/3752.
##/3875.
##/3963.
##/4021.
##/4145.
##/4206.
##/4360.
##/4601.
##/4654.
##/4725.
##/4755.
##/4767.
##/4819.
##/4966.
##/5134.
##/5261.
##/5333.
##/5423.
##/5449.
##/5699.
##/5817.
##/6023.
##/7063.
##/7068.
##/7331.
##/7377.
##/7458.
2.259
##986875,
1.534,
choáng
1.5545,
2.85625,
1.535625,
1.542375,
1.556875,
1.558375,
1.562375,
1.576875,
1.579625,
1.590625,
1.594375,
1.596875,
1.607625,
1.611625,
##hỡ
##căn
##hỡi
##ngã
##ngộ
##tái
mỡ
tạ
tỉ
##khen
bột
hươ
rủa
the
xen
##/197.
##/217.
##/252.
##/402.
##/404.
##/413.
##/420.
##/441.
##/518.
##/659.
##/887.
##/927.
##/961.
##/975.
chao
hươu
lanh
mượn
quắt
##/1002.
##/1515.
##/1764.
##/1840.
##/2029.
##/2032.
##/2124.
##/2248.
##/2315.
##/2333.
##/2783.
##/2903.
##/2928.
##/2941.
##/2966.
##/2971.
##/3070.
##/3186.
##/3209.
##/3362.
##/3644.
##/3863.
##/3950.
##/4205.
##/4561.
##/4718.
##/5053.
##/5118.
##/5262.
##/5270.
##/5319.
##/5343.
##/5414.
##/5420.
##/5466.
##/5674.
##/5715.
##/5808.
##/5915.
##/6168.
##/6269.
##/6370.
##/6547.
##/6588.
##/6806.
##/6953.
##/7060.
##/7067.
##/7141.
##/7193.
##nghiện
2.489
1.5965,
4.3215,
2.22075,
2.71075,
1.620625,
1.631125,
1.639125,
1.653375,
1.672375,
1.672625,
1.679875,
1.690125,
1.700375,
1.710125,
##nho
##nhé
lô
mí
mũ
tỷ
đả
##/92.
##khăn
##linh
##nghỉ
##quán
##quằn
##sững
##thản
gột
lân
mím
mặn
quỷ
##/254.
##/267.
##/284.
##/356.
##/491.
##/681.
##/711.
##/737.
##/853.
2.19
cảng
hoạn
luân
phẫn
sình
##/1055.
##/1142.
##/1275.
##/1284.
##/1298.
##/1526.
##/1699.
##/2047.
##/2146.
##/2183.
##/2319.
##/2364.
##/2560.
##/2585.
##/2795.
##/2854.
##/3107.
##/3311.
##/3365.
##/3377.
##/3458.
##/3481.
##/3793.
##/3953.
##/3989.
##/4352.
##/4812.
##/4889.
##/5047.
##/5154.
##/5163.
##/5318.
##/5576.
##/5578.
##/5863.
##/5951.
##/5979.
##/6178.
##/6355.
##/6782.
##/6812.
##/6854.
##/6918.
##/6964.
##/7079.
##/7123.
##/7270.
##/7349.
3.902
xương
##103125,
nghiện
1.4705,
2.19425,
2.89875,
2.93125,
1.714875,
1.718875,
1.719375,
1.732875,
1.739625,
1.750375,
1.752875,
1.757625,
1.759625,
##vỡ
##/2.
##nối
##phì
lơ
lọ
mờ
đỗ
##/11.
##/23.
##975,
mon
##/338.
##/400.
##/423.
##/449.
##/469.
##/519.
##/585.
##/677.
##/680.
##/734.
##/874.
##/915.
cang
quặp
riết
##/1013.
##/1043.
##/1301.
##/1328.
##/1354.
##/1601.
##/1787.
##/1839.
##/1899.
##/1996.
##/2035.
##/2363.
##/2673.
##/2750.
##/2856.
##/2963.
##/3052.
##/3060.
##/3443.
##/3466.
##/3669.
##/3903.
##/3941.
##/4129.
##/4160.
##/4189.
##/4425.
##/4490.
##/4670.
##/4823.
##/4883.
##/5150.
##/5175.
##/5347.
##/5365.
##/5367.
##/5439.
##/5545.
##/6041.
##/6225.
##/6365.
##/6587.
##/6897.
##/6931.
##/7003.
##/7169.
##/7259.
##/7261.
##/7315.
##/7325.
##/7364.
##/7379.
##/7464.
triệt
##300625,
##5008125,
2.4975,
1.653625,
1.760125,
1.792875,
1.794125,
1.797625,
1.816375,
1.835875,
1.837125,
1.837875,
1.858625,
1.866375,
1.874125,
1.875625,
1.875875,
1.879125,
1.880125,
##sai
bê
bì
bõ
##/69.
##kiên
cấn
dán
nhó
nhẽ
san
thớ
trá
vịn
##/211.
##/334.
##/468.
##/504.
##/556.
##/561.
##/582.
##/592.
##/636.
##/646.
##/708.
##/791.
##/842.
##/932.
tanh
tòng
##/1190.
##/1200.
##/1392.
##/1539.
##/1635.
##/1873.
##/2674.
##/2818.
##/2892.
##/3028.
##/3040.
##/3131.
##/3197.
##/3256.
##/3294.
##/3745.
##/4002.
##/4135.
##/4141.
##/4146.
##/4314.
##/4329.
##/4403.
##/4479.
##/4546.
##/4731.
##/4756.
##/4772.
##/5114.
##/5369.
##/5381.
##/5386.
##/5626.
##/5658.
##/5747.
##/5926.
##/5994.
##/6161.
##/6181.
##/6253.
##/6364.
##/6426.
##/6435.
##/6506.
##/6537.
##/6702.
##/6883.
##/6944.
##/7046.
##/7076.
##/7172.
##/7231.
##/7366.
##ngưỡng
2.791
chừng
1.7955,
2.01875,
1.394625,
1.587875,
1.894125,
1.899125,
1.907625,
1.915875,
1.916875,
1.935875,
1.936375,
1.939875,
1.940125,
1.940375,
##mập
nộ
##/16.
##/77.
bứt
húp
mơn
rắc
túc
##/189.
##/310.
##/340.
##/520.
##/665.
##/722.
##/828.
##/851.
##/860.
##thiện
3.1,
hiếm
ngao
nhặt
viền
vong
##/1033.
##/1152.
##/1226.
##/1357.
##/1363.
##/1381.
##/1409.
##/1490.
##/1493.
##/1502.
##/1790.
##/1902.
##/1960.
##/1966.
##/2012.
##/2175.
##/2352.
##/2473.
##/2647.
##/2690.
##/2739.
##/2838.
##/2951.
##/2991.
##/3140.
##/3159.
##/3251.
##/3328.
##/3413.
##/3618.
##/4355.
##/4383.
##/4668.
##/4730.
##/4815.
##/5065.
##/5088.
##/5124.
##/5366.
##/5624.
##/5669.
##/5779.
##/5806.
##/5943.
##/5958.
##/6049.
##/6102.
##/6216.
##/6401.
##/6538.
##/6655.
##/6658.
##/6836.
##/7051.
##/7103.
##/7107.
##/7110.
##/7151.
1.435
thoạt
2.321,
2.435,
2.801,
2.6195,
3.18125,
3.62075,
1.956375,
1.957875,
1.960875,
1.976875,
1.995125,
2.001125,
2.007375,
2.012875,
2.014875,
##đá
ờ
##/0.
##gìn
##tục
ưa
##trải
##trầm
##tung
cậy
rắn
tụy
vắc
##/147.
##/200.
##/286.
##/362.
##/383.
##/506.
##/532.
##/706.
##/984.
giam
thổn
tằng
##/1164.
##/1197.
##/1254.
##/1282.
##/1351.
##/1430.
##/1514.
##/1666.
##/1745.
##/1885.
##/2028.
##/2034.
##/2097.
##/2160.
##/2210.
##/2252.
##/2264.
##/2306.
##/2365.
##/2467.
##/2559.
##/2925.
##/3003.
##/3007.
##/3065.
##/3199.
##/3248.
##/3274.
##/3345.
##/3375.
##/3461.
##/3572.
##/3744.
##/3818.
##/3824.
##/3880.
##/3962.
##/4259.
##/4485.
##/4512.
##/4545.
##/4556.
##/4571.
##/4666.
##/4829.
##/5043.
##/5052.
##/5180.
##/5761.
##/5798.
##/5891.
##/6085.
##/6276.
##/6594.
##/6738.
##/6926.
##/7077.
##/7266.
##/7342.
##/7429.
##/7470.
##/7493.
1.695,
3.561,
4.6815,
1.23625,
2.33375,
2.71775,
1.276625,
1.939375,
2.016125,
2.027625,
2.035125,
2.036375,
2.040625,
##bầu
##càn
##cải
##dầu
##gạt
##hàn
##/75.
##/89.
##chăn
##chậu
##hồng
##lồng
##ngầu
##nhăn
##ninh
##trăn
##đùng
dời
lăn
nêu
sắm
##/168.
##/190.
##/230.
##/378.
##/540.
##/642.
##/697.
##/838.
##/940.
##/946.
##chuột
##chống
##tường
chấn
mùng
ngẩn
nhục
rồng
thóc
điêu
##/1017.
##/1037.
##/1063.
##/1227.
##/1344.
##/1781.
##/1901.
##/2084.
##/2189.
##/2277.
##/2517.
##/2728.
##/2869.
##/2944.
##/3077.
##/3141.
##/3368.
##/3475.
##/3617.
##/3843.
##/3960.
##/3981.
##/4391.
##/4550.
##/4559.
##/4616.
##/4715.
##/4891.
##/4967.
##/5003.
##/5256.
##/5548.
##/5645.
##/5730.
##/5746.
##/5778.
##/5906.
##/6110.
##/6140.
##/6241.
##/6372.
##/6540.
##/6651.
##/6654.
##/6741.
##/6821.
##/7037.
##/7252.
##/7361.
##/7415.
##/7455.
nghêu
thùng
1.1545,
3.36275,
2.051625,
2.056875,
2.071625,
2.078875,
##bơi
##cắt
##vữa
##chữa
##kính
##luật
##lính
##quản
##tiến
hoi
háo
hấn
hức
mốc
sút
túm
tỏi
vơi
##/342.
##/466.
##/467.
##/487.
##/637.
##/714.
##/885.
##/945.
cháo
chỉn
hoay
muôn
thẫn
vênh
##/1135.
##/1415.
##/1420.
##/1688.
##/1712.
##/1746.
##/1836.
##/1958.
##/2122.
##/2135.
##/2149.
##/2245.
##/2262.
##/2510.
##/2535.
##/2544.
##/2548.
##/2627.
##/2676.
##/2705.
##/2821.
##/2837.
##/3026.
##/3176.
##/3263.
##/3474.
##/3544.
##/3546.
##/3726.
##/3750.
##/3760.
##/4004.
##/4105.
##/4140.
##/4234.
##/4276.
##/4288.
##/4740.
##/4876.
##/5049.
##/5324.
##/5330.
##/5348.
##/5834.
##/5893.
##/6131.
##/6191.
##/6243.
##/6557.
##/6579.
##/6653.
##/6670.
##/6720.
##/6998.
##/7126.
##/7368.
hoành
huyện
phính
phăng
thung
2.162,
2.962,
2.089875,
2.094125,
2.116625,
2.117375,
2.120375,
##bin
##bối
##cối
##hôn
##hận
##nát
##rối
##tội
##/55.
##chối
##khát
##liền
##phối
##ranh
##thôn
dội
nát
đềm
##/188.
##/202.
##/403.
##/433.
##/459.
##/668.
##/672.
##/808.
##/933.
##/938.
##/958.
##/972.
3.31
chát
##/1058.
##/1070.
##/1118.
##/1151.
##/1210.
##/1348.
##/1364.
##/1626.
##/1656.
##/1880.
##/1950.
##/1952.
##/1953.
##/2051.
##/2144.
##/2232.
##/2391.
##/2461.
##/2695.
##/2746.
##/2759.
##/2789.
##/2835.
##/3136.
##/3154.
##/3166.
##/3399.
##/3514.
##/3558.
##/3869.
##/3916.
##/4334.
##/4477.
##/4695.
##/4703.
##/4787.
##/4845.
##/4927.
##/4964.
##/5055.
##/5190.
##/5368.
##/5430.
##/5574.
##/5709.
##/5867.
##/5936.
##/5941.
##/6078.
##/6138.
##/6236.
##/6304.
##/6592.
##/6842.
##/6885.
##/7186.
chênh
muỗng
nghìn
phanh
1.778,
3.316,
1.63825,
3.33125,
1.958625,
2.122125,
2.129125,
2.130375,
##kỹ
##hữu
##lâm
##lét
##nền
##/58.
##cộng
##nhặt
##ráng
##trâm
căm
mâm
nan
sâm
xăm
đăm
##/127.
##/161.
##/182.
##/240.
##/620.
##/626.
##/763.
##5925,
##kháng
láng
ngặt
##/1110.
##/1306.
##/1563.
##/1649.
##/1652.
##/1878.
##/1886.
##/1922.
##/1936.
##/1954.
##/1983.
##/2104.
##/2141.
##/2166.
##/2381.
##/2431.
##/2516.
##/2649.
##/2680.
##/2845.
##/2950.
##/3179.
##/3245.
##/3343.
##/3350.
##/3400.
##/3498.
##/3984.
##/4123.
##/4354.
##/4563.
##/4588.
##/4665.
##/4760.
##/5009.
##/5015.
##/5123.
##/5141.
##/5361.
##/5640.
##/5664.
##/6230.
##/6265.
##/6327.
##/6448.
##/6465.
##/6524.
##/6617.
##/6618.
##/6744.
##/6855.
##/7044.
##/7048.
##/7099.
##/7114.
##39125,
2.139
2.859
khuây
1.4335,
3.5015,
2.05925,
2.09175,
3.20125,
2.132375,
2.134875,
2.140625,
2.152375,
2.154875,
2.195375,
2.195875,
2.198875,
2.200875,
##tóc
##cọng
##hiền
##miền
##thổi
##trỗi
cỗi
hổi
ngộ
tám
đặn
đỗi
##/329.
##/337.
##/454.
##/570.
##/685.
##/686.
##/715.
##/790.
##/821.
##/942.
##khung
3.51
biền
lung
phổi
tung
vung
xích
điền
##/1155.
##/1159.
##/1349.
##/1485.
##/1566.
##/1701.
##/1743.
##/1797.
##/1841.
##/1845.
##/1934.
##/1964.
##/2015.
##/2020.
##/2050.
##/2355.
##/2456.
##/2600.
##/2702.
##/2706.
##/2708.
##/3045.
##/3331.
##/3525.
##/3549.
##/3701.
##/3757.
##/3915.
##/4551.
##/4647.
##/4797.
##/4912.
##/4945.
##/5085.
##/5152.
##/5350.
##/5432.
##/5541.
##/5638.
##/5845.
##/5917.
##/5924.
##/6052.
##/6081.
##/6118.
##/6311.
##/6314.
##/6377.
##/6529.
##/6725.
##/6740.
##/6785.
##/6837.
##/6848.
##/6865.
##/6894.
##/6960.
##/7147.
1.834
3.48,
1.19425,
1.27275,
1.65125,
1.69375,
1.83675,
2.42075,
2.137375,
2.213625,
2.236375,
##hậu
##trò
##đập
##bánh
##căng
##cạnh
##gánh
##găng
##hăng
##hứng
##lăng
##lạnh
##rộng
##tăng
##xinh
##xứng
##đắng
bám
dãi
dập
dừa
rập
tảo
xập
##/112.
##/146.
##/167.
##/219.
##/627.
##/657.
##thăng
chảo
chập
lăng
măng
nhậu
thập
##/1045.
##/1062.
##/1218.
##/1651.
##/1669.
##/1821.
##/1998.
##/2008.
##/2039.
##/2081.
##/2101.
##/2152.
##/2329.
##/2398.
##/2637.
##/2724.
##/2726.
##/2754.
##/2943.
##/3172.
##/3195.
##/3322.
##/3517.
##/3973.
##/4153.
##/4170.
##/4369.
##/4621.
##/4672.
##/4761.
##/4897.
##/5016.
##/5164.
##/5216.
##/5244.
##/5537.
##/5700.
##/5750.
##/5752.
##/6051.
##/6167.
##/6226.
##/6652.
##/6659.
##/6810.
##/6917.
##/7400.
##/7413.
chánh
ngạnh
nhánh
trứng
2.536,
1.41525,
2.50125,
2.237125,
2.238875,
2.239125,
2.239625,
2.249875,
2.250375,
2.256125,
2.260625,
##mồ
##kèm
##lái
##đốt
sục
đôn
đốt
đục
##/116.
##/119.
##/125.
##/150.
##/210.
##/213.
##/214.
##/215.
##/216.
##/218.
##/226.
##/245.
##/302.
##/311.
##/312.
##/314.
##/315.
##/316.
##/317.
##/318.
##/410.
##/411.
##/415.
##/416.
##/417.
##/418.
##/419.
##/431.
##/435.
##/440.
##/513.
##/515.
##/516.
##/610.
##/615.
##/616.
##/619.
##/634.
##/674.
##/694.
##/913.
##chừng
bừng
cọng
khục
vừng
điệp
##/1012.
##/1243.
##/1262.
##/1365.
##/1382.
##/2179.
##/2254.
##/2288.
##/2378.
##/2646.
##/2930.
##/3553.
##/3830.
##/3928.
##/4294.
##/4648.
##/4667.
##/4854.
##/4957.
##/5193.
##/5279.
##/5526.
##/5571.
##/5656.
##/5856.
##/5864.
##/6249.
##/6346.
##/6544.
##/6858.
##/6899.
##/6935.
##/6945.
##/6976.
##/7065.
nguyền
##6905625,
1.53525,
2.269875,
2.281125,
2.290625,
2.292875,
2.298125,
2.299875,
2.310875,
##cóc
##gắn
##keo
##vai
##đào
am
lự
##/13.
##/94.
##/96.
##/97.
##/99.
##bách
bào
dìm
dấn
lõi
reo
sào
ván
ách
##/130.
##/131.
##/132.
##/198.
##/227.
##/280.
##/541.
##/553.
##/712.
##/716.
##/717.
##/719.
hoán
huấn
ngán
tách
táng
đênh
##/1099.
##/1102.
##/1194.
##/1513.
##/1665.
##/1803.
##/1861.
##/2072.
##/2133.
##/2413.
##/2488.
##/2580.
##/2593.
##/2723.
##/2841.
##/2910.
##/2942.
##/2960.
##/3084.
##/3284.
##/3310.
##/3451.
##/3686.
##/3857.
##/4064.
##/4193.
##/4342.
##/4553.
##/4744.
##/4973.
##/5100.
##/5109.
##/5110.
##/5129.
##/5584.
##/5694.
##/5911.
##/6013.
##/6076.
##/6170.
##/6223.
##/6286.
##/6301.
##/6342.
##/6581.
##/6590.
##/6647.
##/6731.
##/6843.
##/7154.
##/7244.
##/7269.
2.599
thoái
2.9585,
2.25625,
1.895875,
2.316375,
2.316625,
2.333375,
2.334625,
##/62.
lẩn
rạo
##/133.
##/135.
##/137.
##/138.
##/139.
##/170.
##/171.
##/172.
##/173.
##/174.
##/176.
##/177.
##/178.
##/192.
##/194.
##/195.
##/199.
##/234.
##/236.
##/237.
##/238.
##/271.
##/273.
##/275.
##/276.
##/277.
##/278.
##/279.
##/291.
##/293.
##/297.
##/299.
##/330.
##/331.
##/335.
##/336.
##/339.
##/343.
##/355.
##/372.
##/375.
##/376.
##/490.
##/509.
##/537.
##/622.
##/647.
##/662.
##/679.
##/752.
##/815.
##/912.
##/985.
##/1054.
##/1202.
##/1205.
##/1343.
##/1660.
##/1783.
##/2274.
##/2360.
##/2501.
##/2661.
##/2762.
##/3018.
##/3025.
##/3066.
##/3153.
##/3467.
##/3545.
##/3771.
##/4143.
##/4634.
##/4850.
##/5135.
##/5161.
##/5208.
##/5252.
##/5558.
##/5916.
##/6035.
##/6067.
##/6498.
##/6561.
##/6763.
##/6927.
##/7014.
##/7128.
##/7179.
##/7224.
mường
1.938,
1.2145,
1.9535,
1.819375,
2.335125,
2.355375,
lồ
##/26.
##/33.
##vĩnh
tẩy
##/239.
##/259.
##/377.
##/379.
##/390.
##/391.
##/392.
##/394.
##/395.
##/396.
##/397.
##/398.
##/430.
##/434.
##/437.
##/439.
##/470.
##/471.
##/472.
##/473.
##/476.
##/477.
##/495.
##/496.
##/497.
##/529.
##/530.
##/531.
##/533.
##/534.
##/539.
##/571.
##/572.
##/573.
##/575.
##/576.
##/578.
##/579.
##/590.
##/631.
##/664.
##/939.
##thùng
##/1267.
##/1295.
##/1327.
##/1455.
##/1726.
##/1925.
##/2045.
##/2185.
##/2257.
##/2258.
##/2321.
##/2350.
##/2399.
##/2541.
##/2606.
##/2791.
##/3144.
##/3149.
##/3223.
##/3370.
##/3657.
##/3710.
##/3762.
##/3943.
##/4098.
##/4199.
##/4336.
##/4346.
##/4537.
##/4639.
##/4690.
##/4759.
##/4773.
##/4851.
##/5552.
##/5585.
##/5652.
##/5831.
##/6094.
##/6247.
##/6273.
##/6351.
##/6636.
##/7096.
##/7485.
2.358,
2.44025,
1.756125,
2.218625,
2.356875,
2.358875,
2.377625,
##nửa
##sếp
##ngửa
máo
xáo
xửa
##/143.
##/151.
##/153.
##/155.
##/156.
##/157.
##/159.
##/165.
##/180.
##/250.
##/251.
##/256.
##/258.
##/313.
##/350.
##/351.
##/386.
##/399.
##/595.
##/632.
##/635.
##/650.
##/673.
##/675.
##/676.
##/678.
##/690.
##/691.
##/693.
##/695.
##/696.
##/698.
##/730.
##/732.
##/733.
##/736.
##/744.
##/746.
##/855.
##đương
chửa
móng
phan
tháo
trật
##/1105.
##/1139.
##/1153.
##/1175.
##/1316.
##/1335.
##/1452.
##/1453.
##/1931.
##/1938.
##/1962.
##/2161.
##/2375.
##/2415.
##/2660.
##/2699.
##/2870.
##/3175.
##/3414.
##/3568.
##/3665.
##/3937.
##/3969.
##/4201.
##/4483.
##/4583.
##/4852.
##/5045.
##/5046.
##/5671.
##/5765.
##/6016.
##/6063.
##/6155.
##/6449.
##/6570.
##/6970.
##/7153.
##/7440.
##91625,
buồng
2.821,
khoang
3.26075,
1.891625,
2.378125,
2.381625,
2.390875,
2.395375,
##sạn
##sốc
##/34.
##châm
##mảnh
béo
cẩm
##/101.
##/106.
##/185.
##/352.
##/354.
##/357.
##/358.
##/450.
##/452.
##/455.
##/458.
##/550.
##/552.
##/554.
##/651.
##/652.
##/653.
##/655.
##/656.
##/658.
##/765.
##/835.
##/914.
##/920.
##/1015.
##/1077.
##/1168.
##/1270.
##/1279.
##/1383.
##/1405.
##/1548.
##/1802.
##/1849.
##/2031.
##/2192.
##/2371.
##/2425.
##/2472.
##/2641.
##/2752.
##/2785.
##/2828.
##/2831.
##/2882.
##/2940.
##/2980.
##/3410.
##/3523.
##/3560.
##/3579.
##/3624.
##/3632.
##/3766.
##/3781.
##/3845.
##/3853.
##/4162.
##/4322.
##/4343.
##/4378.
##/4384.
##/4600.
##/4641.
##/4652.
##/4702.
##/4717.
##/5249.
##/5460.
##/5519.
##/5944.
##/5966.
##/6258.
##/6643.
##/6687.
##/6695.
##/6762.
##/6866.
##/6958.
##/7108.
##/7254.
##/7297.
##/7360.
##/7372.
##/7491.
2.32,
2.42,
2.72,
lưỡng
0.91125,
1.916125,
2.400625,
2.401625,
##giơ
##rút
##/84.
##sàng
hạo
nhễ
rùa
##/120.
##/122.
##/123.
##/124.
##/126.
##/129.
##/160.
##/162.
##/163.
##/224.
##/229.
##/368.
##/453.
##/564.
##/607.
##/724.
##/731.
##/735.
##/852.
thun
thám
tiều
##/1047.
##/1479.
##/1494.
##/1555.
##/1705.
##/1947.
##/1990.
##/2742.
##/2850.
##/2946.
##/2984.
##/3112.
##/3244.
##/3270.
##/3450.
##/3459.
##/3552.
##/3769.
##/3842.
##/3930.
##/4050.
##/4194.
##/4237.
##/4283.
##/4434.
##/4461.
##/4840.
##/5151.
##/5215.
##/5254.
##/5483.
##/5561.
##/5716.
##/5744.
##/5754.
##/5801.
##/5854.
##/5984.
##/6211.
##/6324.
##/6499.
##/6666.
##/6671.
##/6764.
##/7007.
##/7027.
##/7029.
##/7162.
##/7187.
##/7203.
##/7432.
##19375,
3.28,
##169375,
##469375,
thưởng
2.1815,
3.1795,
3.9025,
2.79325,
2.411125,
2.420625,
2.436875,
2.441625,
2.456125,
2.459625,
2.460625,
2.461375,
2.476125,
2.480125,
2.490875,
##lan
ôi
gầy
##/164.
##/187.
##/221.
##/225.
##/260.
##/262.
##/263.
##/264.
##/265.
##/266.
##/269.
##/282.
##/283.
##/287.
##/288.
##/289.
##/323.
##/324.
##/325.
##/327.
##/328.
##/360.
##/363.
##/364.
##/367.
##/380.
##/381.
##/382.
##/384.
##/385.
##/387.
##/427.
##/429.
##/460.
##/462.
##/465.
##/479.
##/769.
##/858.
rạng
then
##/1052.
##/1166.
##/1187.
##/1425.
##/1525.
##/1572.
##/1578.
##/1737.
##/2227.
##/2388.
##/2420.
##/2435.
##/2644.
##/2653.
##/2774.
##/2799.
##/3133.
##/3254.
##/3542.
##/3690.
##/3699.
##/3735.
##/3976.
##/4169.
##/4552.
##/4643.
##/4862.
##/4910.
##/5022.
##/5242.
##/5555.
##/5844.
##/5942.
##/5950.
##/6082.
##/6158.
##/6172.
##/6417.
##/6565.
##/7050.
##/7159.
##/7184.
##/7263.
##/7396.
##/7454.
2.5005,
2.64225,
2.099875,
2.500625,
2.520125,
2.536625,
2.538875,
2.540875,
2.541125,
2.552875,
2.553875,
##/54.
kén
mói
mởn
##/100.
##/103.
##/104.
##/105.
##/183.
##/483.
##/484.
##/485.
##/486.
##/488.
##/489.
##/505.
##/510.
##/522.
##/523.
##/524.
##/526.
##/527.
##/528.
##/551.
##/563.
##/565.
##/566.
##/568.
##/569.
##/580.
##/584.
##/586.
##/587.
##/589.
##/621.
##/624.
##/661.
##/663.
##/666.
##/667.
##/671.
##/684.
##/688.
##/721.
##/726.
##/727.
##/728.
chạp
mỏng
ngạt
ngấm
##/1883.
##/2563.
##/2846.
##/2917.
##/2924.
##/3118.
##/3170.
##/3202.
##/3255.
##/3259.
##/3314.
##/3369.
##/3650.
##/3662.
##/4065.
##/4151.
##/4256.
##/4505.
##/4542.
##/4697.
##/4768.
##/4832.
##/4956.
##/5184.
##/5260.
##/5299.
##/5445.
##/5479.
##/6065.
##/6090.
##/6335.
##/6644.
##/6789.
##/6797.
##/6941.
##/7272.
cuồng
1.59425,
2.53325,
2.554875,
2.572625,
2.581625,
2.599875,
2.607625,
2.609375,
2.619375,
2.633875,
2.634125,
2.639875,
##xảy
##đảm
##/79.
##chút
##tiệc
cội
hít
##/109.
##/196.
##/201.
##/204.
##/205.
##/206.
##/207.
##/208.
##/209.
##/296.
##/307.
##/308.
##/309.
##/405.
##/406.
##/407.
##/409.
##/492.
##/503.
##/601.
##/603.
##/604.
##/606.
##/609.
##/701.
##/704.
##/705.
##/707.
##/709.
##/949.
##/977.
khóe
ngác
##/1032.
##/1213.
##/1317.
##/1339.
##/1447.
##/1470.
##/1521.
##/1640.
##/2033.
##/2129.
##/2328.
##/2348.
##/2500.
##/2658.
##/2769.
##/2867.
##/3092.
##/3150.
##/3537.
##/3571.
##/3586.
##/3629.
##/3681.
##/3940.
##/4263.
##/4617.
##/4807.
##/4947.
##/4952.
##/5145.
##/5160.
##/5166.
##/5268.
##/5374.
##/5380.
##/5649.
##/5734.
##/5809.
##/5815.
##/5873.
##/5896.
##/6146.
##/6361.
##/6393.
##/6752.
##/6766.
##/6796.
##/6969.
##/7275.
1.648
2.93,
3.04,
3.64,
3.321,
3.34225,
4.16275,
1.648875,
2.640375,
2.651875,
2.658375,
##no
##dọc
##máu
##lịch
##niệm
cau
##/241.
##/341.
##/443.
##/640.
##nhiêu
##thủng
mách
trọc
##/1140.
##/1146.
##/1240.
##/1340.
##/1341.
##/1358.
##/1541.
##/1641.
##/1643.
##/1740.
##/1940.
##/1959.
##/2060.
##/2140.
##/2240.
##/2241.
##/2340.
##/2341.
##/2349.
##/2432.
##/2543.
##/2640.
##/2709.
##/2964.
##/2989.
##/3041.
##/3157.
##/3240.
##/3241.
##/3340.
##/3341.
##/3462.
##/3561.
##/3640.
##/3785.
##/3787.
##/3840.
##/3855.
##/4040.
##/4240.
##/4267.
##/4268.
##/4362.
##/4593.
##/4640.
##/4673.
##/4745.
##/5060.
##/5067.
##/5243.
##/5267.
##/5340.
##/5538.
##/5540.
##/5940.
##/5964.
##/6040.
##/6193.
##/6340.
##/6406.
##/6613.
##/6650.
##/6676.
##/6880.
##/6910.
##/6928.
##/7106.
##/7140.
##/7143.
##/7240.
##/7287.
##/7340.
##/7443.
loanh
vượng
1.419,
2.694,
trượng
1.189375,
2.611875,
2.659875,
2.660125,
2.679375,
2.690875,
2.697875,
2.699875,
##/57.
##/91.
##/442.
##/502.
##/542.
##/543.
##/641.
##/841.
##/941.
khẩm
##/1143.
##/1398.
##/1542.
##/1551.
##/1667.
##/1742.
##/1842.
##/1843.
##/1923.
##/1943.
##/1946.
##/1989.
##/2142.
##/2243.
##/2408.
##/2542.
##/2592.
##/2743.
##/2843.
##/3043.
##/3381.
##/3541.
##/3543.
##/3641.
##/3642.
##/3643.
##/3741.
##/3743.
##/3956.
##/4041.
##/4042.
##/4043.
##/4159.
##/4241.
##/4242.
##/4243.
##/4258.
##/4543.
##/4741.
##/4742.
##/4743.
##/4842.
##/4941.
##/4942.
##/4943.
##/5042.
##/5142.
##/5241.
##/5341.
##/5454.
##/5542.
##/5543.
##/5623.
##/5641.
##/5642.
##/5643.
##/5660.
##/5685.
##/5737.
##/5741.
##/5742.
##/5766.
##/5841.
##/5842.
##/5843.
##/5902.
##/6042.
##/6043.
##/6141.
##/6143.
##/6152.
##/6275.
##/6341.
##/6546.
##/6641.
##/6913.
##/6942.
##/6967.
##/7142.
##/7163.
##/7241.
cương
2.261,
khuyến
1.6215,
2.08225,
3.44125,
4.00125,
2.713125,
2.717125,
dắt
##/144.
##/145.
##/244.
##/320.
##/444.
##/474.
##/544.
##/562.
##/643.
##/644.
##/745.
##/843.
##/926.
##khiếm
##/1044.
##/1144.
##/1145.
##/1170.
##/1244.
##/1245.
##/1256.
##/1285.
##/1345.
##/1591.
##/1668.
##/1744.
##/1844.
##/1944.
##/1945.
##/2145.
##/2244.
##/2255.
##/2344.
##/2345.
##/2545.
##/2603.
##/2663.
##/2844.
##/2852.
##/3044.
##/3145.
##/3867.
##/3944.
##/4109.
##/4245.
##/4246.
##/4311.
##/4344.
##/4345.
##/4357.
##/4365.
##/4475.
##/4544.
##/4644.
##/4645.
##/4820.
##/4841.
##/4892.
##/4944.
##/5044.
##/5144.
##/5245.
##/5344.
##/5544.
##/5644.
##/5731.
##/5745.
##/5945.
##/5946.
##/6045.
##/6047.
##/6144.
##/6160.
##/6244.
##/6338.
##/6344.
##/6408.
##/6545.
##/6648.
##/6701.
##/6844.
##/6943.
##/6956.
##/7043.
##/7045.
##/7144.
##/7219.
##/7243.
##/7245.
##/7343.
##/7344.
##/7345.
nghẽo
2.30025,
2.174625,
2.719625,
2.722875,
2.730625,
2.736125,
##mét
##ngó
##rơi
##/45.
lạm
rúc
##/111.
##/247.
##/333.
##/346.
##/347.
##/447.
##/547.
##/781.
rụng
##/1046.
##/1069.
##/1129.
##/1147.
##/1246.
##/1346.
##/1347.
##/1546.
##/1547.
##/1646.
##/1647.
##/1747.
##/1847.
##/2053.
##/2147.
##/2246.
##/2247.
##/2347.
##/2546.
##/2547.
##/2667.
##/2747.
##/2847.
##/2862.
##/2918.
##/2947.
##/3146.
##/3147.
##/3246.
##/3265.
##/3346.
##/3402.
##/3547.
##/3647.
##/3715.
##/3846.
##/3847.
##/3947.
##/3951.
##/4046.
##/4047.
##/4147.
##/4185.
##/4247.
##/4331.
##/4347.
##/4371.
##/4547.
##/4646.
##/4710.
##/4746.
##/4802.
##/4868.
##/5146.
##/5147.
##/5199.
##/5247.
##/5253.
##/5269.
##/5346.
##/5364.
##/5546.
##/5693.
##/5795.
##/6044.
##/6046.
##/6646.
##/6669.
##/6747.
##/6765.
##/6946.
##/6947.
##/7047.
##/7146.
##/7230.
##/7246.
##/7416.
2.379,
1.798875,
2.736875,
2.738375,
2.754375,
2.759875,
2.762125,
2.773875,
##hạn
hí
##/68.
##khắc
##/148.
##/149.
##/222.
##/301.
##/349.
##/426.
##/482.
##/548.
##/549.
##/648.
##/747.
##/748.
##/847.
##/895.
##/1038.
##/1048.
##/1148.
##/1248.
##/1271.
##/1287.
##/1367.
##/1648.
##/1749.
##/1848.
##/2048.
##/2049.
##/2108.
##/2119.
##/2148.
##/2153.
##/2249.
##/2538.
##/2549.
##/2570.
##/2648.
##/2749.
##/2765.
##/2807.
##/2848.
##/3048.
##/3056.
##/3148.
##/3207.
##/3249.
##/3419.
##/3513.
##/3548.
##/3649.
##/3749.
##/3848.
##/3849.
##/3933.
##/3948.
##/3949.
##/3982.
##/4063.
##/4066.
##/4148.
##/4149.
##/4179.
##/4248.
##/4249.
##/4348.
##/4349.
##/4456.
##/4533.
##/4548.
##/4549.
##/4848.
##/4948.
##/4949.
##/5031.
##/5148.
##/5169.
##/5248.
##/5549.
##/5648.
##/5748.
##/5786.
##/5848.
##/5948.
##/6048.
##/6403.
##/6457.
##/6578.
##/6596.
##/6748.
##/7053.
##/7248.
##/7348.
2.1985,
3.7005,
1.438625,
2.774875,
2.779875,
2.790875,
##hầm
##hứa
##nấu
##tim
##đứa
##lang
##ngứa
##quấn
##tháp
bạt
bấu
gấu
kẻo
mấp
mấu
táp
vịt
vợi
##/281.
##/303.
##/649.
##/749.
##/788.
##/797.
##/849.
##/886.
kháu
##/1163.
##/1182.
##/1268.
##/1338.
##/1970.
##/2064.
##/2159.
##/2263.
##/2422.
##/2537.
##/2763.
##/2970.
##/3352.
##/3364.
##/3468.
##/3573.
##/3756.
##/3866.
##/3942.
##/4196.
##/4309.
##/4368.
##/4895.
##/4936.
##/4953.
##/5063.
##/5113.
##/5126.
##/5395.
##/5647.
##/5749.
##/5788.
##/5849.
##/5949.
##/6149.
##/6154.
##/6250.
##/6374.
##/6437.
##/6483.
##/6526.
##/6549.
##/6719.
##/6849.
##/6949.
##/7049.
##/7249.
khoai
khoán
1.741,
2.141,
2.521,
2.941,
3.121,
3.341,
khoáng
2.2415,
2.3135,
2.4105,
2.37825,
1.841375,
1.900875,
2.061375,
2.791125,
2.798375,
2.799875,
2.800125,
2.800625,
2.801375,
2.838625,
2.840375,
2.840875,
2.841125,
##rãi
##giây
##luộc
bén
cáp
phũ
rãi
##/366.
##/374.
##/775.
##/844.
##/850.
##/898.
##/947.
##/950.
##/970.
cưỡi
tiệt
##/1050.
##/1093.
##/1161.
##/1250.
##/1251.
##/1350.
##/1650.
##/1750.
##/1793.
##/1850.
##/1951.
##/2071.
##/2150.
##/2151.
##/2250.
##/2351.
##/2494.
##/2550.
##/2651.
##/2684.
##/2751.
##/2883.
##/3050.
##/3051.
##/3069.
##/3151.
##/3242.
##/3342.
##/3351.
##/3353.
##/3404.
##/3528.
##/3535.
##/3550.
##/3651.
##/3733.
##/3751.
##/3850.
##/3971.
##/4144.
##/4150.
##/4250.
##/4350.
##/4420.
##/4651.
##/4961.
##/5050.
##/5133.
##/5143.
##/5315.
##/5650.
##/5918.
##/5952.
##/6050.
##/6255.
##/6359.
##/6504.
##/6519.
##/6541.
##/6550.
##/6689.
##/6850.
##/6872.
##/6950.
##/7150.
##/7191.
##/7250.
##/7323.
##/7350.
2.361,
2.761,
3.061,
2.0365,
2.1585,
1.713625,
1.861625,
2.294375,
2.742875,
2.842625,
2.842875,
2.851375,
2.860875,
##trụ
##/88.
lũy
##/760.
##/840.
##/953.
##chuỗi
##/1053.
##/1098.
##/1154.
##/1252.
##/1472.
##/1520.
##/1552.
##/1553.
##/1554.
##/1752.
##/1753.
##/1754.
##/1756.
##/1813.
##/1852.
##/1853.
##/1854.
##/2043.
##/2052.
##/2054.
##/2154.
##/2335.
##/2353.
##/2554.
##/2567.
##/2652.
##/2804.
##/2853.
##/2863.
##/2933.
##/2953.
##/2954.
##/3054.
##/3152.
##/3252.
##/3454.
##/3482.
##/3652.
##/3653.
##/3856.
##/3952.
##/3958.
##/3964.
##/4052.
##/4054.
##/4152.
##/4252.
##/4253.
##/4255.
##/4366.
##/4427.
##/4570.
##/4653.
##/4752.
##/4753.
##/4771.
##/4846.
##/4873.
##/4951.
##/4995.
##/5153.
##/5158.
##/5351.
##/5352.
##/5353.
##/5551.
##/5553.
##/5651.
##/5653.
##/5762.
##/5853.
##/5857.
##/6053.
##/6151.
##/6252.
##/6352.
##/6353.
##/6553.
##/6753.
##/6853.
##/6919.
##/6952.
##/6959.
##/7052.
##/7253.
##/7351.
##/7353.
chuốt
2.441,
2.42275,
4.00175,
0.972625,
2.861375,
##/9.
##nhẹ
hự
##/128.
##/422.
##/461.
##/494.
##/612.
##/725.
##/754.
##/755.
##/854.
##/909.
vãng
##/1156.
##/1255.
##/1355.
##/1370.
##/1655.
##/1674.
##/1855.
##/1856.
##/1955.
##/1956.
##/2055.
##/2056.
##/2117.
##/2155.
##/2156.
##/2356.
##/2556.
##/2654.
##/2655.
##/2755.
##/2782.
##/2849.
##/2955.
##/2956.
##/3055.
##/3057.
##/3355.
##/3554.
##/3555.
##/3654.
##/3656.
##/3687.
##/3755.
##/3795.
##/3851.
##/3854.
##/4056.
##/4154.
##/4155.
##/4254.
##/4554.
##/4555.
##/4655.
##/4754.
##/4872.
##/4888.
##/4954.
##/5054.
##/5155.
##/5255.
##/5354.
##/5554.
##/5613.
##/5654.
##/5655.
##/5755.
##/5790.
##/5827.
##/5956.
##/5963.
##/5969.
##/6054.
##/6055.
##/6068.
##/6254.
##/6354.
##/6554.
##/6555.
##/6954.
##/7054.
##/7125.
##/7155.
##/7218.
##/7255.
##/7307.
##/7354.
##/7355.
##/7418.
khiển
nhăng
4.222,
2.4405,
3.70075,
2.862625,
2.862875,
2.876875,
##võ
##khám
##trạm
hất
nảy
##/186.
##/421.
##/521.
##/638.
##/757.
##/857.
##/957.
##/1018.
##/1057.
##/1258.
##/1557.
##/1657.
##/1658.
##/1758.
##/1801.
##/1857.
##/1858.
##/2057.
##/2098.
##/2158.
##/2316.
##/2358.
##/2402.
##/2557.
##/2558.
##/2602.
##/2657.
##/2675.
##/2757.
##/2758.
##/2786.
##/2857.
##/2858.
##/2958.
##/3058.
##/3257.
##/3258.
##/3408.
##/3581.
##/3658.
##/3758.
##/3770.
##/3957.
##/4058.
##/4094.
##/4156.
##/4158.
##/4356.
##/4358.
##/4557.
##/4558.
##/4632.
##/4657.
##/4658.
##/4737.
##/4856.
##/4857.
##/5056.
##/5058.
##/5156.
##/5257.
##/5258.
##/5356.
##/5357.
##/5358.
##/5521.
##/5657.
##/5659.
##/5702.
##/5756.
##/5757.
##/5814.
##/6156.
##/6157.
##/6256.
##/6257.
##/6556.
##/6657.
##/6757.
##/6856.
##/6957.
##/7057.
##/7086.
##/7090.
##/7156.
##/7256.
##/7356.
##/7357.
3.88,
2.4955,
2.35875,
2.389625,
2.880625,
2.901125,
2.915375,
##kế
##đam
áng
##/750.
##/758.
##/759.
##/784.
##/859.
rước
##/1003.
##/1059.
##/1061.
##/1259.
##/1260.
##/1261.
##/1360.
##/1361.
##/1527.
##/1559.
##/1560.
##/1561.
##/1571.
##/1659.
##/1759.
##/1859.
##/2059.
##/2061.
##/2260.
##/2359.
##/2659.
##/2859.
##/2861.
##/2959.
##/3059.
##/3161.
##/3261.
##/3559.
##/3659.
##/3660.
##/3661.
##/3759.
##/3761.
##/3859.
##/3959.
##/3961.
##/4060.
##/4061.
##/4260.
##/4296.
##/4359.
##/4500.
##/4642.
##/4659.
##/4859.
##/4959.
##/4960.
##/5159.
##/5259.
##/5359.
##/5360.
##/5490.
##/5559.
##/5560.
##/5759.
##/5760.
##/5959.
##/5960.
##/6056.
##/6058.
##/6059.
##/6159.
##/6259.
##/6260.
##/6317.
##/6358.
##/6366.
##/6559.
##/6614.
##/6759.
##/6760.
##/6768.
##/6859.
##/6860.
##/7059.
##/7127.
##/7260.
##/7316.
##/7359.
5.159,
1.474125,
2.919875,
2.922625,
2.922875,
2.931375,
2.938375,
2.942125,
2.970625,
2.977125,
2.982125,
2.990375,
gục
##/134.
##/223.
##/274.
##/536.
##/762.
##/861.
##/862.
##/863.
##/963.
bệch
##/1064.
##/1162.
##/1172.
##/1314.
##/1362.
##/1562.
##/1664.
##/1762.
##/1763.
##/1769.
##/1806.
##/1832.
##/1863.
##/2162.
##/2163.
##/2188.
##/2256.
##/2362.
##/2562.
##/2579.
##/2662.
##/2731.
##/2800.
##/2836.
##/2962.
##/3062.
##/3063.
##/3111.
##/3162.
##/3193.
##/3224.
##/3324.
##/3363.
##/3562.
##/3663.
##/3763.
##/3862.
##/3914.
##/4062.
##/4161.
##/4163.
##/4262.
##/4562.
##/4661.
##/4662.
##/4663.
##/4762.
##/4763.
##/4858.
##/4861.
##/4863.
##/4962.
##/4963.
##/5162.
##/5263.
##/5363.
##/5371.
##/5373.
##/5471.
##/5662.
##/5740.
##/5861.
##/5962.
##/6061.
##/6134.
##/6162.
##/6163.
##/6261.
##/6262.
##/6362.
##/6363.
##/6562.
##/6660.
##/6661.
##/6662.
##/6663.
##/6761.
##/6862.
##/6961.
##/7061.
##/7062.
##/7160.
##/7200.
##/7362.
##/7363.
##/7442.
4.782,
1.173375,
2.995875,
##hút
##lỗi
##đức
##/36.
##/50.
##/80.
##sách
##điếu
##/623.
##/764.
##/864.
##/965.
##/966.
##/993.
3.4,
##/1065.
##/1066.
##/1067.
##/1165.
##/1266.
##/1442.
##/1565.
##/1567.
##/1767.
##/1770.
##/1776.
##/1784.
##/1866.
##/1965.
##/2065.
##/2066.
##/2067.
##/2165.
##/2167.
##/2265.
##/2266.
##/2565.
##/2566.
##/2665.
##/2666.
##/2764.
##/2766.
##/2839.
##/2864.
##/2865.
##/2866.
##/2965.
##/3164.
##/3165.
##/3264.
##/3287.
##/3358.
##/3366.
##/3487.
##/3565.
##/3764.
##/3765.
##/3865.
##/3966.
##/4164.
##/4264.
##/4353.
##/4437.
##/4565.
##/4765.
##/4766.
##/4865.
##/4965.
##/4997.
##/5066.
##/5165.
##/5295.
##/5564.
##/5566.
##/5666.
##/5764.
##/5846.
##/5865.
##/5866.
##/5965.
##/6069.
##/6164.
##/6165.
##/6264.
##/6266.
##/6356.
##/6566.
##/6664.
##/6966.
##/7164.
##/7166.
##/7264.
##/7268.
##/7289.
##/7365.
##/7378.
khùng
3.86175,
2.997125,
3.000125,
##/28.
##giận
tủy
##/525.
##/743.
##/810.
##/867.
##/901.
##/967.
##ngược
##/1009.
##/1068.
##/1169.
##/1293.
##/1368.
##/1369.
##/1569.
##/1570.
##/1623.
##/1670.
##/1768.
##/1851.
##/1868.
##/1869.
##/1969.
##/2068.
##/2069.
##/2070.
##/2168.
##/2169.
##/2170.
##/2268.
##/2270.
##/2273.
##/2310.
##/2367.
##/2369.
##/2370.
##/2464.
##/2478.
##/2569.
##/2668.
##/2669.
##/2770.
##/2994.
##/3046.
##/3068.
##/3101.
##/3167.
##/3367.
##/3567.
##/3569.
##/3570.
##/3767.
##/3868.
##/3967.
##/4167.
##/4168.
##/4265.
##/4269.
##/4333.
##/4367.
##/4448.
##/4669.
##/4867.
##/4923.
##/4968.
##/4970.
##/5068.
##/5069.
##/5167.
##/5171.
##/5409.
##/5567.
##/5568.
##/5569.
##/5767.
##/5769.
##/5868.
##/5967.
##/5968.
##/6169.
##/6267.
##/6368.
##/6369.
##/6567.
##/6668.
##/6769.
##/6869.
##/7000.
##/7069.
##/7119.
##/7167.
##/7257.
##/7267.
##/7367.
##/7375.
3.00075,
3.000625,
3.022125,
##đắm
vé
##/14.
##/184.
##/770.
##duyên
##/1171.
##/1263.
##/1371.
##/1476.
##/2171.
##/2271.
##/2474.
##/2571.
##/2671.
##/2741.
##/2771.
##/2871.
##/3071.
##/3085.
##/3670.
##/3970.
##/4068.
##/4070.
##/4071.
##/4171.
##/4270.
##/4370.
##/4671.
##/4870.
##/4871.
##/5170.
##/5271.
##/5412.
##/5570.
##/5970.
##/5971.
##/6070.
##/6071.
##/6171.
##/6270.
##/6484.
##/6770.
##/7011.
##/7170.
##/7370.
4.119,
1.9685,
2.831125,
3.038375,
3.039625,
3.040875,
3.058875,
3.061875,
3.078375,
3.079875,
3.100875,
3.119375,
3.119625,
3.120875,
3.160125,
3.171375,
3.180125,
3.188625,
3.199875,
3.240125,
3.260375,
3.260875,
3.274875,
3.281375,
3.300875,
3.315625,
3.318875,
3.320375,
3.321625,
3.322125,
3.342375,
3.358375,
3.380375,
3.381875,
3.382875,
3.396625,
3.399875,
3.401125,
3.402375,
3.421125,
3.421875,
3.429375,
3.440375,
3.441375,
3.442875,
3.460125,
3.462625,
3.482875,
3.502625,
3.502875,
3.512125,
3.536625,
3.540625,
3.542125,
3.551125,
3.561375,
3.575625,
3.577875,
3.598625,
3.599625,
3.599875,
3.600625,
3.620625,
3.621375,
3.622875,
3.640875,
3.642375,
3.660375,
3.660625,
3.660875,
3.682875,
3.701125,
3.702375,
3.720875,
3.742375,
3.780875,
3.781375,
3.781625,
3.802375,
3.820625,
3.841625,
3.880875,
3.881875,
3.901375,
3.901875,
3.960625,
3.980125,
4.020625,
4.022625,
4.042375,
4.060625,
4.061625,
4.081875,
4.142875,
4.161125,
4.162375,
4.181875,
4.230875,
4.242625,
4.340375,
4.461875,
4.462125,
4.475375,
4.481375,
4.482375,
4.511125,
4.521875,
4.540625,
4.541375,
4.541875,
4.581625,
4.640875,
4.701625,
4.702625,
4.702875,
4.721875,
4.781125,
4.800875,
4.822875,
4.882625,
4.901875,
4.940875,
4.980875,
5.100875,
5.101625,
5.381625,
5.581625,
0.9136875,
0.9301875,
1.0088125,
1.0306875,
1.0725625,
1.1084375,
1.1294375,
1.1468125,
1.1508125,
1.1704375,
1.1729375,
1.1735625,
1.1915625,
1.2121875,
1.2133125,
1.2135625,
1.2170625,
1.2349375,
1.2496875,
1.2520625,
1.2551875,
1.2656875,
1.2698125,
1.2699375,
1.2714375,
1.2735625,
1.2745625,
1.2758125,
1.2934375,
1.2944375,
1.3075625,
1.3125625,
1.3185625,
1.3273125,
1.3338125,
1.3469375,
1.3576875,
1.3700625,
1.3735625,
1.3751875,
1.3870625,
1.4110625,
1.4123125,
1.4139375,
1.4146875,
1.4278125,
1.4301875,
1.4333125,
1.4350625,
1.4354375,
1.4358125,
1.4525625,
1.4545625,
1.4580625,
1.4585625,
1.4680625,
1.4689375,
1.4706875,
1.4735625,
1.4750625,
1.4949375,
1.5116875,
1.5121875,
1.5128125,
1.5154375,
1.5200625,
1.5306875,
1.5319375,
1.5366875,
1.5384375,
1.5503125,
1.5518125,
1.5600625,
1.5611875,
1.5676875,
1.5709375,
1.5756875,
1.5759375,
1.5771875,
1.5790625,
1.5965625,
1.5969375,
1.5995625,
1.5999375,
1.6024375,
1.6138125,
1.6148125,
1.6153125,
1.6176875,
1.6183125,
1.6208125,
1.6280625,
1.6326875,
1.6330625,
1.6339375,
1.6361875,
1.6390625,
1.6403125,
1.6410625,
1.6541875,
1.6563125,
1.6566875,
1.6593125,
1.6704375,
1.6743125,
1.6744375,
1.6758125,
1.6768125,
1.6773125,
1.6795625,
1.6799375,
1.6886875,
1.6891875,
1.6905625,
1.6968125,
1.6980625,
1.6986875,
1.6991875,
1.6995625,
1.7146875,
1.7159375,
1.7178125,
1.7185625,
1.7321875,
1.7340625,
1.7346875,
1.7353125,
1.7364375,
1.7374375,
1.7375625,
1.7378125,
1.7390625,
1.7409375,
1.7413125,
1.7503125,
1.7530625,
1.7545625,
1.7589375,
1.7594375,
1.7735625,
1.7740625,
1.7748125,
1.7780625,
1.7895625,
1.7903125,
1.7968125,
1.7971875,
1.7978125,
1.8005625,
1.8073125,
1.8100625,
1.8116875,
1.8140625,
1.8154375,
1.8159375,
1.8173125,
1.8196875,
1.8291875,
1.8340625,
1.8344375,
1.8364375,
1.8411875,
1.8413125,
1.8465625,
1.8496875,
1.8514375,
1.8541875,
1.8545625,
1.8558125,
1.8563125,
1.8566875,
1.8570625,
1.8573125,
1.8576875,
1.8588125,
1.8604375,
1.8710625,
1.8735625,
1.8758125,
1.8765625,
1.8899375,
1.8995625,
1.9103125,
1.9164375,
1.9178125,
1.9179375,
1.9181875,
1.9183125,
1.9210625,
1.9304375,
1.9323125,
1.9335625,
1.9349375,
1.9376875,
1.9405625,
1.9506875,
1.9548125,
1.9554375,
1.9588125,
1.9600625,
1.9606875,
1.9679375,
1.9711875,
1.9731875,
1.9741875,
1.9779375,
1.9781875,
1.9786875,
1.9793125,
1.9798125,
1.9825625,
1.9901875,
1.9908125,
1.9915625,
1.9963125,
1.9975625,
1.9993125,
2.0190625,
2.0213125,
2.0305625,
2.0324375,
2.0356875,
2.0365625,
2.0494375,
2.0501875,
2.0511875,
2.0513125,
2.0539375,
2.0541875,
2.0543125,
2.0549375,
2.0696875,
2.0753125,
2.0764375,
2.0813125,
2.0815625,
2.0923125,
2.0943125,
2.0963125,
2.0968125,
2.0974375,
2.1000625,
2.1001875,
2.1005625,
2.1019375,
2.1080625,
2.1090625,
2.1091875,
2.1105625,
2.1123125,
2.1146875,
2.1156875,
2.1186875,
2.1191875,
2.1203125,
2.1206875,
2.1214375,
2.1216875,
2.1299375,
2.1335625,
2.1349375,
2.1364375,
2.1370625,
2.1378125,
2.1393125,
2.1400625,
2.1423125,
2.1494375,
2.1516875,
2.1544375,
2.1558125,
2.1560625,
2.1563125,
2.1575625,
2.1596875,
2.1605625,
2.1610625,
2.1611875,
2.1690625,
2.1718125,
2.1725625,
2.1759375,
2.1760625,
2.1778125,
2.1784375,
2.1786875,
2.1789375,
2.1796875,
2.1949375,
2.1950625,
2.1996875,
2.2124375,
2.2138125,
2.2139375,
2.2146875,
2.2161875,
2.2184375,
2.2189375,
2.2193125,
2.2210625,
2.2215625,
2.2225625,
2.2358125,
2.2360625,
2.2365625,
2.2375625,
2.2421875,
2.2533125,
2.2548125,
2.2554375,
2.2595625,
2.2600625,
2.2625625,
2.2725625,
2.2751875,
2.2774375,
2.2796875,
2.2820625,
2.2825625,
2.2941875,
2.2966875,
2.2995625,
2.3003125,
2.3008125,
2.3015625,
2.3096875,
2.3143125,
2.3176875,
2.3189375,
2.3219375,
2.3299375,
2.3320625,
2.3343125,
2.3353125,
2.3378125,
2.3383125,
2.3405625,
2.3408125,
2.3505625,
2.3513125,
2.3516875,
2.3560625,
2.3594375,
2.3608125,
2.3613125,
2.3618125,
2.3755625,
2.3773125,
2.3784375,
2.3799375,
2.3803125,
2.3824375,
2.3960625,
2.3973125,
2.3996875,
2.4013125,
2.4113125,
2.4179375,
2.4208125,
2.4308125,
2.4325625,
2.4348125,
2.4355625,
2.4376875,
2.4391875,
2.4393125,
2.4395625,
2.4396875,
2.4531875,
2.4556875,
2.4575625,
2.4578125,
2.4591875,
2.4596875,
2.4604375,
2.4623125,
2.4766875,
2.4779375,
2.4809375,
2.4823125,
2.4894375,
2.4976875,
2.5005625,
2.5028125,
2.5106875,
2.5120625,
2.5131875,
2.5155625,
2.5178125,
2.5203125,
2.5209375,
2.5221875,
2.5325625,
2.5393125,
2.5404375,
2.5423125,
2.5511875,
2.5544375,
2.5588125,
2.5601875,
2.5605625,
2.5616875,
2.5686875,
2.5710625,
2.5755625,
2.5781875,
2.5783125,
2.5803125,
2.5804375,
2.5814375,
2.5816875,
2.5983125,
2.5991875,
2.6028125,
2.6129375,
2.6164375,
2.6170625,
2.6200625,
2.6216875,
2.6219375,
2.6228125,
2.6289375,
2.6328125,
2.6349375,
2.6398125,
2.6426875,
2.6500625,
2.6559375,
2.6564375,
2.6576875,
2.6581875,
2.6598125,
2.6615625,
2.6628125,
2.6699375,
2.6774375,
2.6811875,
2.6836875,
2.6906875,
2.6946875,
2.6968125,
2.6979375,
2.6998125,
2.7000625,
2.7026875,
2.7120625,
2.7140625,
2.7169375,
2.7176875,
2.7191875,
2.7200625,
2.7210625,
2.7333125,
2.7403125,
2.7409375,
2.7519375,
2.7599375,
2.7604375,
2.7608125,
2.7683125,
2.7760625,
2.7770625,
2.7776875,
2.7796875,
2.7800625,
2.7810625,
2.7966875,
2.7981875,
2.8006875,
2.8009375,
2.8021875,
2.8023125,
2.8078125,
2.8093125,
2.8179375,
2.8185625,
2.8206875,
2.8208125,
2.8219375,
2.8223125,
2.8303125,
2.8304375,
2.8309375,
2.8358125,
2.8365625,
2.8383125,
2.8406875,
2.8420625,
2.8510625,
2.8518125,
2.8566875,
2.8591875,
2.8601875,
2.8603125,
2.8606875,
2.8619375,
2.8621875,
2.8800625,
2.8818125,
2.8961875,
2.8976875,
2.8996875,
2.9003125,
2.9005625,
2.9143125,
2.9183125,
2.9198125,
2.9208125,
2.9209375,
2.9218125,
2.9333125,
2.9334375,
2.9384375,
2.9410625,
2.9510625,
2.9513125,
2.9598125,
2.9599375,
2.9605625,
2.9608125,
2.9611875,
2.9613125,
2.9790625,
2.9791875,
2.9808125,
2.9809375,
3.0019375,
3.0131875,
3.0134375,
3.0180625,
3.0211875,
3.0345625,
3.0429375,
3.0508125,
3.0569375,
3.0586875,
3.0593125,
3.0598125,
3.0615625,
3.0678125,
3.0720625,
3.0799375,
3.0801875,
3.0803125,
3.0819375,
3.0828125,
3.0960625,
3.0980625,
3.0999375,
3.1021875,
3.1109375,
3.1180625,
3.1206875,
3.1349375,
3.1400625,
3.1401875,
3.1419375,
3.1420625,
3.1421875,
3.1504375,
3.1568125,
3.1603125,
3.1618125,
3.1626875,
3.1699375,
3.1781875,
3.1810625,
3.1824375,
3.1983125,
3.2001875,
3.2003125,
3.2010625,
3.2029375,
3.2210625,
3.2211875,
3.2223125,
3.2225625,
3.2300625,
3.2408125,
3.2410625,
3.2604375,
3.2629375,
3.2769375,
3.2815625,
3.2829375,
3.2915625,
3.2979375,
3.3026875,
3.3165625,
3.3206875,
3.3211875,
3.3408125,
3.3513125,
3.3605625,
3.3611875,
3.3809375,
3.3818125,
3.3999375,
3.4006875,
3.4021875,
3.4041875,
3.4113125,
3.4165625,
3.4185625,
3.4208125,
3.4209375,
3.4388125,
3.4565625,
3.4584375,
3.4606875,
3.4608125,
3.4610625,
3.4620625,
3.4623125,
3.4624375,
3.4801875,
3.4808125,
3.4998125,
3.5010625,
3.5011875,
3.5021875,
3.5023125,
3.5204375,
3.5210625,
3.5211875,
3.5224375,
3.5340625,
3.5408125,
3.5415625,
3.5419375,
3.5421875,
3.5585625,
3.5594375,
3.5619375,
3.5626875,
3.5759375,
3.5805625,
3.5808125,
3.5811875,
3.5818125,
3.5823125,
3.5824375,
3.5826875,
3.5998125,
3.6003125,
3.6009375,
3.6194375,
3.6200625,
3.6213125,
3.6225625,
3.6304375,
3.6339375,
3.6404375,
3.6408125,
3.6410625,
3.6411875,
3.6416875,
3.6426875,
3.6503125,
3.6609375,
3.6618125,
3.6806875,
3.6809375,
3.6813125,
3.6825625,
3.6826875,
3.7005625,
3.7014375,
3.7020625,
3.7205625,
3.7206875,
3.7406875,
3.7409375,
3.7425625,
3.7610625,
3.7615625,
3.7805625,
3.7819375,
3.7821875,
3.7890625,
3.8004375,
3.8006875,
3.8019375,
3.8210625,
3.8215625,
3.8226875,
3.8228125,
3.8396875,
3.8403125,
3.8419375,
3.8598125,
3.8616875,
3.8619375,
3.8620625,
3.8629375,
3.8803125,
3.8824375,
3.8985625,
3.9028125,
3.9029375,
3.9204375,
3.9229375,
3.9363125,
3.9406875,
3.9415625,
3.9424375,
3.9425625,
3.9594375,
3.9799375,
4.0015625,
4.0204375,
4.0210625,
4.0380625,
4.0405625,
4.0420625,
4.0429375,
4.0430625,
4.0618125,
4.0620625,
4.0805625,
4.0814375,
4.0826875,
4.1018125,
4.1020625,
4.1021875,
4.1189375,
4.1208125,
4.1225625,
4.1414375,
4.1629375,
4.2215625,
4.2228125,
4.2815625,
4.2824375,
4.3013125,
4.3019375,
4.3204375,
4.3205625,
4.3418125,
4.3616875,
4.3618125,
4.3805625,
4.3809375,
4.3816875,
4.3819375,
4.4214375,
4.4416875,
4.5008125,
4.5245625,
4.5429375,
4.5596875,
4.5606875,
4.5615625,
4.6420625,
4.6810625,
4.7226875,
4.7418125,
4.8026875,
4.8629375,
4.8816875,
4.9220625,
4.9601875,
4.9808125,
5.0619375,
5.1216875,
5.1615625,
5.2018125,
5.2729375,
5.6419375,
5.6625625,
5.6905625,
5.7195625,
6.0574375,
6.0728125,
6.1710625,
6.8081875,
7.3481875,
##"/
##44
##67
##84
##bả
##cú
##cắ
##cờ
##dì
##dô
##gụ
##hõ
##hỉ
##ià
##lấ
##lỏ
##lố
##ma
##mo
##mí
##mẽ
##mị
##nâ
##né
##ní
##re
##ro
##rú
##rầ
##sô
##tA
##tả
##tậ
##tộ
##tợ
##uầ
##uặ
##uỹ
##vạ
##vẽ
##xì
##zi
##óe
##đạ
##ịu
##ỡn
##ựn
ẩ
##/77
##/78
##bổ
##cấ
##dố
##mi
##mẫ
##rổ
##rợ
##xí
##/88
##/89
##006
##011
##014
##019
##020
##021
##057
##072
##082
##108
##11,
##110
##150
##153
##154
##155
##171
##173
##180
##181
##189
##192
##193
##194
##208
##211
##214
##240
##242
##260
##261
##3.0
##301
##321
##33,
##341
##380
##4.2
##401
##402
##412
##414
##415
##419
##421
##427
##460
##461
##481
##5.1
##5.2
##5.7
##541
##581
##6.0
##6.1
##610
##612
##614
##618
##620
##641
##642
##681
##69,
##701
##721
##741
##742
##761
##807
##810
##814
##815
##818
##821
##822
##880
##882
##900
##901
##940
##960
##972
##979
##981
##biệ
##bud
##châ
##chắ
##/0
##bư
##cặ
##dẫ
##dẹ
##gộ
##hỏ
##lê
##lù
##mấ
##si
##să
##tẻ
##tớ
##uâ
##/75
##004
##005
##022
##042
##3.8
##342
##361
##4.0
##4.1
##4.3
##4.4
##4.8
##418
##5.4
##802
##942
##ali
##chả
##chấ
##chẳ
##chặ
##chừ
##cuố
##dượ
##giế
##gươ
##hiế
##hiệ
##hoã
##hôi
##hươ
##hướ
##hấy
##iao
##ile
##iây
##iải
##iận
##kha
##khă
##khố
##lươ
##men
##miề
##muố
##ngá
##ngỡ
##nhặ
##nhễ
##niề
##nướ
##oái
##phạ
##qué
##quầ
##quắ
##quố
##quỳ
##quỷ
##rai
##raz
##riê
##rái
##rướ
##rượ
##rận
##thâ
##thă
##thơ
##thậ
##thắ
##thẳ
##thố
##thự
##tiệ
##trọ
##trộ
##tướ
##uây
##uấy
##uẩn
##uột
##vay
##viế
##bẻ
##dí
##lừ
##oă
##rã
##rấ
##vo
##đâ
##đắ
##ũn
##ớc
##/92
##161
##221
##381
##468
##615
##720
##diệ
##hời
##miế
##ngu
##phé
##phê
##phò
##phô
##phả
##phầ
##phẩ
##phẳ
##phị
##phớ
##rôi
##xuố
##xôi
##điế
##điề
##điể
##điệ
##ếch
##ổng
bầ
bớ
dà
dâ
dặ
dẹ
dồ
dộ
dứ
dừ
gậ
hầ
hắ
hứ
kì
lắ
lặ
lử
mấ
mặ
mọ
nạ
nằ
nẻ
re
rá
ré
rì
rí
ró
rô
ră
rả
rẩ
rắ
rằ
rồ
rờ
rự
sú
sỏ
vá
xà
xâ
xắ
đạ
đằ
đừ
đự
ướ
##/105
##/117
##/127
##/138
##/154
##/155
##/198
##/213
##/235
##26
##bồ
##dấ
##he
##hú
##ti
##tí
##uẫ
##đú
##010
##2.9
##218
##340
##4.9
##7.3
##74,
##chụ
##nhạ
##oại
##quằ
##ver
##ớng
go
gá
gó
gầ
gố
gợ
gụ
mâ
sá
só
să
sả
sầ
sắ
sế
sộ
sớ
đợ
##/124
##/131
##/205
##/238
##/287
##/298
##/363
##/367
##/375
##/398
##/424
##/425
##/456
##/468
##/474
##/489
##/498
##/517
##/529
##/538
##/550
##/594
##/605
##/616
##/623
##/676
##/689
##/703
##/704
##/708
##/728
##/730
##/732
##/735
##0.80
##0.91
##0.97
##007.
##012.
##013.
##015.
##016.
##017.
##025.
##072,
##115,
##159,
##195,
##204.
##205.
##208.
##209.
##2121
##214.
##216.
##2161
##218.
##221.
##301,
##315,
##.0
##.4
##05
##74
##Vi
##bở
##cỏ
##gỡ
##hế
##kì
##lộ
##oe
##tọ
##uế
##vĩ
##vả
##wa
##đự
##ịt
##ỏn
##007
##060
##081
##1.1
##1.5
##1.7
##1.9
##140
##170
##3.1
##3.2
##3.6
##3.7
##3.9
##816
##980
##chậ
##cườ
##iáo
##nhữ
##phá
##phế
##quạ
##riệ
##uên
##vươ
bư
há
hâ
hé
hó
hú
hấ
hẹ
hủ
hữ
ná
rè
rơ
sà
sủ
tà
vặ
##/196
##/329
##/411
##/496
##001.
##003.
##1.00
##1.5,
##211.
##217.
##355,
##4.00
##4.02
##4.80
##400.
##402,
##402.
##4041
##405.
##407,
##408,
##408.
##409.
##410.
##412.
##415.
##416.
##417.
##418.
##419,
##420.
##421.
##422.
##423.
##424.
##425.
##426.
##.7
##72
##Bu
##bè
##cằ
##cộ
##củ
##dâ
##gó
##gắ
##hộ
##iâ
##ió
##iơ
##iấ
##iặ
##iọ
##mé
##mù
##mỗ
##mờ
##nà
##nề
##nỗ
##rơ
##rỡ
##sẵ
##sỏ
##sở
##tĩ
##tơ
##tắ
##vã
##yễ
##ùy
##đù
##đờ
é
ó
ủ
##/76
##142
##4.5
##5.0
##501
##520
##542
##619
##702
##841
##dườ
##ion
##iễm
##liê
##nhằ
##nhỡ
##niệ
##phă
##quặ
##tha
bẹ
dố
hớ
rư
rỗ
sặ
xă
đâ
đờ
##/112
##/275
##/296
##/555
##/556
##207.
##428.
##429.
##4301
##440.
##455.
##466.
##467.
##468.
##474.
##475.
##479.
##494,
##495.
##497.
##499.
##5003
##5006
##5008
##505,
##555,
##575,
##591.
##6.07
##6.19
##6.80
##.8
##14
##66
##cự
##dĩ
##gô
##gạ
##gồ
##hũ
##hẩ
##hề
##hở
##hừ
##iã
##kẽ
##la
##nư
##nế
##oè
##rê
##rắ
##sá
##ty
##tầ
##tỉ
##uà
##vâ
##vừ
##xâ
##yề
##ãm
##đà
##đợ
##ịc
##00/
##2.8
##4.6
##4.7
##805
##820
##941
##nhệ
##rải
##việ
##xen
##xươ
bâ
bứ
cậ
dấ
hi
mư
xá
xư
đe
đớ
##/178
##/226
##/250
##/264
##/338
##/506
##/515
##/533
##473.
##601.
##603.
##604.
##605.
##606.
##608.
##609.
##610.
##611.
##612.
##613.
##617.
##618.
##619,
##628.
##725,
##755,
##782,
##793.
##794.
##797.
##801.
##802.
##803.
##804.
##805.
##806.
##807.
##810.
##8100
##811.
##813.
##814.
##815.
##816.
##11
##28
##31
##86
##87
##bí
##bề
##bụ
##bữ
##dê
##dõ
##er
##gọ
##hă
##hố
##hờ
##iư
##iả
##iố
##kè
##ly
##lỡ
##má
##mâ
##mừ
##na
##nắ
##nộ
##oạ
##oặ
##rí
##rò
##rậ
##rọ
##rỗ
##tă
##tệ
##uê
##uấ
##uộ
##xt
##xả
##đẩ
##đẹ
ỏ
##14,
##213
##262
##560
##nhầ
##nhẫ
##thừ
##trầ
##đươ
##ệch
bủ
cộ
ki
mẫ
nấ
rê
rẫ
rử
sì
sọ
tó
đầ
đố
##/132
##/452
##226.
##818.
##819.
##821.
##822.
##824.
##825.
##826.
##829.
##901,
##921,
##922,
##925,
##997.
##chiế
##dung
##hiên
##hoai
##hoác
##hoăn
##hoạn
##hoải
##hoản
##iang
##khiế
##liêm
##nghè
##ngưỡ
##nhiệ
##phiề
##08
##bo
##cỗ
##dá
##dọ
##dữ
##gu
##gá
##gử
##hí
##hư
##hợ
##iễ
##iớ
##lí
##lỗ
##mó
##mụ
##oà
##râ
##rứ
##sế
##sộ
##tò
##tố
##tứ
##ur
##uả
##vu
##vá
##ín
##đằ
##đớ
##ổn
ấ
##016
##172
##216
##220
##442
##580
##594
##76,
##961
##chố
##hen
##ngấ
##uya
##ởng
##ợng
lẫ
lố
nố
rậ
sâ
vế
##/128
##/129
##/158
##/478
##/598
##/615
##005.
##203.
##616.
##hoái
##iọng
##phươ
##phườ
##rang
##rati
##riều
##rong
##rình
##rước
##thiế
##thiệ
##trưở
##uanh
##uynh
##uông
##uỳnh
##xình
##xông
5.3
5.5
biế
bướ
chá
châ
chô
chậ
chằ
chố
chử
cuố
cướ
diề
diễ
dươ
##06
##65
##bậ
##bệ
##cà
##cầ
##dư
##gâ
##gă
##gậ
##il
##iú
##kê
##lò
##lă
##nã
##nô
##nố
##oa
##rì
##rũ
##rạ
##rẫ
##rộ
##rờ
##rự
##tấ
##tẩ
##tồ
##yể
##đe
##đọ
##ủn
##ừn
1
##008
##015
##041
##100
##2.7
##413
##416
##540
##601
##iác
##liệ
##ngạ
##nhắ
##pat
##sươ
##vướ
bắ
cẩ
sạ
sẵ
tấ
xé
##/237
##/292
##/327
##/377
##/484
##207,
##228.
##396.
##411.
##484.
##498.
##thuố
chấ
chẳ
dượ
giù
giư
giọ
giỏ
gươ
hiế
hiề
hiệ
hoạ
hoả
hướ
khé
khù
khă
khơ
khấ
khẩ
khắ
khẳ
khỉ
khỏ
khố
khở
khụ
khủ
kiê
kiế
kiề
##23
##bằ
##cù
##cậ
##di
##dà
##gờ
##hằ
##hẹ
##iờ
##lạ
##lợ
##mề
##mứ
##nê
##nú
##nă
##nọ
##nổ
##rừ
##uẩ
##đầ
##đế
##ịa
##1.4
##141
##182
##34,
##561
##722
##760
##chà
##chạ
##hon
##liế
##ngù
##ngứ
##nhí
##nhị
##nhụ
##phấ
##quã
##thổ
##ưởi
bậ
gấ
gặ
gử
hă
hậ
hỏ
lõ
ní
nặ
rù
vẹ
đư
##/186
##/266
##/686
##210.
##419.
##439.
##592.
##594.
##828.
##chuy
##vali
chặ
dưỡ
luồ
lươ
lưỡ
lượ
miế
miề
muố
muỗ
mượ
ngâ
ngò
ngù
ngă
ngạ
ngầ
ngố
ngồ
ngợ
ngừ
ngử
ngự
nho
nhú
nhă
nhạ
nhấ
nhậ
nhắ
nhọ
nhố
##64
##bi
##bâ
##cớ
##dở
##gũ
##gấ
##hò
##hù
##hầ
##iù
##ke
##lễ
##mô
##mư
##ni
##nặ
##te
##uã
##ué
##xo
##xà
##òe
##đê
##đĩ
##đỏ
##ưn
##ếm
##ều
##/86
##013
##2.0
##201
##212
##38,
##400
##521
##600
##740
##913
##biể
##chô
##hoe
##ken
##ngố
##nhấ
##nhẽ
##oan
##rân
##the
##thá
##uân
##yến
cấ
gâ
ke
sữ
vấ
xú
##/211
##/214
##/524
##412,
##489.
##5000
##590.
##593.
##791.
##820.
##path
chư
chừ
giớ
ngọ
nhõ
nhữ
nhự
niề
niệ
nuố
nướ
phé
phò
phă
phư
phạ
phả
phấ
phầ
phậ
phị
phứ
quâ
quã
qué
quầ
quẫ
quằ
quặ
riê
##.9
##12
##32
##Ib
##bạ
##că
##dè
##gù
##gự
##hâ
##hủ
##kí
##lĩ
##lơ
##lặ
##lị
##lụ
##mặ
##mỏ
##mộ
##nv
##nấ
##rè
##rù
##rị
##rở
##su
##sớ
##sỡ
##uậ
##vế
##vố
##xi
##yê
##yệ
##úm
##đu
##đí
##đẽ
##đệ
##ệc
##ứu
6
p
##061
##1.6
##207
##482
##hiề
##ngừ
##nhậ
##oán
##quẻ
##tiề
##uấn
bỗ
bụ
gừ
hố
hử
nử
rố
rụ
tọ
tớ
uố
đă
đắ
##.500
##/319
##/404
##/511
##/584
##404.
##chươ
##uyen
chồ
chụ
khự
liệ
nhụ
quắ
riế
rướ
rưỡ
rượ
siế
suố
thâ
thó
thạ
thỉ
thỏ
tiề
tiệ
tro
tru
trâ
trè
trê
##70
##bu
##bá
##bê
##bõ
##cẩ
##dứ
##gõ
##gơ
##gặ
##gớ
##gữ
##ha
##hơ
##hụ
##hự
##ki
##ké
##ký
##lô
##lớ
##mạ
##mớ
##ri
##ru
##rằ
##sữ
##tá
##tê
##uý
##vé
##vò
##vấ
##vờ
##xắ
##đa
##đấ
##ểu
##ờn
ỉ
ớ
##/79
##001
##003
##009
##210
##249
##360
##782
##809
##842
##chì
##onv
##đượ
##ệng
bă
bẩ
bở
mo
mế
nò
nă
nả
nồ
tă
vâ
##/157
##/427
##008.
##213.
##432.
##597.
##602.
##823.
##hoát
chù
nhằ
sướ
tró
trô
tră
trư
trạ
trấ
trầ
trậ
trắ
trằ
trọ
trồ
trứ
trự
tươ
tướ
tưở
tượ
viế
vuố
vươ
vướ
##.2
##0/
##03
##15
##25
##bó
##bơ
##bấ
##bầ
##bẽ
##bỗ
##cõ
##cỡ
##dừ
##go
##gầ
##gố
##hu
##hị
##hớ
##hứ
##kỷ
##lì
##lư
##mè
##mă
##mế
##nợ
##rá
##rô
##rả
##rể
##sú
##tô
##tỷ
##uô
##vẫ
##xô
##xậ
##yế
##àm
##íc
##đì
##đổ
##đứ
##ểm
##ứn
2
ơ
##281
##362
##396
##hoặ
##phơ
##trâ
##ịnh
cõ
gư
gồ
hụ
mậ
nã
nú
nắ
nẵ
nế
ri
rò
si
vê
vă
##/493
##/613
##022.
##208,
##335,
##626.
##rông
biệ
mướ
phẫ
thắ
viề
vượ
xuy
xuố
xươ
điế
điề
đươ
đườ
đượ
##/1100
##/1200
##/1500
##/1800
##/2300
##/2500
##/2700
##/3300
##63
##73
##83
##co
##dã
##dò
##dằ
##dồ
##gợ
##hè
##hậ
##hữ
##lâ
##lã
##lõ
##lũ
##lọ
##lữ
##mũ
##mả
##mợ
##nè
##nả
##nẻ
##nồ
##ră
##rẻ
##rễ
##sò
##tị
##tủ
##ue
##um
##uệ
##vắ
##vữ
##xé
##yn
##đẫ
##đỡ
##ợm
ê
ậ
##/91
##0.9
##002
##012
##215
##320
##949
##chă
##iai
##ngà
##ngậ
##nhã
##nhõ
##nhũ
##nươ
##oạn
##quẩ
##rau
##thô
##thầ
##uyê
##uyể
##ềng
cắ
dắ
gũ
lú
mă
đù
đẩ
##/527
##/710
##7.34
luy
nhặ
nhộ
phớ
thừ
trờ
##/3500
##/4100
##/4500
##/5200
##/5300
##/5500
##/6500
##/6700
##/7100
##0015,
##0375,
##0405,
##0875,
##1225,
##1425,
##1775,
##1925,
##2.500
##.1
##br
##bì
##bẩ
##bọ
##bủ
##bừ
##cọ
##cừ
##dắ
##dẻ
##dộ
##ga
##gẩ
##gỗ
##gứ
##gừ
##hử
##id
##kẹ
##lé
##lẩ
##lờ
##my
##ná
##sờ
##tè
##uắ
##uằ
##uỗ
##uỷ
##vs
##xạ
##ye
##đũ
##ũy
##ệm
5
##1.3
##121
##2.3
##300
##417
##522
##661
##811
##921
##dng
##kiệ
##luy
##lượ
##ngẩ
##ngồ
##nhì
##phâ
##phậ
##ơng
##ếng
dẫ
dằ
hẳ
lỏ
ti
vò
vạ
đụ
##/285
##/326
##/384
##/563
##/591
##/656
##/697
##/724
##002.
##014.
##202,
##202.
##215.
##394.
##481.
##vang
quố
trố
##3.500
##3325,
##3525,
##3965,
##4935,
##5000.
##5001.
##5003.
##5004.
##5005,
##5006.
##5008.
##5725,
##6005,
##6195,
##6815,
##85
##bă
##bắ
##cò
##dờ
##lú
##lả
##lẻ
##mì
##mầ
##nơ
##nở
##oằ
##ré
##rẩ
##rề
##rệ
##rớ
##sọ
##té
##tằ
##tể
##tễ
##tở
##vê
##vú
##vầ
##vỏ
##vở
##vứ
##xă
##đặ
##đỗ
##ỗn
##ởm
##.5,
##/95
##394
##49,
##5.3
##602
##682
##700
##840
##920
##94,
##biế
##hoá
##khẩ
##ngâ
##ngă
##ngơ
##ngầ
##ngắ
##ngọ
##ngờ
##ngụ
##nhă
##quỹ
##thê
##udi
##uen
##uỗi
##ỡng
cã
cừ
gớ
lả
tê
tặ
vứ
##/118
##/678
##/684
##000.
##2021
##3.00
##392.
##619.
##8081
giố
ngư
ngắ
nhâ
##/2200
##/4300
##5002.
##6825,
##7125,
##7425,
##7775,
##7825,
##8375,
##8875,
##9125,
##9415,
##dnguy
##hoang
##hoành
##hoảng
##cu
##hể
##mê
##nẵ
##rử
##sa
##un
##uồ
##xẻ
##xứ
##đé
##ụy
â
ă
##000
##00_
##095
##200
##219
##280
##493
##582
##819
##92,
##chọ
##hoi
##hoà
##hoă
##iet
##mon
##ngò
##ngõ
##ngặ
##ngợ
##ngử
##ngự
##pho
##phũ
##quệ
##rao
##rat
##uyế
##vượ
că
cặ
cọ
cỗ
cở
cợ
dõ
lé
lầ
lẩ
lở
mớ
nu
tâ
tì
tĩ
tắ
tị
tộ
vọ
vố
xậ
##/187
##/273
##/330
##/373
##/463
##/477
##/576
##019.
##201.
##3500
##401.
##4500
##462.
##5001
##5002
##5005
##5009
##5500
thấ
thẩ
##/7300
##5005.
##hoảnh
##nghiệ
##nguyề
##nguyệ
##ngông
##quyến
1.00
1.05
1.10
1.12
1.14
1.18
1.23
##0,
##câ
##cợ
##dệ
##gư
##hẳ
##nõ
##rư
##rẽ
##sâ
##sổ
##tâ
##tì
{
##1.8
##120
##2.2
##2.5
##2.6
##202
##480
##5.5
##607
##640
##85,
##iới
##iữa
##liễ
##nhá
##nhó
##nhố
##nhở
##nhự
##phở
##riề
##thỉ
##tượ
##uyn
##uyề
##van
##ven
##ẫng
bấ
bự
câ
gọ
hù
le
lậ
mắ
tằ
đè
đé
đê
đú
đấ
đẳ
đọ
đứ
##/115
##/257
##/294
##/514
##/658
##/691
##018.
##206.
##391.
##4021
##414.
##487.
##792.
##827.
##file
##udio
cưỡ
giâ
nhẫ
phẩ
trộ
##3215,
##nguyê
##nguyễ
1.26
1.30
1.33
1.36
1.42
1.52
1.54
1.68
1.74
1.78
1.83
1.84
1.86
1.90
1.94
1.95
1.96
##cã
##dũ
##gả
##hấ
##lắ
##lự
##rố
##rữ
##sì
##sạ
##vẹ
##vự
##đừ
##ữn
4
ố
ứ
##162
##179
##408
##440
##621
##628
##762
##800
##813
##bướ
##ngả
##nhỉ
##thè
##xuy
cầ
dệ
hơ
ké
lâ
lư
lớ
lụ
mé
mề
mị
mứ
mừ
né
nư
rú
tồ
tợ
vù
vầ
vậ
đơ
##/135
##/254
##/284
##/406
##/596
##2.5,
##427.
##5004
##5007
##808.
##dông
##oanh
##tAIb
##thuy
ngụ
nươ
thá
thè
thé
thă
thầ
thẫ
thậ
thẳ
thố
##/3200
##1.500
##5009.
1.32
1.98
2.02
2.03
2.04
2.06
2.07
2.08
2.12
2.18
2.22
2.23
2.24
2.25
2.26
2.27
2.28
2.32
2.34
##.3
##bã
##bò
##bẹ
##iá
##iậ
##lẫ
##nạ
##nỉ
##rà
##sà
##sẻ
##đè
##đơ
##đậ
##đụ
##ựu
##0.8
##080
##3.5
##302
##ieo
##nhú
##rên
##tAI
##uận
bô
bẫ
bằ
bọ
bừ
bữ
hợ
kẹ
lí
lị
mả
mệ
mố
mụ
nê
nõ
tậ
vữ
xó
##/251
##/271
##/297
##/505
##/557
##/572
##/619
##/738
##011.
##212.
##399.
##442.
##476.
##607.
##627.
##nhiề
##thươ
biể
chè
chì
chơ
chạ
chắ
nhệ
phỏ
điê
1.62
2.14
2.20
2.36
2.39
2.40
2.42
2.44
2.46
2.48
2.50
2.52
2.54
2.56
2.58
2.59
2.62
2.64
2.67
2.68
2.70
2.72
2.74
2.76
2.78
2.79
2.82
2.83
2.84
##bớ
##hẽ
##lầ
##mọ
##mố
##sầ
3
7
í
##062
##222
##322
##462
##562
##662
##862
##922
##gie
##hiể
##iấy
##kiể
##nhâ
##tiể
##tru
##trá
##tră
##trư
##trắ
##trừ
dọ
kị
##/227
##/303
##/323
##/437
##/589
##006.
##222.
##2221
##223.
##224.
##227.
##229.
##437.
##598.
##6200
##621.
##622.
##624.
##625.
##629.
##ngượ
##triệ
##truy
##trượ
giặ
hiể
tiể
đuố
##/3100
1.70
2.86
2.87
2.88
2.89
2.90
2.92
2.93
2.94
2.95
2.96
2.97
2.98
2.99
3.02
3.04
3.05
3.06
3.07
3.08
3.10
3.12
3.14
3.15
3.16
3.17
3.18
3.19
3.21
3.24
3.28
3.30
3.34
3.36
3.47
3.52
3.53
3.61
3.63
3.70
##52
##bô
##bú
##dậ
##gò
##hé
##lồ
##mậ
##mự
##oã
##tặ
##uạ
##vỗ
##ơu
##ỉm
ử
##122
##191
##217
##502
##598
##660
##902
##hoạ
##lin
##liề
##phẫ
##vườ
dậ
gắ
mầ
rạ
sụ
vư
vớ
xấ
xẻ
ươ
##/134
##/232
##/253
##/307
##/313
##/408
##/531
##/568
##/592
##/652
##020.
##021.
##023.
##024.
##026.
##027.
##028.
##029.
##225.
##2500
##459.
##809.
##iống
##thườ
##trườ
##tuyệ
##uồng
cườ
dườ
lườ
miệ
mườ
sườ
tườ
vườ
##/6600
##0225,
0.93
2.75
3.71
3.76
3.78
3.84
3.86
3.89
3.90
3.93
3.96
4.02
4.10
4.11
4.19
4.23
4.25
4.30
4.35
4.82
4.89
5.27
5.69
chiế
chiề
##bẫ
##cũ
##dặ
##sủ
##vọ
##xấ
##đă
##ẹo
##ửn
q
##.00
##/84
##36,
##559
##599
##839
##860
##avs
##hoả
##khắ
##oát
##trỗ
##uẫn
mự
yế
đũ
##/123
##/315
##/431
##/537
##/564
##/650
##/726
##222,
##4.82
##chiề
hoá
hoã
hoặ
##8055,
1.64
2.38
3.23
3.27
3.29
3.32
3.35
3.38
3.39
choá
chuố
chươ
chướ
giườ
huyệ
khiê
khiế
khiể
luyệ
nghè
nghé
nghê
nghì
nghẹ
ngoã
ngoè
ngoằ
ngướ
ngưỡ
ngượ
nhiế
nhiề
nhiệ
nhườ
phiế
phiề
phươ
phướ
thiề
thiệ
thuy
thuố
thươ
thướ
thườ
thưở
thượ
triế
triề
triể
triệ
trươ
trướ
trườ
trượ
tuyệ
##00225,
##02125,
##03125,
##05625,
##mò
##nằ
##vặ
##018
##159
##391
##596
##597
##66,
##780
##817
##859
##959
##ngư
##ruy
gạ
hằ
lĩ
lấ
lừ
đì
##/270
##/415
##/451
##/510
##/518
##/519
##/536
##/583
##/638
##004.
##1500
##220.
##390.
##393.
##395.
##397.
##398.
##406.
##430.
##595.
##596.
##623.
##799.
##hoay
diệ
kiể
quấ
##/3600
##3925,
##3975,
##hoáng
1.55
1.56
1.58
2.60
3.44
3.45
3.48
3.49
3.54
thoả
##06875,
##08125,
##10125,
##14375,
##15375,
##16125,
##17125,
##17375,
##19425,
##19875,
##20075,
##30625,
##30875,
##32625,
##32875,
##33875,
##34125,
##34375,
##34625,
##34875,
##36125,
##37375,
##37875,
##38625,
##40225,
##40825,
##41425,
##42175,
##44375,
##46075,
##46175,
##50025,
##50075,
##51375,
##51625,
##51875,
##53125,
##53375,
##cạ
##et
##hẫ
##iữ
##oả
##rụ
##vù
##đư
##030
##24,
##282
##613
##96,
##chĩ
##dươ
##hét
##phe
##trạ
##tưở
##êng
bả
nơ
tầ
vự
đỉ
##/108
##/111
##/113
##/170
##/185
##/207
##/215
##/224
##/290
##/309
##/567
##/585
##/653
##/670
##/706
##436.
##458.
##463.
##790.
##795.
##796.
##798.
##990.
##991.
##992.
##993.
##994.
##995.
##998.
##hông
##uộng
gượ
nhầ
##/1700
##/2900
##9425,
##9975,
##chuyệ
3.55
3.56
3.57
3.58
##53625,
##55625,
##56075,
##57375,
##57625,
##57875,
##59425,
##62225,
##66875,
##69375,
##69875,
##71875,
##72375,
##72625,
##73875,
##74125,
##74375,
##75875,
##77625,
##78375,
##79625,
##86875,
##90125,
##92875,
##93125,
##94125,
##95125,
##95375,
##95625,
##97625,
##97875,
##98375,
##99125,
##nu
##nử
##oá
##uẻ
##xư
##đẻ
##ỉn
##ỳn
##/90
##/93
##/94
##/96
##/97
##/98
##3.4
##349
##411
##56,
##617
##nhò
##nhủ
##quấ
##thằ
cạ
rầ
đặ
##/116
##/210
##/212
##/218
##/219
##/234
##/252
##/272
##/276
##/310
##/312
##/314
##/316
##/317
##/318
##/355
##/410
##/412
##/416
##/417
##/418
##/419
##/428
##/472
##/483
##/492
##/512
##/513
##/516
##/610
##/611
##/612
##/618
##/664
##/711
##/712
##/713
##/714
##/715
##/716
##/717
##/718
##/719
##/900
##219.
##452.
##618,
##hoán
liế
liễ
phâ
##/1300
##/2100
##/5100
##/6100
1.72
##12125,
##91125,
##99375,
##lepath
##nguyền
##pdnguy
1.030
1.095
1.110
1.150
1.153
1.154
1.170
1.172
1.173
1.191
1.193
1.213
##lậ
##lở
##mắ
##nò
##pa
##sụ
##tụ
##vộ
##đò
##đẳ
##6.8
##616
##680
##97,
##giấ
##phỏ
##phứ
##tườ
##uật
gộ
đí
##/130
##/133
##/136
##/137
##/171
##/172
##/175
##/176
##/190
##/192
##/193
##/194
##/195
##/230
##/231
##/233
##/236
##/274
##/277
##/278
##/291
##/293
##/295
##/332
##/333
##/334
##/336
##/337
##/370
##/371
##/374
##/376
##/378
##/390
##/391
##/392
##/393
##/394
##/395
##/396
##/397
##/413
##/430
##/432
##/433
##/434
##/435
##/436
##/438
##/470
##/473
##/475
##/490
##/491
##/575
##/577
##/635
##403.
##999.
giậ
ngẩ
quẩ
##/1900
##/3700
##/4900
##/5800
##4335,
##52625,
##90375,
##92175,
1.214
1.217
1.234
1.235
1.249
1.254
1.271
1.275
1.276
##dn
##dầ
##há
##lử
##mỉ
##uổ
##ùn
##đố
##ỡi
##101
##2.1
##473
##giú
##pha
##suố
##tươ
##uần
mỗ
rề
đẹ
##/110
##/126
##/150
##/151
##/153
##/217
##/255
##/256
##/258
##/331
##/350
##/351
##/352
##/353
##/354
##/356
##/357
##/358
##/450
##/466
##/494
##/495
##/497
##/530
##/532
##/534
##/535
##/570
##/571
##/573
##/574
##/578
##/593
##/595
##/597
##/608
##/630
##/631
##/632
##/633
##/636
##/637
##/671
##/672
##/673
##/674
##/675
##/677
##/690
##/692
##/693
##/694
##/696
##/698
##/731
##/733
##/734
##/736
##/737
##2.00
##216,
##407.
##450.
##715,
chọ
điệ
##/5700
##/5900
##/6300
##/6900
##2615,
##3415,
##5007.
4.52
nhượ
1.294
1.296
1.310
1.319
1.355
##.6
##dỗ
##hặ
##mẻ
##sặ
##sứ
##tó
##ím
##ĩn
##/83
##/85
##/87
##06,
##1.0
##1.2
##16,
##18,
##447
##474
##494
##495
##5.6
##58,
##72,
##78,
##88,
##98,
##chồ
##giả
##giọ
##phà
##thó
##uội
##/206
##/387
##/453
##/454
##/455
##/457
##/458
##/476
##/485
##/551
##/552
##/553
##/554
##/558
##/651
##/654
##/655
##/657
##/725
##/800
##010.
##218,
##4.22
##444.
##454.
##470.
##472.
##477.
##478.
##490.
##491.
##492.
##493.
##494.
##496.
##614.
##802,
##828,
##conv
##ngon
##quyề
##quyể
giú
giấ
huố
hưở
xưở
##/7200
##7275,
phượ
trưở
##11875,
##49875,
##76125,
1.373
1.374
1.375
1.394
1.411
1.412
1.413
1.414
1.415
1.433
1.438
1.440
1.446
##04
##hã
##mã
##mệ
##nỡ
##ró
##sơ
##sả
##vă
##xá
##ợu
##160
##475
##476
##khỏ
cằ
vẫ
##/107
##/125
##/163
##/165
##/166
##/167
##/168
##/183
##/184
##/188
##/204
##/225
##/228
##/229
##/263
##/265
##/268
##/283
##/286
##/288
##/289
##/324
##/325
##/328
##/335
##/364
##/365
##/366
##/368
##/369
##/383
##/385
##/386
##/388
##/389
##/423
##/426
##/429
##/464
##/465
##/467
##/469
##/486
##/487
##/488
##/523
##/525
##/526
##/528
##/565
##/566
##/569
##/588
##/634
##/687
khú
nhò
phẳ
##/1600
##/2600
##/2800
##/3800
##/4200
##/4600
##/4800
##/5600
##0615,
2.13
quyể
##51125,
1.454
1.458
1.473
1.475
1.476
1.494
1.495
1.501
1.510
1.511
1.512
1.514
1.515
##92
##hì
##vậ
##đỉ
##040
##043
##433
##435
##441
##84,
##dời
hế
nâ
rừ
sô
##/103
##/104
##/106
##/109
##/164
##/169
##/203
##/208
##/209
##/304
##/305
##/306
##/308
##/403
##/405
##/407
##/409
##/414
##/471
##/503
##/507
##/508
##/586
##/587
##/604
##/606
##/607
##/609
##/624
##/625
##/626
##/628
##/629
##/663
##/665
##/666
##/667
##/668
##/669
##/683
##/685
##/688
##/705
##/707
##/709
##/723
##/729
##431.
##433.
##434.
##435.
##438.
##451.
##453.
##456.
##457.
##819,
khâ
lướ
##/6200
##1725,
##1975,
##4.500
3.03
3.64
3.65
3.66
khoả
##28075,
1.519
1.520
1.521
1.522
1.538
1.539
1.540
1.541
1.542
1.550
1.554
1.559
1.560
1.561
1.562
1.570
##.5
##13
##24
##bự
##ep
##gủ
##hê
##hó
##lề
##rồ
##só
##tế
##uá
##xó
##xế
##ya
##ýt
##ệp
##ợc
##146
##346
##382
##420
##422
##438
##446
##452
##454
##458
##470
##511
##828
##chá
##iỏi
##nhả
##phư
##tex
##uye
##uộn
dầ
mạ
rợ
vừ
##/114
##/156
##/173
##/174
##/177
##/191
##/509
##/590
##/695
##441.
##443.
##445.
##446.
##447.
##454,
##460.
##461.
##464.
##465.
##469.
##480.
##482.
##483.
##485.
##488.
##996.
##khuy
##/3900
##/4700
##conve
1.38
1.88
3.50
##29125,
##47875,
##48875,
##durati
1.576
1.580
1.581
1.600
1.601
1.611
1.613
1.614
1.616
1.617
1.618
1.619
1.620
1.621
1.635
1.636
1.640
1.641
1.651
1.656
##0_
##al
##az
##bế
##bờ
##cở
##hi
##hô
##hắ
##tà
##tử
##vư
##vẻ
i
ú
##2.4
##3.3
##407
##410
##539
##622
##781
##chư
##hom
##hưở
##ian
##ngữ
##nhộ
##uyễ
dí
lă
rã
tẩ
vắ
vộ
đậ
##/119
##/152
##/189
##/216
##/269
##/617
##/627
##075,
##121,
##141,
##321,
##448.
##449.
##471.
##486.
##6.17
##615.
##775,
##817.
##841,
##861,
##hanh
##oảnh
cươ
ngấ
ngậ
ngặ
quạ
thằ
##/6800
##5125,
1.01
1.92
2.49
2.55
2.80
3.43
##58125,
##91875,
1.346
1.349
1.357
1.391
1.659
1.660
1.661
1.662
1.670
1.680
1.681
1.682
1.690
1.694
1.696
1.698
1.700
1.701
1.711
1.713
1.714
1.715
1.716
1.717
1.718
##bứ
##hĩ
##iỏ
##kị
##mủ
##sắ
##uỳ
##vơ
##ẽn
0
##102
##12,
##241
##611
##719
##801
##861
##881
##chù
##kiế
##nhọ
##oạt
##quâ
##quẫ
##thí
##thả
##thủ
##đườ
##ươu
##ễnh
dá
dũ
rấ
đĩ
##/197
##/223
##/267
##/311
##/372
##/504
##/603
##/614
##/727
##009.
##413.
##599.
##620.
##6500
##812.
##935,
biề
ché
chă
kiệ
ngá
1.82
2.10
2.66
3.13
3.37
thiế
tuyể
1.318
1.531
1.558
1.720
1.721
1.730
1.734
1.735
1.736
1.740
1.741
1.742
1.750
1.754
1.759
1.760
1.761
1.762
1.774
1.779
1.780
1.781
1.789
1.794
1.795
1.796
1.798
1.799
1.800
1.801
1.807
1.811
1.815
1.816
1.817
1.819
1.820
1.821
1.822
1.829
1.835
1.836
1.840
1.841
1.842
1.849
1.851
1.854
1.855
1.856
1.858
1.859
1.860
1.861
1.862
1.871
1.876
1.879
1.880
1.881
1.882
1.888
1.889
1.891
1.895
1.900
1.901
1.902
1.907
1.909
1.910
1.915
1.918
1.919
1.920
1.921
1.930
1.933
1.934
1.935
1.936
1.937
1.939
1.940
1.941
1.942
1.953
1.954
1.955
1.956
1.958
1.959
1.960
1.961
1.962
1.968
1.971
1.973
1.977
1.980
1.981
1.982
1.991
1.996
1.998
2.001
2.002
2.007
2.012
2.013
2.014
2.016
2.019
2.020
2.021
2.022
2.027
2.029
2.036
2.037
2.039
2.040
2.041
2.042
2.049
2.059
2.060
2.061
2.062
2.069
2.071
2.075
2.078
2.079
2.080
2.081
2.082
2.089
2.091
2.096
2.099
2.100
2.101
2.102
2.114
2.115
2.116
2.119
2.120
2.121
2.122
2.130
2.133
2.136
2.140
2.141
2.142
2.149
2.151
2.153
2.154
2.155
2.156
2.158
2.159
2.160
2.161
2.162
2.171
2.172
2.173
2.174
2.175
2.176
2.177
2.179
2.180
2.181
2.182
2.198
2.199
2.200
2.201
2.202
2.212
2.213
2.214
2.215
2.218
2.220
2.221
2.222
2.235
2.236
2.237
2.239
2.240
2.242
2.250
2.251
2.254
2.255
2.256
2.258
2.260
2.261
2.262
2.275
2.276
2.277
2.279
2.280
2.281
2.282
2.291
2.295
2.296
2.300
2.302
2.310
2.312
2.313
2.314
2.316
2.318
2.321
2.322
2.330
2.333
2.335
2.336
2.337
2.338
2.340
2.341
2.342
2.351
2.354
2.355
2.357
2.358
2.359
2.360
2.361
2.375
2.379
2.380
2.382
2.389
2.390
2.399
2.400
2.401
2.410
2.411
2.417
2.419
2.420
2.422
2.430
2.434
2.437
2.440
2.441
2.442
2.453
2.454
2.460
2.461
2.462
2.476
2.477
2.479
2.480
2.481
2.482
2.490
2.495
2.497
2.501
2.502
2.513
2.516
2.517
2.520
2.521
2.522
2.535
2.536
2.538
2.541
2.542
2.553
2.554
2.556
2.558
2.560
2.561
2.562
2.571
2.575
2.579
2.580
2.581
2.582
2.594
2.596
2.598
2.600
2.601
2.602
2.607
2.612
2.616
2.617
2.620
2.621
2.622
2.634
2.639
2.640
2.641
2.642
▁
##"
##t
##n
##/
##a
##i
##d
##e
##u
##h
##0
##o
##v
##5
##:
##c
##g
##l
##r
##p
##,
##.
##_
##w
##m
##2
##y
##1
##b
##s
##x
##3
##A
##B
##I
##V
##f
##{
##}
##6
##7
##4
##đ
##8
##à
##9
##ư
##ô
##k
##á
##ó
##ì
##ế
##ạ
##ấ
##ả
##ờ
##ê
##ộ
##ớ
##â
##ố
##ệ
##ề
##ể
##ủ
##ậ
##ợ
##ú
##q
##ữ
##ơ
##ọ
##ị
##ồ
##ầ
##ứ
##ắ
##ã
##ũ
##ở
##ự
##í
##ò
##ă
##ừ
##ặ
##ỏ
##ẽ
##ụ
##ù
##ẹ
##ằ
##ổ
##ỉ
##ĩ
##ử
##ý
##ỗ
##ẫ
##é
##ẻ
##ẳ
##ẩ
##ễ
##õ
##ỳ
##ỡ
##è
##ỹ
##ẵ
##ỷ
##z
